{
  "version": "1.0",
  "truncation": null,
  "padding": null,
  "added_tokens": [
    {
      "id": 0,
      "content": "[PAD]",
      "single_word": false,
      "lstrip": false,
      "rstrip": false,
      "normalized": false,
      "special": true
    },
    {
      "id": 1,
      "content": "[UNK]",
      "single_word": false,
      "lstrip": false,
      "rstrip": false,
      "normalized": false,
      "special": true
    },
    {
      "id": 2,
      "content": "[CLS]",
      "single_word": false,
      "lstrip": false,
      "rstrip": false,
      "normalized": false,
      "special": true
    },
    {
      "id": 3,
      "content": "[SEP]",
      "single_word": false,
      "lstrip": false,
      "rstrip": false,
      "normalized": false,
      "special": true
    },
    {
      "id": 4,
      "content": "[MASK]",
      "single_word": false,
      "lstrip": false,
      "rstrip": false,
      "normalized": false,
      "special": true
    }
  ],
  "normalizer": {
    "type": "BertNormalizer",
    "clean_text": true,
    "handle_chinese_chars": true,
    "strip_accents": true,
    "lowercase": true
  },
  "pre_tokenizer": {
    "type": "BertPreTokenizer"
  },
  "post_processor": {
    "type": "TemplateProcessing",
    "single": [
      {
        "SpecialToken": {
          "id": "[CLS]",
          "type_id": 0
        }
      },
      {
        "Sequence": {
          "id": "A",
          "type_id": 0
        }
      },
      {
        "SpecialToken": {
          "id": "[SEP]",
          "type_id": 0
        }
      }
    ],
    "pair": [
      {
        "SpecialToken": {
          "id": "[CLS]",
          "type_id": 0
        }
      },
      {
        "Sequence": {
          "id": "A",
          "type_id": 0
        }
      },
      {
        "SpecialToken": {
          "id": "[SEP]",
          "type_id": 0
        }
      },
      {
        "Sequence": {
          "id": "B",
          "type_id": 1
        }
      },
      {
        "SpecialToken": {
          "id": "[SEP]",
          "type_id": 1
        }
      }
    ],
    "special_tokens": {
      "[CLS]": {
        "id": "[CLS]",
        "ids": [
          2
        ],
        "tokens": [
          "[CLS]"
        ]
      },
      "[SEP]": {
        "id": "[SEP]",
        "ids": [
          3
        ],
        "tokens": [
          "[SEP]"
        ]
      }
    }
  },
  "decoder": {
    "type": "WordPiece",
    "prefix": "##",
    "cleanup": true
  },
  "model": {
    "type": "WordPiece",
    "unk_token": "[UNK]",
    "continuing_subword_prefix": "##",
    "max_input_chars_per_word": 100,
    "vocab": {
      "[PAD]": 0,
      "[UNK]": 1,
      "[CLS]": 2,
      "[SEP]": 3,
      "[MASK]": 4,
      "!": 5,
      "\"": 6,
      "#": 7,
      "$": 8,
      "%": 9,
      "&": 10,
      "'": 11,
      "(": 12,
      ")": 13,
      "*": 14,
      "+": 15,
      ",": 16,
      "-": 17,
      ".": 18,
      "/": 19,
      "0": 20,
      "1": 21,
      "2": 22,
      "3": 23,
      "4": 24,
      "5": 25,
      "6": 26,
      "7": 27,
      "8": 28,
      "9": 29,
      ":": 30,
      ";": 31,
      "<": 32,
      "=": 33,
      ">": 34,
      "?": 35,
      "@": 36,
      "[": 37,
      "\\": 38,
      "]": 39,
      "^": 40,
      "_": 41,
      "`": 42,
      "a": 43,
      "b": 44,
      "c": 45,
      "d": 46,
      "e": 47,
      "f": 48,
      "g": 49,
      "h": 50,
      "i": 51,
      "j": 52,
      "k": 53,
      "l": 54,
      "m": 55,
      "n": 56,
      "o": 57,
      "p": 58,
      "q": 59,
      "r": 60,
      "s": 61,
      "t": 62,
      "u": 63,
      "v": 64,
      "w": 65,
      "x": 66,
      "y": 67,
      "z": 68,
      "{": 69,
      "|": 70,
      "}": 71,
      "~": 72,
      "¢": 73,
      "£": 74,
      "¤": 75,
      "¥": 76,
      "§": 77,
      "¨": 78,
      "©": 79,
      "«": 80,
      "®": 81,
      "°": 82,
      "±": 83,
      "²": 84,
      "³": 85,
      "´": 86,
      "µ": 87,
      "·": 88,
      "¹": 89,
      "º": 90,
      "»": 91,
      "¼": 92,
      "½": 93,
      "¾": 94,
      "¿": 95,
      "×": 96,
      "æ": 97,
      "ð": 98,
      "÷": 99,
      "ø": 100,
      "ı": 101,
      "ł": 102,
      "ŋ": 103,
      "œ": 104,
      "ŧ": 105,
      "ƒ": 106,
      "ƕ": 107,
      "ƫ": 108,
      "ɐ": 109,
      "ɖ": 110,
      "ə": 111,
      "ɜ": 112,
      "ɡ": 113,
      "ɪ": 114,
      "ɮ": 115,
      "ɽ": 116,
      "ʉ": 117,
      "ʊ": 118,
      "ʌ": 119,
      "ʛ": 120,
      "ʻ": 121,
      "ʾ": 122,
      "ː": 123,
      "α": 124,
      "β": 125,
      "γ": 126,
      "δ": 127,
      "ε": 128,
      "η": 129,
      "θ": 130,
      "ι": 131,
      "κ": 132,
      "λ": 133,
      "μ": 134,
      "ν": 135,
      "ο": 136,
      "π": 137,
      "ρ": 138,
      "ς": 139,
      "σ": 140,
      "τ": 141,
      "φ": 142,
      "χ": 143,
      "ψ": 144,
      "ω": 145,
      "ϟ": 146,
      "а": 147,
      "б": 148,
      "в": 149,
      "г": 150,
      "д": 151,
      "е": 152,
      "ж": 153,
      "з": 154,
      "и": 155,
      "к": 156,
      "л": 157,
      "н": 158,
      "о": 159,
      "п": 160,
      "р": 161,
      "с": 162,
      "т": 163,
      "у": 164,
      "ф": 165,
      "х": 166,
      "ц": 167,
      "ч": 168,
      "щ": 169,
      "ы": 170,
      "ь": 171,
      "ю": 172,
      "я": 173,
      "ҿ": 174,
      "א": 175,
      "ב": 176,
      "ד": 177,
      "ה": 178,
      "ו": 179,
      "י": 180,
      "כ": 181,
      "ם": 182,
      "מ": 183,
      "נ": 184,
      "ס": 185,
      "פ": 186,
      "ק": 187,
      "ר": 188,
      "ש": 189,
      "ת": 190,
      "؟": 191,
      "ا": 192,
      "ب": 193,
      "ة": 194,
      "ت": 195,
      "ث": 196,
      "ج": 197,
      "ح": 198,
      "خ": 199,
      "د": 200,
      "ذ": 201,
      "ر": 202,
      "ز": 203,
      "س": 204,
      "ش": 205,
      "ص": 206,
      "ض": 207,
      "ظ": 208,
      "ع": 209,
      "غ": 210,
      "ف": 211,
      "ق": 212,
      "ك": 213,
      "ل": 214,
      "م": 215,
      "ن": 216,
      "ه": 217,
      "و": 218,
      "ى": 219,
      "ي": 220,
      "ک": 221,
      "ی": 222,
      "ः": 223,
      "अ": 224,
      "आ": 225,
      "इ": 226,
      "ई": 227,
      "उ": 228,
      "ऊ": 229,
      "ऋ": 230,
      "ए": 231,
      "ऐ": 232,
      "औ": 233,
      "क": 234,
      "ख": 235,
      "ग": 236,
      "च": 237,
      "ज": 238,
      "ट": 239,
      "ठ": 240,
      "ड": 241,
      "ण": 242,
      "त": 243,
      "थ": 244,
      "द": 245,
      "ध": 246,
      "न": 247,
      "प": 248,
      "फ": 249,
      "ब": 250,
      "भ": 251,
      "म": 252,
      "य": 253,
      "र": 254,
      "ल": 255,
      "व": 256,
      "श": 257,
      "ष": 258,
      "स": 259,
      "ह": 260,
      "ा": 261,
      "ि": 262,
      "ी": 263,
      "ो": 264,
      "ॐ": 265,
      "।": 266,
      "३": 267,
      "६": 268,
      "জ": 269,
      "ড": 270,
      "ত": 271,
      "ন": 272,
      "প": 273,
      "য": 274,
      "স": 275,
      "হ": 276,
      "া": 277,
      "ি": 278,
      "ଇ": 279,
      "କ": 280,
      "ଧ": 281,
      "ର": 282,
      "ା": 283,
      "ஆ": 284,
      "இ": 285,
      "எ": 286,
      "க": 287,
      "ங": 288,
      "ச": 289,
      "ட": 290,
      "ண": 291,
      "த": 292,
      "ந": 293,
      "ன": 294,
      "ப": 295,
      "ம": 296,
      "ய": 297,
      "ர": 298,
      "ற": 299,
      "ல": 300,
      "ள": 301,
      "ழ": 302,
      "வ": 303,
      "ா": 304,
      "ி": 305,
      "ு": 306,
      "ெ": 307,
      "ே": 308,
      "ை": 309,
      "ం": 310,
      "అ": 311,
      "జ": 312,
      "ణ": 313,
      "న": 314,
      "మ": 315,
      "ర": 316,
      "వ": 317,
      "ు": 318,
      "ూ": 319,
      "ಕ": 320,
      "ಗ": 321,
      "ಟ": 322,
      "ಣ": 323,
      "ತ": 324,
      "ದ": 325,
      "ಬ": 326,
      "ಭ": 327,
      "ಮ": 328,
      "ರ": 329,
      "ವ": 330,
      "ಸ": 331,
      "ಾ": 332,
      "ು": 333,
      "ೂ": 334,
      "ഏ": 335,
      "ക": 336,
      "ച": 337,
      "ഛ": 338,
      "ജ": 339,
      "ട": 340,
      "ത": 341,
      "ധ": 342,
      "ന": 343,
      "മ": 344,
      "ര": 345,
      "റ": 346,
      "ഴ": 347,
      "സ": 348,
      "ാ": 349,
      "ി": 350,
      "േ": 351,
      "ൺ": 352,
      "ർ": 353,
      "ൾ": 354,
      "ก": 355,
      "ค": 356,
      "ง": 357,
      "จ": 358,
      "ช": 359,
      "ซ": 360,
      "ต": 361,
      "ถ": 362,
      "ท": 363,
      "น": 364,
      "บ": 365,
      "ป": 366,
      "พ": 367,
      "ฟ": 368,
      "ม": 369,
      "ย": 370,
      "ร": 371,
      "ล": 372,
      "ว": 373,
      "ส": 374,
      "ห": 375,
      "อ": 376,
      "า": 377,
      "ำ": 378,
      "เ": 379,
      "แ": 380,
      "โ": 381,
      "ใ": 382,
      "ไ": 383,
      "ཡ": 384,
      "ᄀ": 385,
      "ᄁ": 386,
      "ᄂ": 387,
      "ᄃ": 388,
      "ᄅ": 389,
      "ᄆ": 390,
      "ᄇ": 391,
      "ᄉ": 392,
      "ᄋ": 393,
      "ᄌ": 394,
      "ᄎ": 395,
      "ᄏ": 396,
      "ᄒ": 397,
      "ᅡ": 398,
      "ᅢ": 399,
      "ᅥ": 400,
      "ᅦ": 401,
      "ᅧ": 402,
      "ᅩ": 403,
      "ᅫ": 404,
      "ᅬ": 405,
      "ᅭ": 406,
      "ᅮ": 407,
      "ᅱ": 408,
      "ᅳ": 409,
      "ᅵ": 410,
      "ᆫ": 411,
      "ᆭ": 412,
      "ᆯ": 413,
      "ᆷ": 414,
      "ᆻ": 415,
      "ᆼ": 416,
      "‑": 417,
      "–": 418,
      "—": 419,
      "‖": 420,
      "‘": 421,
      "’": 422,
      "“": 423,
      "”": 424,
      "•": 425,
      "…": 426,
      "′": 427,
      "″": 428,
      "⁄": 429,
      "⁴": 430,
      "₂": 431,
      "₅": 432,
      "€": 433,
      "₹": 434,
      "℃": 435,
      "℅": 436,
      "ℝ": 437,
      "℞": 438,
      "™": 439,
      "→": 440,
      "∀": 441,
      "∂": 442,
      "∃": 443,
      "∅": 444,
      "∆": 445,
      "∈": 446,
      "−": 447,
      "∓": 448,
      "∖": 449,
      "√": 450,
      "∝": 451,
      "∞": 452,
      "∠": 453,
      "∧": 454,
      "∩": 455,
      "∪": 456,
      "∫": 457,
      "≈": 458,
      "≜": 459,
      "≡": 460,
      "≤": 461,
      "≥": 462,
      "⊂": 463,
      "⊃": 464,
      "⊆": 465,
      "⊇": 466,
      "⋯": 467,
      "⌈": 468,
      "⌉": 469,
      "┬": 470,
      "╥": 471,
      "◾": 472,
      "☉": 473,
      "☐": 474,
      "☺": 475,
      "♎": 476,
      "♥": 477,
      "⚡": 478,
      "⚪": 479,
      "✂": 480,
      "✊": 481,
      "✢": 482,
      "➡": 483,
      "➰": 484,
      "⺈": 485,
      "、": 486,
      "。": 487,
      "「": 488,
      "」": 489,
      "〖": 490,
      "〗": 491,
      "〽": 492,
      "あ": 493,
      "い": 494,
      "う": 495,
      "か": 496,
      "き": 497,
      "く": 498,
      "け": 499,
      "こ": 500,
      "さ": 501,
      "し": 502,
      "す": 503,
      "せ": 504,
      "そ": 505,
      "た": 506,
      "つ": 507,
      "て": 508,
      "と": 509,
      "な": 510,
      "に": 511,
      "の": 512,
      "は": 513,
      "ひ": 514,
      "ふ": 515,
      "ほ": 516,
      "ま": 517,
      "み": 518,
      "も": 519,
      "や": 520,
      "よ": 521,
      "ら": 522,
      "る": 523,
      "れ": 524,
      "を": 525,
      "ん": 526,
      "イ": 527,
      "ク": 528,
      "シ": 529,
      "ト": 530,
      "フ": 531,
      "ホ": 532,
      "ル": 533,
      "ン": 534,
      "ー": 535,
      "ㅋ": 536,
      "㊗": 537,
      "㊙": 538,
      "㎡": 539,
      "一": 540,
      "丁": 541,
      "三": 542,
      "上": 543,
      "下": 544,
      "不": 545,
      "与": 546,
      "专": 547,
      "世": 548,
      "东": 549,
      "个": 550,
      "中": 551,
      "主": 552,
      "久": 553,
      "么": 554,
      "义": 555,
      "之": 556,
      "乐": 557,
      "也": 558,
      "买": 559,
      "乾": 560,
      "了": 561,
      "事": 562,
      "二": 563,
      "亚": 564,
      "些": 565,
      "交": 566,
      "亮": 567,
      "人": 568,
      "什": 569,
      "仁": 570,
      "今": 571,
      "从": 572,
      "他": 573,
      "付": 574,
      "令": 575,
      "以": 576,
      "们": 577,
      "仰": 578,
      "任": 579,
      "份": 580,
      "伐": 581,
      "休": 582,
      "会": 583,
      "伝": 584,
      "伤": 585,
      "伯": 586,
      "但": 587,
      "位": 588,
      "体": 589,
      "何": 590,
      "你": 591,
      "使": 592,
      "來": 593,
      "例": 594,
      "便": 595,
      "信": 596,
      "修": 597,
      "做": 598,
      "傷": 599,
      "傻": 600,
      "僕": 601,
      "儿": 602,
      "允": 603,
      "先": 604,
      "光": 605,
      "兔": 606,
      "入": 607,
      "內": 608,
      "公": 609,
      "共": 610,
      "关": 611,
      "兴": 612,
      "其": 613,
      "内": 614,
      "冉": 615,
      "冒": 616,
      "冷": 617,
      "几": 618,
      "出": 619,
      "分": 620,
      "刚": 621,
      "初": 622,
      "利": 623,
      "别": 624,
      "到": 625,
      "制": 626,
      "則": 627,
      "功": 628,
      "动": 629,
      "動": 630,
      "勿": 631,
      "十": 632,
      "南": 633,
      "卡": 634,
      "印": 635,
      "即": 636,
      "卷": 637,
      "厚": 638,
      "去": 639,
      "又": 640,
      "友": 641,
      "反": 642,
      "变": 643,
      "口": 644,
      "另": 645,
      "叫": 646,
      "可": 647,
      "吃": 648,
      "合": 649,
      "吉": 650,
      "名": 651,
      "后": 652,
      "吐": 653,
      "向": 654,
      "君": 655,
      "吝": 656,
      "吴": 657,
      "员": 658,
      "呵": 659,
      "呼": 660,
      "哥": 661,
      "唱": 662,
      "啦": 663,
      "啪": 664,
      "啬": 665,
      "喃": 666,
      "善": 667,
      "喝": 668,
      "回": 669,
      "国": 670,
      "土": 671,
      "在": 672,
      "地": 673,
      "场": 674,
      "坏": 675,
      "型": 676,
      "壁": 677,
      "夏": 678,
      "外": 679,
      "多": 680,
      "夜": 681,
      "夢": 682,
      "大": 683,
      "天": 684,
      "太": 685,
      "失": 686,
      "奖": 687,
      "女": 688,
      "好": 689,
      "如": 690,
      "妈": 691,
      "妙": 692,
      "妮": 693,
      "子": 694,
      "字": 695,
      "存": 696,
      "孤": 697,
      "学": 698,
      "安": 699,
      "宋": 700,
      "客": 701,
      "宪": 702,
      "家": 703,
      "寂": 704,
      "寒": 705,
      "寞": 706,
      "对": 707,
      "导": 708,
      "封": 709,
      "将": 710,
      "小": 711,
      "少": 712,
      "尚": 713,
      "就": 714,
      "尼": 715,
      "局": 716,
      "居": 717,
      "工": 718,
      "左": 719,
      "己": 720,
      "市": 721,
      "师": 722,
      "師": 723,
      "常": 724,
      "帽": 725,
      "干": 726,
      "平": 727,
      "年": 728,
      "幸": 729,
      "序": 730,
      "度": 731,
      "廉": 732,
      "建": 733,
      "开": 734,
      "弱": 735,
      "形": 736,
      "往": 737,
      "很": 738,
      "律": 739,
      "得": 740,
      "循": 741,
      "心": 742,
      "必": 743,
      "忍": 744,
      "忘": 745,
      "怀": 746,
      "思": 747,
      "恋": 748,
      "恬": 749,
      "息": 750,
      "悄": 751,
      "情": 752,
      "惊": 753,
      "想": 754,
      "愁": 755,
      "意": 756,
      "愛": 757,
      "感": 758,
      "懂": 759,
      "戏": 760,
      "成": 761,
      "我": 762,
      "战": 763,
      "手": 764,
      "才": 765,
      "打": 766,
      "扣": 767,
      "抜": 768,
      "押": 769,
      "抽": 770,
      "拍": 771,
      "招": 772,
      "持": 773,
      "插": 774,
      "搬": 775,
      "摄": 776,
      "撑": 777,
      "支": 778,
      "收": 779,
      "改": 780,
      "放": 781,
      "政": 782,
      "整": 783,
      "文": 784,
      "斯": 785,
      "方": 786,
      "族": 787,
      "无": 788,
      "日": 789,
      "旮": 790,
      "时": 791,
      "昂": 792,
      "易": 793,
      "星": 794,
      "昧": 795,
      "是": 796,
      "晚": 797,
      "晶": 798,
      "暧": 799,
      "最": 800,
      "月": 801,
      "有": 802,
      "朋": 803,
      "朝": 804,
      "未": 805,
      "本": 806,
      "术": 807,
      "杂": 808,
      "权": 809,
      "杨": 810,
      "杰": 811,
      "杵": 812,
      "果": 813,
      "枯": 814,
      "柳": 815,
      "校": 816,
      "核": 817,
      "格": 818,
      "栽": 819,
      "桂": 820,
      "森": 821,
      "極": 822,
      "槽": 823,
      "横": 824,
      "欺": 825,
      "步": 826,
      "武": 827,
      "歪": 828,
      "每": 829,
      "毒": 830,
      "比": 831,
      "毕": 832,
      "民": 833,
      "气": 834,
      "氣": 835,
      "水": 836,
      "汉": 837,
      "沓": 838,
      "没": 839,
      "法": 840,
      "洞": 841,
      "洲": 842,
      "海": 843,
      "消": 844,
      "淡": 845,
      "港": 846,
      "游": 847,
      "湃": 848,
      "満": 849,
      "满": 850,
      "演": 851,
      "漢": 852,
      "澎": 853,
      "澳": 854,
      "激": 855,
      "火": 856,
      "点": 857,
      "為": 858,
      "炼": 859,
      "無": 860,
      "然": 861,
      "煥": 862,
      "熱": 863,
      "燥": 864,
      "爱": 865,
      "片": 866,
      "特": 867,
      "独": 868,
      "狼": 869,
      "猫": 870,
      "王": 871,
      "玩": 872,
      "玲": 873,
      "理": 874,
      "琴": 875,
      "用": 876,
      "画": 877,
      "疑": 878,
      "疼": 879,
      "病": 880,
      "痴": 881,
      "白": 882,
      "百": 883,
      "的": 884,
      "皮": 885,
      "目": 886,
      "看": 887,
      "真": 888,
      "睨": 889,
      "睹": 890,
      "瞎": 891,
      "知": 892,
      "砖": 893,
      "碰": 894,
      "磨": 895,
      "礼": 896,
      "社": 897,
      "神": 898,
      "科": 899,
      "窩": 900,
      "立": 901,
      "竟": 902,
      "笑": 903,
      "筋": 904,
      "答": 905,
      "簷": 906,
      "粘": 907,
      "精": 908,
      "系": 909,
      "経": 910,
      "緣": 911,
      "级": 912,
      "统": 913,
      "缅": 914,
      "缘": 915,
      "美": 916,
      "翻": 917,
      "老": 918,
      "耻": 919,
      "胖": 920,
      "能": 921,
      "脏": 922,
      "脑": 923,
      "脸": 924,
      "腰": 925,
      "腻": 926,
      "膜": 927,
      "自": 928,
      "色": 929,
      "艾": 930,
      "花": 931,
      "苦": 932,
      "草": 933,
      "荧": 934,
      "荫": 935,
      "莉": 936,
      "莫": 937,
      "菁": 938,
      "華": 939,
      "萌": 940,
      "萎": 941,
      "著": 942,
      "蓮": 943,
      "虫": 944,
      "行": 945,
      "袋": 946,
      "被": 947,
      "装": 948,
      "西": 949,
      "要": 950,
      "見": 951,
      "親": 952,
      "规": 953,
      "角": 954,
      "言": 955,
      "話": 956,
      "語": 957,
      "説": 958,
      "證": 959,
      "譬": 960,
      "让": 961,
      "许": 962,
      "译": 963,
      "语": 964,
      "诱": 965,
      "说": 966,
      "课": 967,
      "谁": 968,
      "象": 969,
      "货": 970,
      "质": 971,
      "购": 972,
      "贰": 973,
      "赋": 974,
      "走": 975,
      "赵": 976,
      "起": 977,
      "超": 978,
      "践": 979,
      "踏": 980,
      "身": 981,
      "転": 982,
      "车": 983,
      "轮": 984,
      "轴": 985,
      "辣": 986,
      "边": 987,
      "达": 988,
      "过": 989,
      "运": 990,
      "还": 991,
      "这": 992,
      "进": 993,
      "迷": 994,
      "逆": 995,
      "选": 996,
      "這": 997,
      "通": 998,
      "逢": 999,
      "逼": 1000,
      "運": 1001,
      "達": 1002,
      "遗": 1003,
      "那": 1004,
      "郊": 1005,
      "醉": 1006,
      "释": 1007,
      "野": 1008,
      "量": 1009,
      "金": 1010,
      "针": 1011,
      "钢": 1012,
      "铁": 1013,
      "锋": 1014,
      "长": 1015,
      "開": 1016,
      "问": 1017,
      "阿": 1018,
      "陰": 1019,
      "陽": 1020,
      "随": 1021,
      "隐": 1022,
      "隔": 1023,
      "雅": 1024,
      "需": 1025,
      "霍": 1026,
      "露": 1027,
      "静": 1028,
      "非": 1029,
      "靠": 1030,
      "面": 1031,
      "音": 1032,
      "题": 1033,
      "风": 1034,
      "飛": 1035,
      "香": 1036,
      "骂": 1037,
      "骗": 1038,
      "骚": 1039,
      "高": 1040,
      "鲜": 1041,
      "鴻": 1042,
      "鸡": 1043,
      "鹵": 1044,
      "麽": 1045,
      "黎": 1046,
      "黑": 1047,
      "鼠": 1048,
      "ﬁ": 1049,
      "！": 1050,
      "（": 1051,
      "）": 1052,
      "，": 1053,
      "－": 1054,
      "？": 1055,
      "￦": 1056,
      "￼": 1057,
      "##s": 1058,
      "##n": 1059,
      "##t": 1060,
      "##o": 1061,
      "##l": 1062,
      "##y": 1063,
      "##p": 1064,
      "##r": 1065,
      "##i": 1066,
      "##c": 1067,
      "##f": 1068,
      "##m": 1069,
      "##e": 1070,
      "##h": 1071,
      "##u": 1072,
      "##a": 1073,
      "##g": 1074,
      "##d": 1075,
      "##k": 1076,
      "##9": 1077,
      "##4": 1078,
      "##7": 1079,
      "##6": 1080,
      "##1": 1081,
      "##v": 1082,
      "##0": 1083,
      "##8": 1084,
      "##5": 1085,
      "##2": 1086,
      "##z": 1087,
      "##w": 1088,
      "##j": 1089,
      "##b": 1090,
      "##x": 1091,
      "##q": 1092,
      "##°": 1093,
      "##च": 1094,
      "##श": 1095,
      "##3": 1096,
      "##ो": 1097,
      "##√": 1098,
      "##л": 1099,
      "##е": 1100,
      "##к": 1101,
      "##с": 1102,
      "##а": 1103,
      "##н": 1104,
      "##д": 1105,
      "##р": 1106,
      "##о": 1107,
      "##в": 1108,
      "##и": 1109,
      "##ч": 1110,
      "##द": 1111,
      "##ब": 1112,
      "##ी": 1113,
      "##´": 1114,
      "##の": 1115,
      "##た": 1116,
      "##ひ": 1117,
      "##は": 1118,
      "##こ": 1119,
      "##ि": 1120,
      "##ख": 1121,
      "##ा": 1122,
      "##न": 1123,
      "##ग": 1124,
      "##ह": 1125,
      "##ज": 1126,
      "##ᅡ": 1127,
      "##ᄌ": 1128,
      "##ᅵ": 1129,
      "##ᄆ": 1130,
      "##ᆫ": 1131,
      "##€": 1132,
      "##ᅳ": 1133,
      "##ᆯ": 1134,
      "##≥": 1135,
      "##φ": 1136,
      "##ʉ": 1137,
      "##ʛ": 1138,
      "##ƕ": 1139,
      "##६": 1140,
      "##у": 1141,
      "##ю": 1142,
      "##ь": 1143,
      "##÷": 1144,
      "##−": 1145,
      "##℅": 1146,
      "##ı": 1147,
      "##³": 1148,
      "##π": 1149,
      "##→": 1150,
      "##ع": 1151,
      "##ي": 1152,
      "##د": 1153,
      "##ऊ": 1154,
      "##β": 1155,
      "##स": 1156,
      "##×": 1157,
      "##ل": 1158,
      "##س": 1159,
      "##ف": 1160,
      "##∝": 1161,
      "##व": 1162,
      "##য": 1163,
      "##া": 1164,
      "##ড": 1165,
      "##প": 1166,
      "##হ": 1167,
      "##خ": 1168,
      "##र": 1169,
      "##त": 1170,
      "##ω": 1171,
      "##ا": 1172,
      "##م": 1173,
      "##ب": 1174,
      "##و": 1175,
      "##ر": 1176,
      "##ج": 1177,
      "##²": 1178,
      "##ம": 1179,
      "##ி": 1180,
      "##ழ": 1181,
      "##ण": 1182,
      "##ฟ": 1183,
      "##น": 1184,
      "##ำ": 1185,
      "##ค": 1186,
      "##า": 1187,
      "##ง": 1188,
      "##т": 1189,
      "##ц": 1190,
      "##я": 1191,
      "##ð": 1192,
      "##ы": 1193,
      "##म": 1194,
      "##ः": 1195,
      "##ה": 1196,
      "##ו": 1197,
      "##י": 1198,
      "##ק": 1199,
      "##ם": 1200,
      "##☉": 1201,
      "##ᅬ": 1202,
      "##ᄁ": 1203,
      "##ᄋ": 1204,
      "##ᅭ": 1205,
      "##ष": 1206,
      "##ま": 1207,
      "##て": 1208,
      "##さ": 1209,
      "##い": 1210,
      "##す": 1211,
      "##ك": 1212,
      "##ら": 1213,
      "##➡": 1214,
      "##≤": 1215,
      "##प": 1216,
      "##य": 1217,
      "##る": 1218,
      "##ه": 1219,
      "##ى": 1220,
      "##ø": 1221,
      "##ル": 1222,
      "##ー": 1223,
      "##フ": 1224,
      "##േ": 1225,
      "##ർ": 1226,
      "##ക": 1227,
      "##ാ": 1228,
      "##ഴ": 1229,
      "##ച": 1230,
      "##ൾ": 1231,
      "##₹": 1232,
      "##з": 1233,
      "##п": 1234,
      "##г": 1235,
      "##ی": 1236,
      "##ک": 1237,
      "##ن": 1238,
      "##₂": 1239,
      "##₅": 1240,
      "##ल": 1241,
      "##ல": 1242,
      "##ா": 1243,
      "##ை": 1244,
      "##£": 1245,
      "##½": 1246,
      "##ट": 1247,
      "##ಾ": 1248,
      "##ರ": 1249,
      "##ು": 1250,
      "##ಕ": 1251,
      "##ಟ": 1252,
      "##क": 1253,
      "##ங": 1254,
      "##க": 1255,
      "##ு": 1256,
      "##ซ": 1257,
      "##เ": 1258,
      "##ว": 1259,
      "##ร": 1260,
      "##ت": 1261,
      "##ش": 1262,
      "##ق": 1263,
      "##¹": 1264,
      "##¨": 1265,
      "##ป": 1266,
      "##ส": 1267,
      "##ต": 1268,
      "##ض": 1269,
      "##±": 1270,
      "##ก": 1271,
      "##ไ": 1272,
      "##ม": 1273,
      "##อ": 1274,
      "##ล": 1275,
      "##ถ": 1276,
      "##พ": 1277,
      "##れ": 1278,
      "##も": 1279,
      "##ə": 1280,
      "##æ": 1281,
      "##த": 1282,
      "##ட": 1283,
      "##μ": 1284,
      "##™": 1285,
      "##ন": 1286,
      "##ত": 1287,
      "##ি": 1288,
      "##ᄅ": 1289,
      "##ᅥ": 1290,
      "##ᄃ": 1291,
      "##ᅦ": 1292,
      "##∞": 1293,
      "##ೂ": 1294,
      "##ன": 1295,
      "##ய": 1296,
      "##ச": 1297,
      "##ெ": 1298,
      "##ł": 1299,
      "##º": 1300,
      "##ס": 1301,
      "##ص": 1302,
      "##ା": 1303,
      "##ଇ": 1304,
      "##כ": 1305,
      "##נ": 1306,
      "##ת": 1307,
      "##㎡": 1308,
      "##ช": 1309,
      "##भ": 1310,
      "##⁄": 1311,
      "##ʌ": 1312,
      "##¢": 1313,
      "##つ": 1314,
      "##¥": 1315,
      "##ح": 1316,
      "##ة": 1317,
      "##ƒ": 1318,
      "##⚪": 1319,
      "##ᆼ": 1320,
      "##ᄒ": 1321,
      "##ᅧ": 1322,
      "##￼": 1323,
      "##щ": 1324,
      "##ŧ": 1325,
      "##ర": 1326,
      "##వ": 1327,
      "##ం": 1328,
      "##ठ": 1329,
      "##ɪ": 1330,
      "##ŋ": 1331,
      "##ж": 1332,
      "##थ": 1333,
      "##ध": 1334,
      "##ذ": 1335,
      "##ᄀ": 1336,
      "##ᅮ": 1337,
      "##ᅢ": 1338,
      "##ᅩ": 1339,
      "##ತ": 1340,
      "##ಸ": 1341,
      "##ಮ": 1342,
      "##ᄏ": 1343,
      "##ᄉ": 1344,
      "##ई": 1345,
      "##㊙": 1346,
      "##㊗": 1347,
      "##⊆": 1348,
      "##な": 1349,
      "##℃": 1350,
      "##แ": 1351,
      "##จ": 1352,
      "##ท": 1353,
      "##ே": 1354,
      "##ι": 1355,
      "##ε": 1356,
      "##ν": 1357,
      "##ᅫ": 1358,
      "##ᆻ": 1359,
      "##פ": 1360,
      "##ൺ": 1361,
      "##ി": 1362,
      "##ര": 1363,
      "##ത": 1364,
      "##ూ": 1365,
      "##జ": 1366,
      "##ు": 1367,
      "##ణ": 1368,
      "##ρ": 1369,
      "##ο": 1370,
      "##κ": 1371,
      "##λ": 1372,
      "##η": 1373,
      "##ς": 1374,
      "##θ": 1375,
      "##ड": 1376,
      "##ר": 1377,
      "##ᆷ": 1378,
      "##ᆭ": 1379,
      "##み": 1380,
      "##や": 1381,
      "##®": 1382,
      "##ใ": 1383,
      "##வ": 1384,
      "##⁴": 1385,
      "##∧": 1386,
      "##ん": 1387,
      "##よ": 1388,
      "##χ": 1389,
      "##σ": 1390,
      "##ற": 1391,
      "##ண": 1392,
      "##ಗ": 1393,
      "##ಣ": 1394,
      "##ز": 1395,
      "##α": 1396,
      "##τ": 1397,
      "##と": 1398,
      "##く": 1399,
      "##ホ": 1400,
      "##イ": 1401,
      "##ン": 1402,
      "##ト": 1403,
      "##∩": 1404,
      "##अ": 1405,
      "##ದ": 1406,
      "##ಭ": 1407,
      "##ವ": 1408,
      "##ᄂ": 1409,
      "##ᄎ": 1410,
      "##บ": 1411,
      "##غ": 1412,
      "##ظ": 1413,
      "##ए": 1414,
      "##б": 1415,
      "##か": 1416,
      "##ث": 1417,
      "##┬": 1418,
      "##ҿ": 1419,
      "##ϟ": 1420,
      "##ɮ": 1421,
      "##あ": 1422,
      "##ʊ": 1423,
      "##ᅱ": 1424,
      "##х": 1425,
      "##∀": 1426,
      "##ཡ": 1427,
      "##∂": 1428,
      "##ː": 1429,
      "##ர": 1430,
      "##∪": 1431,
      "##ର": 1432,
      "##ʻ": 1433,
      "##ほ": 1434,
      "##し": 1435,
      "##ד": 1436,
      "##ധ": 1437,
      "##ഏ": 1438,
      "##ഛ": 1439,
      "##そ": 1440,
      "##う": 1441,
      "##സ": 1442,
      "##റ": 1443,
      "##ย": 1444,
      "##at": 1445,
      "##he": 1446,
      "wh": 1447,
      "##re": 1448,
      "the": 1449,
      "##in": 1450,
      "##es": 1451,
      "##an": 1452,
      "##er": 1453,
      "##on": 1454,
      "what": 1455,
      "in": 1456,
      "##ou": 1457,
      "##or": 1458,
      "##ow": 1459,
      "is": 1460,
      "##en": 1461,
      "do": 1462,
      "##ing": 1463,
      "to": 1464,
      "an": 1465,
      "##ar": 1466,
      "how": 1467,
      "##al": 1468,
      "##it": 1469,
      "##om": 1470,
      "##ic": 1471,
      "of": 1472,
      "##st": 1473,
      "##le": 1474,
      "are": 1475,
      "##et": 1476,
      "##ed": 1477,
      "and": 1478,
      "you": 1479,
      "##ion": 1480,
      "can": 1481,
      "##ve": 1482,
      "##est": 1483,
      "for": 1484,
      "##il": 1485,
      "th": 1486,
      "##as": 1487,
      "##ld": 1488,
      "on": 1489,
      "##ac": 1490,
      "##is": 1491,
      "be": 1492,
      "##ro": 1493,
      "##ent": 1494,
      "st": 1495,
      "##oo": 1496,
      "##el": 1497,
      "##id": 1498,
      "why": 1499,
      "##am": 1500,
      "it": 1501,
      "##ot": 1502,
      "##ay": 1503,
      "##ome": 1504,
      "my": 1505,
      "##ec": 1506,
      "##ould": 1507,
      "best": 1508,
      "ha": 1509,
      "li": 1510,
      "##ke": 1511,
      "##ir": 1512,
      "##ter": 1513,
      "##ol": 1514,
      "##ver": 1515,
      "##ig": 1516,
      "##ce": 1517,
      "re": 1518,
      "sh": 1519,
      "##ad": 1520,
      "##op": 1521,
      "does": 1522,
      "##ly": 1523,
      "mo": 1524,
      "##ut": 1525,
      "some": 1526,
      "##se": 1527,
      "##ith": 1528,
      "##ation": 1529,
      "##di": 1530,
      "or": 1531,
      "##ur": 1532,
      "we": 1533,
      "##one": 1534,
      "##ill": 1535,
      "##ri": 1536,
      "with": 1537,
      "pro": 1538,
      "##ag": 1539,
      "##ch": 1540,
      "com": 1541,
      "##pp": 1542,
      "##if": 1543,
      "##ich": 1544,
      "##ear": 1545,
      "##im": 1546,
      "whe": 1547,
      "##fe": 1548,
      "##um": 1549,
      "get": 1550,
      "which": 1551,
      "if": 1552,
      "indi": 1553,
      "##ate": 1554,
      "qu": 1555,
      "fr": 1556,
      "ma": 1557,
      "have": 1558,
      "ch": 1559,
      "ex": 1560,
      "that": 1561,
      "##00": 1562,
      "should": 1563,
      "tr": 1564,
      "##nt": 1565,
      "##ct": 1566,
      "##ul": 1567,
      "wor": 1568,
      "me": 1569,
      "as": 1570,
      "##ers": 1571,
      "de": 1572,
      "##us": 1573,
      "##th": 1574,
      "con": 1575,
      "en": 1576,
      "##ine": 1577,
      "your": 1578,
      "from": 1579,
      "##ood": 1580,
      "at": 1581,
      "##ant": 1582,
      "ne": 1583,
      "##ist": 1584,
      "##out": 1585,
      "##are": 1586,
      "##ess": 1587,
      "##os": 1588,
      "not": 1589,
      "##ble": 1590,
      "al": 1591,
      "un": 1592,
      "##mp": 1593,
      "bet": 1594,
      "us": 1595,
      "##res": 1596,
      "##art": 1597,
      "comp": 1598,
      "##ie": 1599,
      "##ect": 1600,
      "india": 1601,
      "so": 1602,
      "##ap": 1603,
      "will": 1604,
      "##ook": 1605,
      "pe": 1606,
      "##ies": 1607,
      "##un": 1608,
      "##ht": 1609,
      "who": 1610,
      "##her": 1611,
      "ab": 1612,
      "##ment": 1613,
      "peop": 1614,
      "##ack": 1615,
      "when": 1616,
      "people": 1617,
      "su": 1618,
      "##ind": 1619,
      "se": 1620,
      "dif": 1621,
      "##ang": 1622,
      "like": 1623,
      "am": 1624,
      "good": 1625,
      "go": 1626,
      "way": 1627,
      "##ity": 1628,
      "##ren": 1629,
      "##end": 1630,
      "##ive": 1631,
      "sp": 1632,
      "##age": 1633,
      "would": 1634,
      "##ain": 1635,
      "##and": 1636,
      "there": 1637,
      "lo": 1638,
      "any": 1639,
      "pl": 1640,
      "##we": 1641,
      "af": 1642,
      "diffe": 1643,
      "##ight": 1644,
      "##ore": 1645,
      "ac": 1646,
      "##ort": 1647,
      "##ions": 1648,
      "man": 1649,
      "eng": 1650,
      "##ical": 1651,
      "sc": 1652,
      "ph": 1653,
      "about": 1654,
      "##lo": 1655,
      "##ite": 1656,
      "##ip": 1657,
      "##ween": 1658,
      "between": 1659,
      "##ak": 1660,
      "one": 1661,
      "##ong": 1662,
      "he": 1663,
      "##ure": 1664,
      "##ount": 1665,
      "did": 1666,
      "int": 1667,
      "##act": 1668,
      "most": 1669,
      "imp": 1670,
      "##ud": 1671,
      "##ast": 1672,
      "##ora": 1673,
      "app": 1674,
      "##ard": 1675,
      "##now": 1676,
      "##ace": 1677,
      "make": 1678,
      "lear": 1679,
      "ad": 1680,
      "learn": 1681,
      "quora": 1682,
      "pre": 1683,
      "##all": 1684,
      "20": 1685,
      "##ass": 1686,
      "was": 1687,
      "by": 1688,
      "tim": 1689,
      "where": 1690,
      "##ide": 1691,
      "know": 1692,
      "##ink": 1693,
      "##ans": 1694,
      "cl": 1695,
      "co": 1696,
      "##ial": 1697,
      "##ell": 1698,
      "work": 1699,
      "fe": 1700,
      "##ice": 1701,
      "##ra": 1702,
      "ever": 1703,
      "##ram": 1704,
      "##ust": 1705,
      "##ish": 1706,
      "life": 1707,
      "##ia": 1708,
      "mar": 1709,
      "jo": 1710,
      "don": 1711,
      "##der": 1712,
      "##our": 1713,
      "differen": 1714,
      "le": 1715,
      "##iv": 1716,
      "##ence": 1717,
      "##ile": 1718,
      "they": 1719,
      "after": 1720,
      "##ry": 1721,
      "201": 1722,
      "time": 1723,
      "##oney": 1724,
      "##ge": 1725,
      "##ally": 1726,
      "start": 1727,
      "##ail": 1728,
      "year": 1729,
      "this": 1730,
      "##qu": 1731,
      "##vel": 1732,
      "##av": 1733,
      "money": 1734,
      "new": 1735,
      "##ary": 1736,
      "##pt": 1737,
      "all": 1738,
      "##ck": 1739,
      "##ff": 1740,
      "acc": 1741,
      "##ab": 1742,
      "has": 1743,
      "up": 1744,
      "bec": 1745,
      "##ame": 1746,
      "exp": 1747,
      "ar": 1748,
      "##ber": 1749,
      "gr": 1750,
      "use": 1751,
      "difference": 1752,
      "mu": 1753,
      "##ther": 1754,
      "inter": 1755,
      "##ance": 1756,
      "ta": 1757,
      "thing": 1758,
      "inst": 1759,
      "res": 1760,
      "##irl": 1761,
      "te": 1762,
      "bu": 1763,
      "##ics": 1764,
      "stud": 1765,
      "quest": 1766,
      "think": 1767,
      "##od": 1768,
      "##bs": 1769,
      "##iz": 1770,
      "##ech": 1771,
      "happ": 1772,
      "##vie": 1773,
      "##ump": 1774,
      "bl": 1775,
      "##riend": 1776,
      "much": 1777,
      "mean": 1778,
      "##em": 1779,
      "girl": 1780,
      "book": 1781,
      "##ire": 1782,
      "##ue": 1783,
      "someone": 1784,
      "##oun": 1785,
      "col": 1786,
      "out": 1787,
      "their": 1788,
      "ear": 1789,
      "engine": 1790,
      "##lect": 1791,
      "##og": 1792,
      "per": 1793,
      "pos": 1794,
      "rec": 1795,
      "many": 1796,
      "pres": 1797,
      "other": 1798,
      "##ign": 1799,
      "##ase": 1800,
      "day": 1801,
      "##up": 1802,
      "##ated": 1803,
      "##ree": 1804,
      "##du": 1805,
      "than": 1806,
      "find": 1807,
      "##line": 1808,
      "but": 1809,
      "##ub": 1810,
      "po": 1811,
      "##les": 1812,
      "##ach": 1813,
      "##si": 1814,
      "##000": 1815,
      "indian": 1816,
      "exam": 1817,
      "want": 1818,
      "pr": 1819,
      "##ath": 1820,
      "##int": 1821,
      "trump": 1822,
      "##rent": 1823,
      "##able": 1824,
      "##ations": 1825,
      "sy": 1826,
      "happen": 1827,
      "more": 1828,
      "fir": 1829,
      "##ep": 1830,
      "##ult": 1831,
      "rel": 1832,
      "##ru": 1833,
      "pers": 1834,
      "ser": 1835,
      "##ous": 1836,
      "sa": 1837,
      "##iver": 1838,
      "world": 1839,
      "cont": 1840,
      "without": 1841,
      "br": 1842,
      "dis": 1843,
      "feel": 1844,
      "become": 1845,
      "##erm": 1846,
      "che": 1847,
      "wr": 1848,
      "##ound": 1849,
      "##ick": 1850,
      "online": 1851,
      "##ory": 1852,
      "better": 1853,
      "engineer": 1854,
      "person": 1855,
      "first": 1856,
      "##ors": 1857,
      "##lish": 1858,
      "##oug": 1859,
      "prog": 1860,
      "##ft": 1861,
      "count": 1862,
      "elect": 1863,
      "##ph": 1864,
      "wat": 1865,
      "ban": 1866,
      "off": 1867,
      "##ident": 1868,
      "program": 1869,
      "cons": 1870,
      "##red": 1871,
      "over": 1872,
      "##de": 1873,
      "comm": 1874,
      "des": 1875,
      "mark": 1876,
      "inc": 1877,
      "##ress": 1878,
      "no": 1879,
      "##ces": 1880,
      "job": 1881,
      "act": 1882,
      "compan": 1883,
      "sm": 1884,
      "need": 1885,
      "##book": 1886,
      "inv": 1887,
      "english": 1888,
      "##sible": 1889,
      "univer": 1890,
      "account": 1891,
      "pol": 1892,
      "impro": 1893,
      "##ting": 1894,
      "##ord": 1895,
      "under": 1896,
      "ev": 1897,
      "into": 1898,
      "could": 1899,
      "ag": 1900,
      "prep": 1901,
      "buy": 1902,
      "love": 1903,
      "##ving": 1904,
      "bo": 1905,
      "vis": 1906,
      "##elf": 1907,
      "##orm": 1908,
      "take": 1909,
      "num": 1910,
      "2016": 1911,
      "##own": 1912,
      "fl": 1913,
      "gu": 1914,
      "face": 1915,
      "long": 1916,
      "##reat": 1917,
      "war": 1918,
      "##ys": 1919,
      "possible": 1920,
      "improve": 1921,
      "car": 1922,
      "ca": 1923,
      "them": 1924,
      "##ience": 1925,
      "##hip": 1926,
      "em": 1927,
      "mon": 1928,
      "##ict": 1929,
      "##ild": 1930,
      "wom": 1931,
      "##ough": 1932,
      "##iness": 1933,
      "ask": 1934,
      "##gle": 1935,
      "chang": 1936,
      "friend": 1937,
      "##ald": 1938,
      "old": 1939,
      "eff": 1940,
      "bus": 1941,
      "lang": 1942,
      "langu": 1943,
      "president": 1944,
      "500": 1945,
      "things": 1946,
      "questions": 1947,
      "cal": 1948,
      "##let": 1949,
      "her": 1950,
      "compare": 1951,
      "phone": 1952,
      "##ian": 1953,
      "notes": 1954,
      "sex": 1955,
      "##ool": 1956,
      "pass": 1957,
      "goo": 1958,
      "##ert": 1959,
      "##olog": 1960,
      "cur": 1961,
      "tech": 1962,
      "##ning": 1963,
      "weight": 1964,
      "student": 1965,
      "##ade": 1966,
      "part": 1967,
      "were": 1968,
      "engineering": 1969,
      "##cess": 1970,
      "##ages": 1971,
      "really": 1972,
      "ways": 1973,
      "1000": 1974,
      "##ee": 1975,
      "used": 1976,
      "##ual": 1977,
      "tra": 1978,
      "ans": 1979,
      "##ens": 1980,
      "##velop": 1981,
      "google": 1982,
      "##king": 1983,
      "##ities": 1984,
      "donald": 1985,
      "business": 1986,
      "##ating": 1987,
      "##lic": 1988,
      "##view": 1989,
      "stop": 1990,
      "mus": 1991,
      "webs": 1992,
      "develop": 1993,
      "##yp": 1994,
      "intern": 1995,
      "being": 1996,
      "real": 1997,
      "hel": 1998,
      "spe": 1999,
      "##ient": 2000,
      "programm": 2001,
      "different": 2002,
      "fun": 2003,
      "sk": 2004,
      "back": 2005,
      "bel": 2006,
      "import": 2007,
      "number": 2008,
      "univers": 2009,
      "##eric": 2010,
      "chin": 2011,
      "##ata": 2012,
      "she": 2013,
      "##oc": 2014,
      "colle": 2015,
      "hig": 2016,
      "effect": 2017,
      "att": 2018,
      "just": 2019,
      "top": 2020,
      "##eth": 2021,
      "look": 2022,
      "tw": 2023,
      "americ": 2024,
      "sol": 2025,
      "using": 2026,
      "la": 2027,
      "win": 2028,
      "##ific": 2029,
      "##ful": 2030,
      "see": 2031,
      "##phone": 2032,
      "his": 2033,
      "##its": 2034,
      "##ples": 2035,
      "med": 2036,
      "play": 2037,
      "sch": 2038,
      "black": 2039,
      "##ject": 2040,
      "cr": 2041,
      "##ates": 2042,
      "facebook": 2043,
      "every": 2044,
      "answ": 2045,
      "ro": 2046,
      "books": 2047,
      "thr": 2048,
      "read": 2049,
      "help": 2050,
      "inf": 2051,
      "mat": 2052,
      "free": 2053,
      "dec": 2054,
      "rep": 2055,
      "10": 2056,
      "op": 2057,
      "say": 2058,
      "language": 2059,
      "now": 2060,
      "movie": 2061,
      "##gy": 2062,
      "study": 2063,
      "lose": 2064,
      "##con": 2065,
      "##led": 2066,
      "down": 2067,
      "sim": 2068,
      "soc": 2069,
      "##orn": 2070,
      "been": 2071,
      "##stem": 2072,
      "##cy": 2073,
      "word": 2074,
      "##rest": 2075,
      "##duct": 2076,
      "##iss": 2077,
      "##low": 2078,
      "inte": 2079,
      "sal": 2080,
      "market": 2081,
      "hum": 2082,
      "ke": 2083,
      "##ix": 2084,
      "eas": 2085,
      "question": 2086,
      "system": 2087,
      "had": 2088,
      "its": 2089,
      "cre": 2090,
      "ve": 2091,
      "gen": 2092,
      "##vice": 2093,
      "rem": 2094,
      "##way": 2095,
      "##ism": 2096,
      "##agram": 2097,
      "years": 2098,
      "big": 2099,
      "##uter": 2100,
      "##ular": 2101,
      "mov": 2102,
      "##ational": 2103,
      "prof": 2104,
      "##fer": 2105,
      "sec": 2106,
      "still": 2107,
      "##ware": 2108,
      "programming": 2109,
      "emp": 2110,
      "going": 2111,
      "add": 2112,
      "maj": 2113,
      "month": 2114,
      "school": 2115,
      "##fore": 2116,
      "##ons": 2117,
      "trans": 2118,
      "instagram": 2119,
      "only": 2120,
      "vide": 2121,
      "change": 2122,
      "aff": 2123,
      "company": 2124,
      "supp": 2125,
      "care": 2126,
      "##kes": 2127,
      "computer": 2128,
      "before": 2129,
      "women": 2130,
      "##apt": 2131,
      "hack": 2132,
      "incre": 2133,
      "##ose": 2134,
      "movies": 2135,
      "hill": 2136,
      "prepare": 2137,
      "str": 2138,
      "cor": 2139,
      "invest": 2140,
      "pri": 2141,
      "##ond": 2142,
      "reg": 2143,
      "card": 2144,
      "blo": 2145,
      "cour": 2146,
      "##ely": 2147,
      "##ower": 2148,
      "##xt": 2149,
      "##friend": 2150,
      "##roid": 2151,
      "earth": 2152,
      "pur": 2153,
      "##ise": 2154,
      "##ows": 2155,
      "bad": 2156,
      "college": 2157,
      "rs": 2158,
      "##ology": 2159,
      "av": 2160,
      "##inton": 2161,
      "pay": 2162,
      "char": 2163,
      "##use": 2164,
      "##ures": 2165,
      "plan": 2166,
      "##iting": 2167,
      "##ese": 2168,
      "android": 2169,
      "red": 2170,
      "##mon": 2171,
      "exper": 2172,
      "clinton": 2173,
      "##ba": 2174,
      "examples": 2175,
      "im": 2176,
      "high": 2177,
      "live": 2178,
      "math": 2179,
      "country": 2180,
      "test": 2181,
      "min": 2182,
      "##ative": 2183,
      "##ited": 2184,
      "website": 2185,
      "class": 2186,
      "##self": 2187,
      "##uring": 2188,
      "##ily": 2189,
      "our": 2190,
      "form": 2191,
      "interest": 2192,
      "##day": 2193,
      "##ne": 2194,
      "iphone": 2195,
      "song": 2196,
      "##ites": 2197,
      "ide": 2198,
      "ind": 2199,
      "while": 2200,
      "##urn": 2201,
      "learning": 2202,
      "##ments": 2203,
      "prop": 2204,
      "##ery": 2205,
      "gover": 2206,
      "soft": 2207,
      "##als": 2208,
      "##ition": 2209,
      "typ": 2210,
      "rup": 2211,
      "##co": 2212,
      "bas": 2213,
      "##ution": 2214,
      "data": 2215,
      "exist": 2216,
      "##get": 2217,
      "govern": 2218,
      "##ody": 2219,
      "mot": 2220,
      "del": 2221,
      "##load": 2222,
      "important": 2223,
      "##wn": 2224,
      "##loy": 2225,
      "through": 2226,
      "bi": 2227,
      "vie": 2228,
      "##ark": 2229,
      "grad": 2230,
      "view": 2231,
      "##ees": 2232,
      "dep": 2233,
      "air": 2234,
      "men": 2235,
      "again": 2236,
      "##ts": 2237,
      "hillary": 2238,
      "##hi": 2239,
      "##ollow": 2240,
      "ins": 2241,
      "product": 2242,
      "##alth": 2243,
      "##ps": 2244,
      "##ms": 2245,
      "net": 2246,
      "made": 2247,
      "increase": 2248,
      "det": 2249,
      "dr": 2250,
      "earn": 2251,
      "##app": 2252,
      "same": 2253,
      "bank": 2254,
      "fast": 2255,
      "software": 2256,
      "science": 2257,
      "##ene": 2258,
      "electr": 2259,
      "right": 2260,
      "techn": 2261,
      "##ash": 2262,
      "water": 2263,
      "##sc": 2264,
      "travel": 2265,
      "fav": 2266,
      "two": 2267,
      "leg": 2268,
      "##ake": 2269,
      "follow": 2270,
      "watch": 2271,
      "relations": 2272,
      "dri": 2273,
      "##gest": 2274,
      "##iet": 2275,
      "own": 2276,
      "great": 2277,
      "sing": 2278,
      "econ": 2279,
      "##ced": 2280,
      "##bile": 2281,
      "place": 2282,
      "fin": 2283,
      "##istan": 2284,
      "##ale": 2285,
      "mess": 2286,
      "econom": 2287,
      "government": 2288,
      "##me": 2289,
      "fact": 2290,
      "##az": 2291,
      "##ital": 2292,
      "during": 2293,
      "employ": 2294,
      "bat": 2295,
      "##rop": 2296,
      "sur": 2297,
      "##ss": 2298,
      "interview": 2299,
      "##ices": 2300,
      "design": 2301,
      "hot": 2302,
      "bre": 2303,
      "ho": 2304,
      "lapt": 2305,
      "laptop": 2306,
      "##ll": 2307,
      "end": 2308,
      "##word": 2309,
      "hand": 2310,
      "##ones": 2311,
      "prov": 2312,
      "##iest": 2313,
      "phot": 2314,
      "##ract": 2315,
      "ener": 2316,
      "mobile": 2317,
      "##ize": 2318,
      "##io": 2319,
      "name": 2320,
      "tell": 2321,
      "adv": 2322,
      "home": 2323,
      "##earch": 2324,
      "hard": 2325,
      "fam": 2326,
      "cam": 2327,
      "##gin": 2328,
      "ob": 2329,
      "mast": 2330,
      "relationship": 2331,
      "sign": 2332,
      "##ually": 2333,
      "##ork": 2334,
      "val": 2335,
      "reas": 2336,
      "cat": 2337,
      "energy": 2338,
      "pak": 2339,
      "web": 2340,
      "university": 2341,
      "anyone": 2342,
      "cent": 2343,
      "give": 2344,
      "##hes": 2345,
      "##ream": 2346,
      "him": 2347,
      "##ically": 2348,
      "delet": 2349,
      "##ger": 2350,
      "affect": 2351,
      "##rib": 2352,
      "process": 2353,
      "answer": 2354,
      "hair": 2355,
      "cost": 2356,
      "##ption": 2357,
      "##gn": 2358,
      "som": 2359,
      "social": 2360,
      "fil": 2361,
      "##ious": 2362,
      "child": 2363,
      "har": 2364,
      "##ute": 2365,
      "pakistan": 2366,
      "food": 2367,
      "##tle": 2368,
      "##verage": 2369,
      "hist": 2370,
      "getting": 2371,
      "##ieve": 2372,
      "rid": 2373,
      "##ries": 2374,
      "##gs": 2375,
      "law": 2376,
      "companies": 2377,
      "china": 2378,
      "health": 2379,
      "speak": 2380,
      "sub": 2381,
      "proble": 2382,
      "##ght": 2383,
      "friends": 2384,
      "##ames": 2385,
      "true": 2386,
      "even": 2387,
      "meaning": 2388,
      "bang": 2389,
      "##ube": 2390,
      "post": 2391,
      "fat": 2392,
      "come": 2393,
      "##man": 2394,
      "average": 2395,
      "download": 2396,
      "##ved": 2397,
      "then": 2398,
      "pop": 2399,
      "days": 2400,
      "term": 2401,
      "visit": 2402,
      "doing": 2403,
      "human": 2404,
      "power": 2405,
      "gre": 2406,
      "eat": 2407,
      "sw": 2408,
      "requ": 2409,
      "career": 2410,
      "##aut": 2411,
      "2017": 2412,
      "jav": 2413,
      "gener": 2414,
      "ps": 2415,
      "##gr": 2416,
      "mind": 2417,
      "list": 2418,
      "boy": 2419,
      "##ah": 2420,
      "##lim": 2421,
      "yout": 2422,
      "state": 2423,
      "##ills": 2424,
      "mech": 2425,
      "##ality": 2426,
      "sent": 2427,
      "non": 2428,
      "cult": 2429,
      "video": 2430,
      "##ips": 2431,
      "run": 2432,
      "##aph": 2433,
      "##aces": 2434,
      "##rist": 2435,
      "usa": 2436,
      "##oot": 2437,
      "whats": 2438,
      "##ction": 2439,
      "write": 2440,
      "guy": 2441,
      "password": 2442,
      "tv": 2443,
      "too": 2444,
      "anim": 2445,
      "support": 2446,
      "major": 2447,
      "safe": 2448,
      "##vert": 2449,
      "spec": 2450,
      "##duc": 2451,
      "##cle": 2452,
      "##cept": 2453,
      "##ried": 2454,
      "god": 2455,
      "mechan": 2456,
      "students": 2457,
      "sn": 2458,
      "aut": 2459,
      "##rol": 2460,
      "##ider": 2461,
      "ass": 2462,
      "suc": 2463,
      "youtube": 2464,
      "##form": 2465,
      "##ents": 2466,
      "done": 2467,
      "doesn": 2468,
      "##ling": 2469,
      "email": 2470,
      "tal": 2471,
      "working": 2472,
      "fore": 2473,
      "current": 2474,
      "##per": 2475,
      "happens": 2476,
      "##ied": 2477,
      "##pect": 2478,
      "experience": 2479,
      "pub": 2480,
      "##ote": 2481,
      "less": 2482,
      "wind": 2483,
      "favor": 2484,
      "dist": 2485,
      "##leep": 2486,
      "rupee": 2487,
      "##ten": 2488,
      "##ull": 2489,
      "build": 2490,
      "having": 2491,
      "game": 2492,
      "hear": 2493,
      "very": 2494,
      "##so": 2495,
      "girls": 2496,
      "##bo": 2497,
      "keep": 2498,
      "ent": 2499,
      "modi": 2500,
      "whatsapp": 2501,
      "##ek": 2502,
      "##ank": 2503,
      "##erman": 2504,
      "##ock": 2505,
      "service": 2506,
      "call": 2507,
      "gm": 2508,
      "##over": 2509,
      "el": 2510,
      "##te": 2511,
      "##ines": 2512,
      "##anc": 2513,
      "fut": 2514,
      "##ala": 2515,
      "15": 2516,
      "##ave": 2517,
      "12": 2518,
      "##bi": 2519,
      "countries": 2520,
      "dig": 2521,
      "##arent": 2522,
      "phys": 2523,
      "##ired": 2524,
      "let": 2525,
      "##ways": 2526,
      "favorite": 2527,
      "equ": 2528,
      "ret": 2529,
      "light": 2530,
      "got": 2531,
      "ap": 2532,
      "open": 2533,
      "last": 2534,
      "body": 2535,
      "##ple": 2536,
      "temp": 2537,
      "##min": 2538,
      "##br": 2539,
      "##ai": 2540,
      "##ars": 2541,
      "pain": 2542,
      "future": 2543,
      "hotel": 2544,
      "##wood": 2545,
      "beh": 2546,
      "history": 2547,
      "white": 2548,
      "##land": 2549,
      "main": 2550,
      "##ner": 2551,
      "tak": 2552,
      "sleep": 2553,
      "employees": 2554,
      "##oth": 2555,
      "giv": 2556,
      "grow": 2557,
      "mem": 2558,
      "##ouse": 2559,
      "##ural": 2560,
      "meth": 2561,
      "train": 2562,
      "kind": 2563,
      "bene": 2564,
      "##ric": 2565,
      "prepar": 2566,
      "week": 2567,
      "success": 2568,
      "##vices": 2569,
      "ext": 2570,
      "apply": 2571,
      "conf": 2572,
      "##ets": 2573,
      "##ings": 2574,
      "believe": 2575,
      "##ug": 2576,
      "smart": 2577,
      "##ves": 2578,
      "show": 2579,
      "benef": 2580,
      "art": 2581,
      "delhi": 2582,
      "manage": 2583,
      "skills": 2584,
      "##hed": 2585,
      "##pl": 2586,
      "##thing": 2587,
      "parent": 2588,
      "age": 2589,
      "java": 2590,
      "rest": 2591,
      "##ral": 2592,
      "project": 2593,
      "effects": 2594,
      "music": 2595,
      "girlfriend": 2596,
      "chinese": 2597,
      "myself": 2598,
      "remo": 2599,
      "cle": 2600,
      "against": 2601,
      "election": 2602,
      "##cent": 2603,
      "tips": 2604,
      "worth": 2605,
      "##lywood": 2606,
      "next": 2607,
      "mechanical": 2608,
      "##other": 2609,
      "##ization": 2610,
      "create": 2611,
      "def": 2612,
      "##ern": 2613,
      "mac": 2614,
      "##udi": 2615,
      "control": 2616,
      "block": 2617,
      "##ollywood": 2618,
      "##cul": 2619,
      "places": 2620,
      "met": 2621,
      "join": 2622,
      "##iod": 2623,
      "pros": 2624,
      "differences": 2625,
      "marketing": 2626,
      "review": 2627,
      "educ": 2628,
      "##erat": 2629,
      "german": 2630,
      "internet": 2631,
      "caus": 2632,
      "cap": 2633,
      "##erc": 2634,
      "makes": 2635,
      "pen": 2636,
      "states": 2637,
      "applic": 2638,
      "self": 2639,
      "police": 2640,
      "making": 2641,
      "anal": 2642,
      "##ants": 2643,
      "recover": 2644,
      "commun": 2645,
      "##apan": 2646,
      "interesting": 2647,
      "american": 2648,
      "fall": 2649,
      "##ility": 2650,
      "japan": 2651,
      "common": 2652,
      "##work": 2653,
      "united": 2654,
      "par": 2655,
      "civ": 2656,
      "polit": 2657,
      "##ists": 2658,
      "period": 2659,
      "##ik": 2660,
      "windows": 2661,
      "begin": 2662,
      "startup": 2663,
      "##ision": 2664,
      "cell": 2665,
      "code": 2666,
      "los": 2667,
      "priv": 2668,
      "##vers": 2669,
      "##ness": 2670,
      "gradu": 2671,
      "##antages": 2672,
      "mic": 2673,
      "reason": 2674,
      "these": 2675,
      "##ror": 2676,
      "ed": 2677,
      "mor": 2678,
      "civil": 2679,
      "score": 2680,
      "eu": 2681,
      "never": 2682,
      "##ories": 2683,
      "set": 2684,
      "hy": 2685,
      "##ield": 2686,
      "##air": 2687,
      "stock": 2688,
      "woman": 2689,
      "##ying": 2690,
      "salary": 2691,
      "chan": 2692,
      "deal": 2693,
      "each": 2694,
      "avail": 2695,
      "dream": 2696,
      "pregn": 2697,
      "##ier": 2698,
      "america": 2699,
      "around": 2700,
      "bro": 2701,
      "amaz": 2702,
      "actually": 2703,
      "attract": 2704,
      "pot": 2705,
      "quick": 2706,
      "course": 2707,
      "redu": 2708,
      "culture": 2709,
      "##mat": 2710,
      "##ret": 2711,
      "rus": 2712,
      "##ty": 2713,
      "canad": 2714,
      "series": 2715,
      "##acter": 2716,
      "psy": 2717,
      "##ruct": 2718,
      "chem": 2719,
      "##ency": 2720,
      "demon": 2721,
      "available": 2722,
      "id": 2723,
      "answers": 2724,
      "looking": 2725,
      "hour": 2726,
      "someth": 2727,
      "ce": 2728,
      "gmail": 2729,
      "something": 2730,
      "dark": 2731,
      "##oose": 2732,
      "deg": 2733,
      "##ont": 2734,
      "##ney": 2735,
      "die": 2736,
      "mil": 2737,
      "pict": 2738,
      "opt": 2739,
      "##idered": 2740,
      "considered": 2741,
      "always": 2742,
      "psych": 2743,
      "##mit": 2744,
      "mod": 2745,
      "today": 2746,
      "dem": 2747,
      "##osed": 2748,
      "purp": 2749,
      "##ify": 2750,
      "##ards": 2751,
      "19": 2752,
      "months": 2753,
      "gain": 2754,
      "sell": 2755,
      "development": 2756,
      "nat": 2757,
      "another": 2758,
      "economy": 2759,
      "org": 2760,
      "site": 2761,
      "speed": 2762,
      "writing": 2763,
      "near": 2764,
      "tax": 2765,
      "ey": 2766,
      "profess": 2767,
      "delete": 2768,
      "break": 2769,
      "found": 2770,
      "parents": 2771,
      "pan": 2772,
      "##ffic": 2773,
      "##ope": 2774,
      "won": 2775,
      "install": 2776,
      "universities": 2777,
      "##ding": 2778,
      "ir": 2779,
      "##itive": 2780,
      "pun": 2781,
      "log": 2782,
      "##har": 2783,
      "##alore": 2784,
      "well": 2785,
      "type": 2786,
      "foreign": 2787,
      "##ges": 2788,
      "space": 2789,
      "bir": 2790,
      "mba": 2791,
      "##ma": 2792,
      "point": 2793,
      "jobs": 2794,
      "calcul": 2795,
      "aust": 2796,
      "lat": 2797,
      "stay": 2798,
      "muslim": 2799,
      "idea": 2800,
      "ra": 2801,
      "indust": 2802,
      "search": 2803,
      "wif": 2804,
      "move": 2805,
      "note": 2806,
      "snap": 2807,
      "##rect": 2808,
      "dru": 2809,
      "ant": 2810,
      "popular": 2811,
      "mach": 2812,
      "##ently": 2813,
      "fre": 2814,
      "head": 2815,
      "grou": 2816,
      "services": 2817,
      "je": 2818,
      "sug": 2819,
      "small": 2820,
      "cert": 2821,
      "wear": 2822,
      "##ause": 2823,
      "##ense": 2824,
      "dire": 2825,
      "happened": 2826,
      "universe": 2827,
      "mom": 2828,
      "such": 2829,
      "problem": 2830,
      "##ional": 2831,
      "level": 2832,
      "public": 2833,
      "##oid": 2834,
      "##urb": 2835,
      "vir": 2836,
      "instit": 2837,
      "purpose": 2838,
      "sou": 2839,
      "drink": 2840,
      "py": 2841,
      "##ush": 2842,
      "iit": 2843,
      "able": 2844,
      "character": 2845,
      "behind": 2846,
      "##illion": 2847,
      "education": 2848,
      "games": 2849,
      "##aching": 2850,
      "bangalore": 2851,
      "##nd": 2852,
      "##tc": 2853,
      "expl": 2854,
      "boyfriend": 2855,
      "living": 2856,
      "##ister": 2857,
      "scient": 2858,
      "songs": 2859,
      "star": 2860,
      "##ams": 2861,
      "wrong": 2862,
      "worst": 2863,
      "##ven": 2864,
      "##ince": 2865,
      "demonet": 2866,
      "super": 2867,
      "100": 2868,
      "writ": 2869,
      "##ross": 2870,
      "##nect": 2871,
      "seen": 2872,
      "##ange": 2873,
      "##ama": 2874,
      "##ormal": 2875,
      "family": 2876,
      "differ": 2877,
      "successful": 2878,
      "loc": 2879,
      "sl": 2880,
      "uk": 2881,
      "determ": 2882,
      "##ead": 2883,
      "send": 2884,
      "lot": 2885,
      "##ilar": 2886,
      "expect": 2887,
      "date": 2888,
      "put": 2889,
      "private": 2890,
      "because": 2891,
      "digital": 2892,
      "pat": 2893,
      "ms": 2894,
      "presidential": 2895,
      "mag": 2896,
      "##ians": 2897,
      "##ission": 2898,
      "lit": 2899,
      "technology": 2900,
      "cause": 2901,
      "websites": 2902,
      "height": 2903,
      "turn": 2904,
      "##ton": 2905,
      "instead": 2906,
      "##bers": 2907,
      "house": 2908,
      "order": 2909,
      "apple": 2910,
      "mass": 2911,
      "management": 2912,
      "2000": 2913,
      "cred": 2914,
      "asked": 2915,
      "const": 2916,
      "majors": 2917,
      "##na": 2918,
      "ste": 2919,
      "saf": 2920,
      "##uck": 2921,
      "degree": 2922,
      "porn": 2923,
      "##port": 2924,
      "##ux": 2925,
      "reduce": 2926,
      "relig": 2927,
      "hate": 2928,
      "cy": 2929,
      "##ipp": 2930,
      "##omm": 2931,
      "share": 2932,
      "international": 2933,
      "death": 2934,
      "##ium": 2935,
      "curren": 2936,
      "apps": 2937,
      "connect": 2938,
      "times": 2939,
      "effective": 2940,
      "##come": 2941,
      "text": 2942,
      "sentence": 2943,
      "bar": 2944,
      "easily": 2945,
      "tri": 2946,
      "similar": 2947,
      "talk": 2948,
      "opp": 2949,
      "city": 2950,
      "##itable": 2951,
      "##ung": 2952,
      "cou": 2953,
      "sour": 2954,
      "tou": 2955,
      "##thon": 2956,
      "kill": 2957,
      "##ds": 2958,
      "austral": 2959,
      "short": 2960,
      "traffic": 2961,
      "30": 2962,
      "arm": 2963,
      "##ien": 2964,
      "cand": 2965,
      "ter": 2966,
      "allow": 2967,
      "ip": 2968,
      "facts": 2969,
      "center": 2970,
      "pregnant": 2971,
      "based": 2972,
      "legal": 2973,
      "causes": 2974,
      "visa": 2975,
      "wal": 2976,
      "deb": 2977,
      "canada": 2978,
      "##hol": 2979,
      "iss": 2980,
      "choose": 2981,
      "nor": 2982,
      "offic": 2983,
      "indians": 2984,
      "##tern": 2985,
      "complet": 2986,
      "calif": 2987,
      "biggest": 2988,
      "python": 2989,
      "californ": 2990,
      "sites": 2991,
      "stat": 2992,
      "night": 2993,
      "##iety": 2994,
      "##ym": 2995,
      "christ": 2996,
      "##ters": 2997,
      "currency": 2998,
      "##ses": 2999,
      "##pa": 3000,
      "both": 3001,
      "also": 3002,
      "vol": 3003,
      "struct": 3004,
      "mix": 3005,
      "bal": 3006,
      "##sia": 3007,
      "story": 3008,
      "dog": 3009,
      "machine": 3010,
      "##olution": 3011,
      "media": 3012,
      "benefits": 3013,
      "##rat": 3014,
      "gate": 3015,
      "compared": 3016,
      "##xy": 3017,
      "##cl": 3018,
      "##rope": 3019,
      "jee": 3020,
      "##ift": 3021,
      "cir": 3022,
      "california": 3023,
      "lead": 3024,
      "##ought": 3025,
      "europe": 3026,
      "stand": 3027,
      "##ird": 3028,
      "drug": 3029,
      "##cc": 3030,
      "##aste": 3031,
      "cut": 3032,
      "##ost": 3033,
      "treat": 3034,
      "##lease": 3035,
      "##crib": 3036,
      "##iction": 3037,
      "field": 3038,
      "accept": 3039,
      "##mar": 3040,
      "##ude": 3041,
      "decision": 3042,
      "micro": 3043,
      "000": 3044,
      "est": 3045,
      "battle": 3046,
      "##ins": 3047,
      "amazon": 3048,
      "value": 3049,
      "terms": 3050,
      "correct": 3051,
      "videos": 3052,
      "normal": 3053,
      "strong": 3054,
      "green": 3055,
      "pc": 3056,
      "pap": 3057,
      "step": 3058,
      "products": 3059,
      "tool": 3060,
      "##less": 3061,
      "alco": 3062,
      "given": 3063,
      "alcohol": 3064,
      "fix": 3065,
      "##ogr": 3066,
      "ur": 3067,
      "##ib": 3068,
      "photos": 3069,
      "views": 3070,
      "remove": 3071,
      "intro": 3072,
      "direct": 3073,
      "ref": 3074,
      "medical": 3075,
      "humans": 3076,
      "resp": 3077,
      "pract": 3078,
      "##ression": 3079,
      "sun": 3080,
      "ones": 3081,
      "second": 3082,
      "birth": 3083,
      "smo": 3084,
      "function": 3085,
      "shot": 3086,
      "18": 3087,
      "##cri": 3088,
      "exact": 3089,
      "west": 3090,
      "model": 3091,
      "contact": 3092,
      "##chat": 3093,
      "preparation": 3094,
      "low": 3095,
      "impact": 3096,
      "vote": 3097,
      "##icket": 3098,
      "recru": 3099,
      "masturb": 3100,
      "etc": 3101,
      "react": 3102,
      "profile": 3103,
      "##read": 3104,
      "overcome": 3105,
      "inform": 3106,
      "blog": 3107,
      "must": 3108,
      "##ana": 3109,
      "didn": 3110,
      "ang": 3111,
      "pa": 3112,
      "group": 3113,
      "##ior": 3114,
      "##ather": 3115,
      "banning": 3116,
      "called": 3117,
      "##ship": 3118,
      "partic": 3119,
      "lin": 3120,
      "created": 3121,
      "solar": 3122,
      "temperat": 3123,
      "##idence": 3124,
      "sat": 3125,
      "##stand": 3126,
      "scre": 3127,
      "coaching": 3128,
      "suggest": 3129,
      "orig": 3130,
      "phil": 3131,
      "rate": 3132,
      "##ov": 3133,
      "##acy": 3134,
      "check": 3135,
      "drive": 3136,
      "theory": 3137,
      "##ential": 3138,
      "percent": 3139,
      "brit": 3140,
      "known": 3141,
      "snapchat": 3142,
      "full": 3143,
      "side": 3144,
      "prev": 3145,
      "research": 3146,
      "11": 3147,
      "intell": 3148,
      "hours": 3149,
      "vers": 3150,
      "##rav": 3151,
      "easiest": 3152,
      "##ration": 3153,
      "##ues": 3154,
      "rece": 3155,
      "organ": 3156,
      "network": 3157,
      "ideas": 3158,
      "studi": 3159,
      "imm": 3160,
      "gold": 3161,
      "intellig": 3162,
      "method": 3163,
      "##erv": 3164,
      "##lock": 3165,
      "communic": 3166,
      "yourself": 3167,
      "marri": 3168,
      "mult": 3169,
      "physics": 3170,
      "fight": 3171,
      "beaut": 3172,
      "##ator": 3173,
      "##akes": 3174,
      "fres": 3175,
      "cheap": 3176,
      "file": 3177,
      "matter": 3178,
      "16": 3179,
      "mist": 3180,
      "##ane": 3181,
      "##hab": 3182,
      "##oice": 3183,
      "##abad": 3184,
      "ok": 3185,
      "others": 3186,
      "avoid": 3187,
      "##lam": 3188,
      "##eng": 3189,
      "##urity": 3190,
      "##ible": 3191,
      "ge": 3192,
      "single": 3193,
      "trad": 3194,
      "syd": 3195,
      "##ids": 3196,
      "2015": 3197,
      "credit": 3198,
      "##oud": 3199,
      "land": 3200,
      "mum": 3201,
      "sydney": 3202,
      "50": 3203,
      "##bai": 3204,
      "children": 3205,
      "##ograph": 3206,
      "##ination": 3207,
      "brain": 3208,
      "quality": 3209,
      "germany": 3210,
      "meet": 3211,
      "office": 3212,
      "recruit": 3213,
      "##ails": 3214,
      "easy": 3215,
      "ment": 3216,
      "link": 3217,
      "mid": 3218,
      "desert": 3219,
      "application": 3220,
      "ep": 3221,
      "faster": 3222,
      "##utions": 3223,
      "advice": 3224,
      "lar": 3225,
      "ast": 3226,
      "anything": 3227,
      "australia": 3228,
      "ias": 3229,
      "suic": 3230,
      "strate": 3231,
      "left": 3232,
      "understand": 3233,
      "becom": 3234,
      "store": 3235,
      "russia": 3236,
      "25": 3237,
      "200": 3238,
      "bollywood": 3239,
      "wa": 3240,
      "##imum": 3241,
      "origin": 3242,
      "famous": 3243,
      "south": 3244,
      "tur": 3245,
      "##ler": 3246,
      "track": 3247,
      "access": 3248,
      "improvement": 3249,
      "cop": 3250,
      "blood": 3251,
      "tor": 3252,
      "##hing": 3253,
      "##anger": 3254,
      "marks": 3255,
      "flu": 3256,
      "required": 3257,
      "information": 3258,
      "ver": 3259,
      "##han": 3260,
      "guys": 3261,
      "dail": 3262,
      "diff": 3263,
      "poke": 3264,
      "messages": 3265,
      "brand": 3266,
      "options": 3267,
      "solve": 3268,
      "##ume": 3269,
      "neg": 3270,
      "lik": 3271,
      "rom": 3272,
      "emot": 3273,
      "##owing": 3274,
      "creat": 3275,
      "##itions": 3276,
      "marriage": 3277,
      "mumbai": 3278,
      "institute": 3279,
      "cold": 3280,
      "news": 3281,
      "daily": 3282,
      "fa": 3283,
      "size": 3284,
      "resour": 3285,
      "courses": 3286,
      "signific": 3287,
      "##ball": 3288,
      "adm": 3289,
      "##order": 3290,
      "advantages": 3291,
      "distance": 3292,
      "rupees": 3293,
      "##oms": 3294,
      "##ety": 3295,
      "studying": 3296,
      "canc": 3297,
      "prot": 3298,
      "##ides": 3299,
      "kore": 3300,
      "sum": 3301,
      "##ification": 3302,
      "compet": 3303,
      "prom": 3304,
      "address": 3305,
      "nu": 3306,
      "uber": 3307,
      "languages": 3308,
      "##ized": 3309,
      "security": 3310,
      "key": 3311,
      "offer": 3312,
      "suicide": 3313,
      "##utes": 3314,
      "prec": 3315,
      "##raw": 3316,
      "attack": 3317,
      "fem": 3318,
      "deleted": 3319,
      "industry": 3320,
      "##ives": 3321,
      "happy": 3322,
      "provider": 3323,
      "port": 3324,
      "islam": 3325,
      "hit": 3326,
      "##aur": 3327,
      "force": 3328,
      "general": 3329,
      "##uns": 3330,
      "problems": 3331,
      "cust": 3332,
      "##icy": 3333,
      "developer": 3334,
      "past": 3335,
      "iq": 3336,
      "national": 3337,
      "pokemon": 3338,
      "##pir": 3339,
      "investment": 3340,
      "pet": 3341,
      "corru": 3342,
      "aw": 3343,
      "##hest": 3344,
      "started": 3345,
      "safety": 3346,
      "far": 3347,
      "rich": 3348,
      "foot": 3349,
      "##ember": 3350,
      "oil": 3351,
      "healthy": 3352,
      "source": 3353,
      "special": 3354,
      "div": 3355,
      "vac": 3356,
      "deep": 3357,
      "chemical": 3358,
      "pu": 3359,
      "commit": 3360,
      "##ron": 3361,
      "di": 3362,
      "cit": 3363,
      "infin": 3364,
      "bit": 3365,
      "##els": 3366,
      "##imate": 3367,
      "lost": 3368,
      "##ks": 3369,
      "exerc": 3370,
      "doct": 3371,
      "those": 3372,
      "suitable": 3373,
      "repl": 3374,
      "message": 3375,
      "grav": 3376,
      "area": 3377,
      "consider": 3378,
      "words": 3379,
      "option": 3380,
      "##20": 3381,
      "colleges": 3382,
      "analy": 3383,
      "##ined": 3384,
      "hind": 3385,
      "says": 3386,
      "pack": 3387,
      "often": 3388,
      "exactly": 3389,
      "film": 3390,
      "##fl": 3391,
      "er": 3392,
      "convert": 3393,
      "##ode": 3394,
      "gay": 3395,
      "##hemat": 3396,
      "il": 3397,
      "three": 3398,
      "##igh": 3399,
      "skin": 3400,
      "miss": 3401,
      "gl": 3402,
      "jio": 3403,
      "##iful": 3404,
      "spend": 3405,
      "mathemat": 3406,
      "few": 3407,
      "##que": 3408,
      "color": 3409,
      "##leg": 3410,
      "beautiful": 3411,
      "moment": 3412,
      "likes": 3413,
      "perform": 3414,
      "##bal": 3415,
      "##ased": 3416,
      "electron": 3417,
      "propert": 3418,
      "##ha": 3419,
      "##att": 3420,
      "explain": 3421,
      "invent": 3422,
      "page": 3423,
      "purs": 3424,
      "##body": 3425,
      "##icult": 3426,
      "activ": 3427,
      "types": 3428,
      "object": 3429,
      "appro": 3430,
      "fac": 3431,
      "isn": 3432,
      "bra": 3433,
      "##ina": 3434,
      "##cum": 3435,
      "##den": 3436,
      "motiv": 3437,
      "##pects": 3438,
      "##indi": 3439,
      "forg": 3440,
      "cri": 3441,
      "##ape": 3442,
      "custom": 3443,
      "electrical": 3444,
      "graduate": 3445,
      "price": 3446,
      "sound": 3447,
      "dogs": 3448,
      "inp": 3449,
      "prefer": 3450,
      "##ified": 3451,
      "team": 3452,
      "party": 3453,
      "heard": 3454,
      "nec": 3455,
      "##oph": 3456,
      "married": 3457,
      "emb": 3458,
      "bab": 3459,
      "oper": 3460,
      "male": 3461,
      "north": 3462,
      "spot": 3463,
      "reasons": 3464,
      "hor": 3465,
      "late": 3466,
      "##lement": 3467,
      "sit": 3468,
      "difficult": 3469,
      "transfer": 3470,
      "##por": 3471,
      "across": 3472,
      "autom": 3473,
      "bill": 3474,
      "##ason": 3475,
      "var": 3476,
      "##ager": 3477,
      "picture": 3478,
      "screen": 3479,
      "personal": 3480,
      "training": 3481,
      "citiz": 3482,
      "ii": 3483,
      "vi": 3484,
      "##ater": 3485,
      "ww": 3486,
      "##band": 3487,
      "penis": 3488,
      "conv": 3489,
      "bud": 3490,
      "describ": 3491,
      "proposed": 3492,
      "leave": 3493,
      "capital": 3494,
      "enough": 3495,
      "host": 3496,
      "##ulation": 3497,
      "##rast": 3498,
      "eating": 3499,
      "hindi": 3500,
      "democ": 3501,
      "line": 3502,
      "##ners": 3503,
      "related": 3504,
      "numbers": 3505,
      "japanese": 3506,
      "female": 3507,
      "internship": 3508,
      "clear": 3509,
      "13": 3510,
      "##hen": 3511,
      "macbook": 3512,
      "mal": 3513,
      "youn": 3514,
      "sams": 3515,
      "twit": 3516,
      "religion": 3517,
      "##mb": 3518,
      "nucle": 3519,
      "loss": 3520,
      "gala": 3521,
      "hus": 3522,
      "##mer": 3523,
      "rad": 3524,
      "coming": 3525,
      "may": 3526,
      "oly": 3527,
      "sil": 3528,
      "samsung": 3529,
      "gam": 3530,
      "olymp": 3531,
      "recomm": 3532,
      "said": 3533,
      "ios": 3534,
      "ly": 3535,
      "##erial": 3536,
      "recommend": 3537,
      "##opath": 3538,
      "exams": 3539,
      "letter": 3540,
      "##jo": 3541,
      "crack": 3542,
      "financ": 3543,
      "basic": 3544,
      "##ndra": 3545,
      "cook": 3546,
      "moder": 3547,
      "opin": 3548,
      "americans": 3549,
      "chances": 3550,
      "shop": 3551,
      "diet": 3552,
      "feat": 3553,
      "master": 3554,
      "prime": 3555,
      "##ted": 3556,
      "taking": 3557,
      "since": 3558,
      "##bit": 3559,
      "wife": 3560,
      "##amp": 3561,
      "moon": 3562,
      "##adv": 3563,
      "obama": 3564,
      "##ledge": 3565,
      "nare": 3566,
      "cele": 3567,
      "hol": 3568,
      "nar": 3569,
      "##gor": 3570,
      "tow": 3571,
      "##derabad": 3572,
      "paper": 3573,
      "14": 3574,
      "##cs": 3575,
      "british": 3576,
      "narendra": 3577,
      "calculate": 3578,
      "son": 3579,
      "##istics": 3580,
      "##nam": 3581,
      "precaut": 3582,
      "precautions": 3583,
      "##ats": 3584,
      "role": 3585,
      "once": 3586,
      "topics": 3587,
      "everything": 3588,
      "hur": 3589,
      "hyderabad": 3590,
      "surg": 3591,
      "earthqu": 3592,
      "restaur": 3593,
      "##iation": 3594,
      "##era": 3595,
      "users": 3596,
      "financial": 3597,
      "cond": 3598,
      "handling": 3599,
      "balance": 3600,
      "away": 3601,
      "stri": 3602,
      "coll": 3603,
      "celebr": 3604,
      "rank": 3605,
      "everyone": 3606,
      "eg": 3607,
      "sect": 3608,
      "inr": 3609,
      "##oes": 3610,
      "changed": 3611,
      "comple": 3612,
      "funn": 3613,
      "quickly": 3614,
      "please": 3615,
      "political": 3616,
      "pune": 3617,
      "##pr": 3618,
      "##ging": 3619,
      "##inc": 3620,
      "press": 3621,
      "negative": 3622,
      "##etic": 3623,
      "limit": 3624,
      "million": 3625,
      "pi": 3626,
      "communication": 3627,
      "upd": 3628,
      "panel": 3629,
      "##ising": 3630,
      "##tery": 3631,
      "county": 3632,
      "installation": 3633,
      "##of": 3634,
      "ann": 3635,
      "17": 3636,
      "##orts": 3637,
      "exc": 3638,
      "else": 3639,
      "galaxy": 3640,
      "quant": 3641,
      "chance": 3642,
      "rehab": 3643,
      "bul": 3644,
      "cg": 3645,
      "sav": 3646,
      "try": 3647,
      "##apore": 3648,
      "fail": 3649,
      "corpor": 3650,
      "singapore": 3651,
      "##ounds": 3652,
      "army": 3653,
      "yes": 3654,
      "experien": 3655,
      "shotg": 3656,
      "ill": 3657,
      "##iate": 3658,
      "following": 3659,
      "##gen": 3660,
      "disadv": 3661,
      "hyp": 3662,
      "select": 3663,
      "depression": 3664,
      "paid": 3665,
      "hollywood": 3666,
      "knowledge": 3667,
      "##unt": 3668,
      "bring": 3669,
      "##erce": 3670,
      "crush": 3671,
      "glo": 3672,
      "secret": 3673,
      "speaking": 3674,
      "demonetization": 3675,
      "twitter": 3676,
      "qual": 3677,
      "blocked": 3678,
      "chann": 3679,
      "reading": 3680,
      "##ases": 3681,
      "blowing": 3682,
      "##raft": 3683,
      "belly": 3684,
      "structure": 3685,
      "cs": 3686,
      "squ": 3687,
      "mother": 3688,
      "muslims": 3689,
      "shotguns": 3690,
      "##ta": 3691,
      "taken": 3692,
      "fire": 3693,
      "board": 3694,
      "nra": 3695,
      "enter": 3696,
      "amount": 3697,
      "##xic": 3698,
      "likely": 3699,
      "resources": 3700,
      "solution": 3701,
      "terror": 3702,
      "present": 3703,
      "##ison": 3704,
      "perman": 3705,
      "animals": 3706,
      "photo": 3707,
      "clean": 3708,
      "hire": 3709,
      "##ned": 3710,
      "##tm": 3711,
      "##ender": 3712,
      "scope": 3713,
      "##grad": 3714,
      "contin": 3715,
      "gift": 3716,
      "##rit": 3717,
      "blue": 3718,
      "salt": 3719,
      "determine": 3720,
      "##dle": 3721,
      "electric": 3722,
      "bh": 3723,
      "season": 3724,
      "algor": 3725,
      "depart": 3726,
      "officer": 3727,
      "clo": 3728,
      "dead": 3729,
      "material": 3730,
      "rac": 3731,
      "##ward": 3732,
      "table": 3733,
      "disc": 3734,
      "algorith": 3735,
      "ball": 3736,
      "arch": 3737,
      "##ffe": 3738,
      "require": 3739,
      "result": 3740,
      "within": 3741,
      "##ula": 3742,
      "laws": 3743,
      "##ready": 3744,
      "already": 3745,
      "graph": 3746,
      "fear": 3747,
      "##ared": 3748,
      "jew": 3749,
      "studies": 3750,
      "vs": 3751,
      "##la": 3752,
      "##ury": 3753,
      "##ortun": 3754,
      "earthquake": 3755,
      "doll": 3756,
      "weak": 3757,
      "occ": 3758,
      "##com": 3759,
      "##ided": 3760,
      "dating": 3761,
      "##ered": 3762,
      "camp": 3763,
      "##rated": 3764,
      "appear": 3765,
      "##istic": 3766,
      "##ences": 3767,
      "admission": 3768,
      "dest": 3769,
      "wants": 3770,
      "max": 3771,
      "##vid": 3772,
      "swit": 3773,
      "##row": 3774,
      "policy": 3775,
      "currently": 3776,
      "##istry": 3777,
      "thinking": 3778,
      "lic": 3779,
      "thought": 3780,
      "hom": 3781,
      "infinite": 3782,
      "tam": 3783,
      "allowed": 3784,
      "cool": 3785,
      "corruption": 3786,
      "##ker": 3787,
      "marry": 3788,
      "incl": 3789,
      "professional": 3790,
      "linux": 3791,
      "least": 3792,
      "eth": 3793,
      "ib": 3794,
      "##aff": 3795,
      "needing": 3796,
      "da": 3797,
      "ker": 3798,
      "##phones": 3799,
      "san": 3800,
      "natural": 3801,
      "forgot": 3802,
      "##itary": 3803,
      "##ored": 3804,
      "##soft": 3805,
      "##sh": 3806,
      "fund": 3807,
      "eye": 3808,
      "opinion": 3809,
      "##osp": 3810,
      "ident": 3811,
      "##acher": 3812,
      "altern": 3813,
      "tools": 3814,
      "stream": 3815,
      "husband": 3816,
      "charge": 3817,
      "income": 3818,
      "favour": 3819,
      "hold": 3820,
      "disadvantages": 3821,
      "##etim": 3822,
      "pictures": 3823,
      "abs": 3824,
      "##li": 3825,
      "##ched": 3826,
      "infl": 3827,
      "##atient": 3828,
      "grads": 3829,
      "seem": 3830,
      "illeg": 3831,
      "useful": 3832,
      "subject": 3833,
      "necess": 3834,
      "front": 3835,
      "passport": 3836,
      "meas": 3837,
      "##mpt": 3838,
      "inpatient": 3839,
      "prevent": 3840,
      "convers": 3841,
      "seo": 3842,
      "##ache": 3843,
      "user": 3844,
      "significance": 3845,
      "dom": 3846,
      "names": 3847,
      "fly": 3848,
      "fake": 3849,
      "surv": 3850,
      "candid": 3851,
      "##here": 3852,
      "novel": 3853,
      "##nn": 3854,
      "personality": 3855,
      "ram": 3856,
      "##ged": 3857,
      "athe": 3858,
      "tall": 3859,
      "##aves": 3860,
      "teacher": 3861,
      "final": 3862,
      "##key": 3863,
      "eyes": 3864,
      "greatest": 3865,
      "moral": 3866,
      "opportun": 3867,
      "simple": 3868,
      "microsoft": 3869,
      "##ability": 3870,
      "inside": 3871,
      "couples": 3872,
      "plat": 3873,
      "buying": 3874,
      "football": 3875,
      "interested": 3876,
      "ach": 3877,
      "##ley": 3878,
      "hindu": 3879,
      "property": 3880,
      "nuclear": 3881,
      "western": 3882,
      "den": 3883,
      "lab": 3884,
      "##itor": 3885,
      "strategy": 3886,
      "##ok": 3887,
      "kar": 3888,
      "mer": 3889,
      "little": 3890,
      "tre": 3891,
      "##sp": 3892,
      "shows": 3893,
      "cricket": 3894,
      "estate": 3895,
      "temperatures": 3896,
      "return": 3897,
      "heart": 3898,
      "epis": 3899,
      "close": 3900,
      "obs": 3901,
      "##avy": 3902,
      "span": 3903,
      "written": 3904,
      "smartphone": 3905,
      "potential": 3906,
      "anx": 3907,
      "##rap": 3908,
      "##ero": 3909,
      "east": 3910,
      "cash": 3911,
      "staff": 3912,
      "##rael": 3913,
      "starting": 3914,
      "feeling": 3915,
      "kerala": 3916,
      "21": 3917,
      "israel": 3918,
      "crit": 3919,
      "modern": 3920,
      "doctor": 3921,
      "##ming": 3922,
      "##iple": 3923,
      "anc": 3924,
      "wifi": 3925,
      "teen": 3926,
      "visiting": 3927,
      "mb": 3928,
      "##rench": 3929,
      "memory": 3930,
      "illegal": 3931,
      "stories": 3932,
      "case": 3933,
      "##uation": 3934,
      "save": 3935,
      "accounts": 3936,
      "favourite": 3937,
      "slow": 3938,
      "##adem": 3939,
      "##ured": 3940,
      "minister": 3941,
      "followers": 3942,
      "inn": 3943,
      "expand": 3944,
      "preparing": 3945,
      "middle": 3946,
      "father": 3947,
      "fresher": 3948,
      "mit": 3949,
      "listen": 3950,
      "fi": 3951,
      "##anch": 3952,
      "##und": 3953,
      "##ording": 3954,
      "systems": 3955,
      "core": 3956,
      "##iable": 3957,
      "##mi": 3958,
      "liber": 3959,
      "formula": 3960,
      "yet": 3961,
      "phd": 3962,
      "print": 3963,
      "military": 3964,
      "##anced": 3965,
      "##idency": 3966,
      "wall": 3967,
      "mail": 3968,
      "device": 3969,
      "tea": 3970,
      "##ensive": 3971,
      "battery": 3972,
      "york": 3973,
      "##son": 3974,
      "##ouble": 3975,
      "towards": 3976,
      "mexic": 3977,
      "perf": 3978,
      "watching": 3979,
      "##ography": 3980,
      "camera": 3981,
      "percentage": 3982,
      "rele": 3983,
      "smoking": 3984,
      "rev": 3985,
      "positive": 3986,
      "##cript": 3987,
      "corporate": 3988,
      "necessary": 3989,
      "french": 3990,
      "ru": 3991,
      "cards": 3992,
      "##duce": 3993,
      "40": 3994,
      "birthday": 3995,
      "due": 3996,
      "##rab": 3997,
      "running": 3998,
      "effic": 3999,
      "works": 4000,
      "proced": 4001,
      "early": 4002,
      "##ades": 4003,
      "tamil": 4004,
      "conc": 4005,
      "poor": 4006,
      "global": 4007,
      "##urance": 4008,
      "phones": 4009,
      "coding": 4010,
      "ess": 4011,
      "enjo": 4012,
      "magn": 4013,
      "##het": 4014,
      "##ox": 4015,
      "reset": 4016,
      "outs": 4017,
      "details": 4018,
      "afric": 4019,
      "##omb": 4020,
      "##feren": 4021,
      "milk": 4022,
      "danger": 4023,
      "##ani": 4024,
      "station": 4025,
      "os": 4026,
      "##rep": 4027,
      "##ims": 4028,
      "docum": 4029,
      "neet": 4030,
      "society": 4031,
      "fit": 4032,
      "weird": 4033,
      "repub": 4034,
      "##married": 4035,
      "hp": 4036,
      "##uum": 4037,
      "unmarried": 4038,
      "pil": 4039,
      "evidence": 4040,
      "elections": 4041,
      "here": 4042,
      "technical": 4043,
      "among": 4044,
      "provide": 4045,
      "##arr": 4046,
      "sales": 4047,
      "rock": 4048,
      "republic": 4049,
      "medic": 4050,
      "gh": 4051,
      "viewed": 4052,
      "tourist": 4053,
      "ec": 4054,
      "gas": 4055,
      "ssc": 4056,
      "touch": 4057,
      "gram": 4058,
      "though": 4059,
      "##rate": 4060,
      "academ": 4061,
      "beginner": 4062,
      "##otes": 4063,
      "flat": 4064,
      "playing": 4065,
      "circ": 4066,
      "yah": 4067,
      "tot": 4068,
      "individ": 4069,
      "quit": 4070,
      "schools": 4071,
      "##box": 4072,
      "upsc": 4073,
      "event": 4074,
      "young": 4075,
      "anxiety": 4076,
      "##iles": 4077,
      "vacuum": 4078,
      "hal": 4079,
      "platform": 4080,
      "chr": 4081,
      "chemistry": 4082,
      "boo": 4083,
      "pm": 4084,
      "sup": 4085,
      "version": 4086,
      "##old": 4087,
      "planning": 4088,
      "files": 4089,
      "dat": 4090,
      "kids": 4091,
      "##ological": 4092,
      "yahoo": 4093,
      "cry": 4094,
      "flight": 4095,
      "sand": 4096,
      "comb": 4097,
      "laun": 4098,
      "minimum": 4099,
      "intelligence": 4100,
      "torrent": 4101,
      "dub": 4102,
      "anime": 4103,
      "positions": 4104,
      "##sel": 4105,
      "##lor": 4106,
      "hyd": 4107,
      "##itar": 4108,
      "proof": 4109,
      "24": 4110,
      "##ches": 4111,
      "##val": 4112,
      "king": 4113,
      "##ping": 4114,
      "wars": 4115,
      "harry": 4116,
      "applications": 4117,
      "respon": 4118,
      "alone": 4119,
      "toget": 4120,
      "##umb": 4121,
      "acid": 4122,
      "told": 4123,
      "##road": 4124,
      "box": 4125,
      "together": 4126,
      "pressure": 4127,
      "certific": 4128,
      "##itude": 4129,
      "##rene": 4130,
      "olympics": 4131,
      "voice": 4132,
      "##ague": 4133,
      "draw": 4134,
      "lay": 4135,
      "##water": 4136,
      "##enture": 4137,
      "##ugh": 4138,
      "marked": 4139,
      "##books": 4140,
      "mis": 4141,
      "projects": 4142,
      "nit": 4143,
      "teach": 4144,
      "morning": 4145,
      "replace": 4146,
      "individual": 4147,
      "commerce": 4148,
      "resol": 4149,
      "exercise": 4150,
      "ten": 4151,
      "##rie": 4152,
      "prob": 4153,
      "dangerous": 4154,
      "##enger": 4155,
      "concept": 4156,
      "##ains": 4157,
      "##sib": 4158,
      "pursue": 4159,
      "cities": 4160,
      "baby": 4161,
      "gets": 4162,
      "manager": 4163,
      "##py": 4164,
      "##uing": 4165,
      "court": 4166,
      "cancer": 4167,
      "sea": 4168,
      "consult": 4169,
      "arg": 4170,
      "##tt": 4171,
      "##inder": 4172,
      "gravity": 4173,
      "##pal": 4174,
      "protect": 4175,
      "describe": 4176,
      "sbi": 4177,
      "##stit": 4178,
      "abroad": 4179,
      "sud": 4180,
      "image": 4181,
      "harass": 4182,
      "##yle": 4183,
      "chat": 4184,
      "##iled": 4185,
      "example": 4186,
      "rob": 4187,
      "fastest": 4188,
      "masturbation": 4189,
      "enjoy": 4190,
      "##ham": 4191,
      "##be": 4192,
      "might": 4193,
      "##ij": 4194,
      "##uit": 4195,
      "adult": 4196,
      "entrep": 4197,
      "gaming": 4198,
      "higher": 4199,
      "displ": 4200,
      "presidency": 4201,
      "root": 4202,
      "##icks": 4203,
      "below": 4204,
      "perfect": 4205,
      "##reneur": 4206,
      "##asing": 4207,
      "weed": 4208,
      "remember": 4209,
      "latest": 4210,
      "pupp": 4211,
      "update": 4212,
      "wish": 4213,
      "##ancy": 4214,
      "chenn": 4215,
      "insurance": 4216,
      "chennai": 4217,
      "bed": 4218,
      "##wal": 4219,
      "##ately": 4220,
      "economics": 4221,
      "practice": 4222,
      "##fact": 4223,
      "##ffy": 4224,
      "events": 4225,
      "entrepreneur": 4226,
      "billion": 4227,
      "motor": 4228,
      "##ised": 4229,
      "according": 4230,
      "growth": 4231,
      "ign": 4232,
      "##ived": 4233,
      "purch": 4234,
      "mathematics": 4235,
      "##ished": 4236,
      "attractive": 4237,
      "status": 4238,
      "classes": 4239,
      "##df": 4240,
      "immig": 4241,
      "third": 4242,
      "trust": 4243,
      "coffe": 4244,
      "dy": 4245,
      "##ino": 4246,
      "##ises": 4247,
      "4g": 4248,
      "##uate": 4249,
      "trying": 4250,
      "##ival": 4251,
      "##ysis": 4252,
      "hole": 4253,
      "funniest": 4254,
      "cb": 4255,
      "##itect": 4256,
      "expected": 4257,
      "ancient": 4258,
      "range": 4259,
      "acne": 4260,
      "12th": 4261,
      "architect": 4262,
      "drop": 4263,
      "democrat": 4264,
      "candy": 4265,
      "coffee": 4266,
      "gad": 4267,
      "##fort": 4268,
      "advanced": 4269,
      "zero": 4270,
      "##epend": 4271,
      "veget": 4272,
      "building": 4273,
      "bot": 4274,
      "foc": 4275,
      "content": 4276,
      "cars": 4277,
      "copy": 4278,
      "harassment": 4279,
      "curb": 4280,
      "undergrad": 4281,
      "integr": 4282,
      "sad": 4283,
      "rent": 4284,
      "highest": 4285,
      "hacker": 4286,
      "band": 4287,
      "##ores": 4288,
      "symb": 4289,
      "imported": 4290,
      "anti": 4291,
      "cure": 4292,
      "##rs": 4293,
      "##ex": 4294,
      "##aw": 4295,
      "##illed": 4296,
      "##ief": 4297,
      "disorder": 4298,
      "##gets": 4299,
      "prospects": 4300,
      "glass": 4301,
      "coun": 4302,
      "##selves": 4303,
      "engineers": 4304,
      "##ashm": 4305,
      "resolution": 4306,
      "partner": 4307,
      "becoming": 4308,
      "##oring": 4309,
      "actor": 4310,
      "independ": 4311,
      "specific": 4312,
      "cra": 4313,
      "##uc": 4314,
      "prote": 4315,
      "defin": 4316,
      "complete": 4317,
      "rol": 4318,
      "feed": 4319,
      "writer": 4320,
      "symbol": 4321,
      "upload": 4322,
      "pron": 4323,
      "trip": 4324,
      "cse": 4325,
      "cup": 4326,
      "large": 4327,
      "rather": 4328,
      "##atic": 4329,
      "phr": 4330,
      "cla": 4331,
      "trading": 4332,
      "##icle": 4333,
      "record": 4334,
      "rat": 4335,
      "##board": 4336,
      "innov": 4337,
      "pal": 4338,
      "prove": 4339,
      "##antic": 4340,
      "okay": 4341,
      "##bon": 4342,
      "ali": 4343,
      "##ially": 4344,
      "steps": 4345,
      "concent": 4346,
      "opportunities": 4347,
      "##xual": 4348,
      "contrib": 4349,
      "bond": 4350,
      "disco": 4351,
      "pick": 4352,
      "comes": 4353,
      "hacks": 4354,
      "gst": 4355,
      "ic": 4356,
      "##wor": 4357,
      "goa": 4358,
      "philos": 4359,
      "budget": 4360,
      "##onym": 4361,
      "decl": 4362,
      "sq": 4363,
      "cann": 4364,
      "determined": 4365,
      "fig": 4366,
      "##ique": 4367,
      "plus": 4368,
      "advert": 4369,
      "hurt": 4370,
      "##ays": 4371,
      "particular": 4372,
      "electronics": 4373,
      "spotify": 4374,
      "forget": 4375,
      "##astic": 4376,
      "weeks": 4377,
      "recovery": 4378,
      "##ashmir": 4379,
      "60": 4380,
      "kashmir": 4381,
      "league": 4382,
      "planet": 4383,
      "summer": 4384,
      "influ": 4385,
      "##my": 4386,
      "##ze": 4387,
      "whether": 4388,
      "license": 4389,
      "unt": 4390,
      "contrast": 4391,
      "politics": 4392,
      "korea": 4393,
      "achieve": 4394,
      "uses": 4395,
      "needs": 4396,
      "2014": 4397,
      "drinking": 4398,
      "focus": 4399,
      "beginners": 4400,
      "jud": 4401,
      "tata": 4402,
      "##agon": 4403,
      "taffy": 4404,
      "sudden": 4405,
      "lim": 4406,
      "##ressed": 4407,
      "potter": 4408,
      "bur": 4409,
      "four": 4410,
      "jun": 4411,
      "env": 4412,
      "##wered": 4413,
      "##ipl": 4414,
      "driving": 4415,
      "survive": 4416,
      "##oss": 4417,
      "room": 4418,
      "becomes": 4419,
      "spanish": 4420,
      "pow": 4421,
      "##face": 4422,
      "##50": 4423,
      "##ctions": 4424,
      "efficient": 4425,
      "capt": 4426,
      "##ax": 4427,
      "##ga": 4428,
      "##uth": 4429,
      "powerful": 4430,
      "issues": 4431,
      "developed": 4432,
      "audi": 4433,
      "##hn": 4434,
      "##assing": 4435,
      "dreams": 4436,
      "channel": 4437,
      "burn": 4438,
      "vot": 4439,
      "##go": 4440,
      "pred": 4441,
      "histor": 4442,
      "losing": 4443,
      "animal": 4444,
      "double": 4445,
      "##ript": 4446,
      "philipp": 4447,
      "embarr": 4448,
      "##tech": 4449,
      "campus": 4450,
      "whole": 4451,
      "manu": 4452,
      "##arm": 4453,
      "thrones": 4454,
      "outside": 4455,
      "born": 4456,
      "jack": 4457,
      "coast": 4458,
      "arab": 4459,
      "importance": 4460,
      "player": 4461,
      "kn": 4462,
      "aren": 4463,
      "nothing": 4464,
      "bike": 4465,
      "##ervation": 4466,
      "##iance": 4467,
      "recip": 4468,
      "christian": 4469,
      "regret": 4470,
      "physical": 4471,
      "intelligent": 4472,
      "##olved": 4473,
      "needed": 4474,
      "astro": 4475,
      "##atives": 4476,
      "##ece": 4477,
      "startups": 4478,
      "boys": 4479,
      "longer": 4480,
      "transl": 4481,
      "procedure": 4482,
      "hydro": 4483,
      "##ya": 4484,
      "driver": 4485,
      "features": 4486,
      "tele": 4487,
      "cheating": 4488,
      "viol": 4489,
      "cbse": 4490,
      "ug": 4491,
      "shar": 4492,
      "manufact": 4493,
      "pit": 4494,
      "pounds": 4495,
      "##off": 4496,
      "stra": 4497,
      "attend": 4498,
      "regular": 4499,
      "finance": 4500,
      "asian": 4501,
      "sexual": 4502,
      "saying": 4503,
      "masters": 4504,
      "##aking": 4505,
      "commerc": 4506,
      "departments": 4507,
      "datab": 4508,
      "sem": 4509,
      "answered": 4510,
      "multiple": 4511,
      "##roll": 4512,
      "regard": 4513,
      "##ilt": 4514,
      "issue": 4515,
      "competitive": 4516,
      "gif": 4517,
      "unus": 4518,
      "php": 4519,
      "dam": 4520,
      "native": 4521,
      "total": 4522,
      "gadgets": 4523,
      "##orce": 4524,
      "talking": 4525,
      "isis": 4526,
      "script": 4527,
      "lesser": 4528,
      "flo": 4529,
      "fair": 4530,
      "##ka": 4531,
      "whom": 4532,
      "##upid": 4533,
      "psychopath": 4534,
      "##akh": 4535,
      "##par": 4536,
      "##rum": 4537,
      "##hara": 4538,
      "frequ": 4539,
      "ticket": 4540,
      "##ivity": 4541,
      "switch": 4542,
      "kiss": 4543,
      "##othes": 4544,
      "economic": 4545,
      "##uly": 4546,
      "position": 4547,
      "banks": 4548,
      "server": 4549,
      "creative": 4550,
      "citizens": 4551,
      "##uel": 4552,
      "relationships": 4553,
      "respect": 4554,
      "straight": 4555,
      "active": 4556,
      "temperature": 4557,
      "completing": 4558,
      "saltwater": 4559,
      "##press": 4560,
      "subs": 4561,
      "actress": 4562,
      "everyday": 4563,
      "psychology": 4564,
      "gym": 4565,
      "soci": 4566,
      "##pping": 4567,
      "intel": 4568,
      "smell": 4569,
      "sometim": 4570,
      "russi": 4571,
      "stre": 4572,
      "testing": 4573,
      "mexico": 4574,
      "commercial": 4575,
      "sen": 4576,
      "##ny": 4577,
      "##isco": 4578,
      "loan": 4579,
      "##ifically": 4580,
      "crime": 4581,
      "programmer": 4582,
      "square": 4583,
      "frame": 4584,
      "john": 4585,
      "harm": 4586,
      "graduation": 4587,
      "jour": 4588,
      "mut": 4589,
      "arr": 4590,
      "peace": 4591,
      "lock": 4592,
      "changing": 4593,
      "hitler": 4594,
      "##irt": 4595,
      "means": 4596,
      "workout": 4597,
      "##gar": 4598,
      "resolutions": 4599,
      "tcs": 4600,
      "##ca": 4601,
      "##iron": 4602,
      "hacking": 4603,
      "##back": 4604,
      "##ground": 4605,
      "location": 4606,
      "##inary": 4607,
      "##aced": 4608,
      "feelings": 4609,
      "liqu": 4610,
      "expensive": 4611,
      "sports": 4612,
      "teeth": 4613,
      "convince": 4614,
      "embarrassing": 4615,
      "##ami": 4616,
      "princ": 4617,
      "functions": 4618,
      "existence": 4619,
      "cells": 4620,
      "analyt": 4621,
      "kv": 4622,
      "mad": 4623,
      "##zy": 4624,
      "stress": 4625,
      "messenger": 4626,
      "philosoph": 4627,
      "environ": 4628,
      "elected": 4629,
      "request": 4630,
      "strongest": 4631,
      "certificate": 4632,
      "approach": 4633,
      "jes": 4634,
      "##med": 4635,
      "ital": 4636,
      "shoes": 4637,
      "accur": 4638,
      "guitar": 4639,
      "stars": 4640,
      "##ament": 4641,
      "##ference": 4642,
      "ele": 4643,
      "##rm": 4644,
      "proper": 4645,
      "mel": 4646,
      "via": 4647,
      "##ascript": 4648,
      "##action": 4649,
      "addiction": 4650,
      "harv": 4651,
      "apart": 4652,
      "lond": 4653,
      "##gb": 4654,
      "moving": 4655,
      "comfort": 4656,
      "banned": 4657,
      "reality": 4658,
      "assist": 4659,
      "demand": 4660,
      "cgl": 4661,
      "##da": 4662,
      "alm": 4663,
      "javascript": 4664,
      "analysis": 4665,
      "london": 4666,
      "scientific": 4667,
      "dollars": 4668,
      "truth": 4669,
      "asking": 4670,
      "themselves": 4671,
      "virgin": 4672,
      "ris": 4673,
      "##oop": 4674,
      "heat": 4675,
      "designer": 4676,
      "unusual": 4677,
      "##ught": 4678,
      "anonym": 4679,
      "hi": 4680,
      "ice": 4681,
      "##ering": 4682,
      "maint": 4683,
      "later": 4684,
      "stupid": 4685,
      "loves": 4686,
      "mbbs": 4687,
      "chick": 4688,
      "completely": 4689,
      "pilot": 4690,
      "sometimes": 4691,
      "choice": 4692,
      "consum": 4693,
      "wait": 4694,
      "##ria": 4695,
      "soon": 4696,
      "recently": 4697,
      "standard": 4698,
      "invented": 4699,
      "##oint": 4700,
      "stocks": 4701,
      "occur": 4702,
      "linked": 4703,
      "cast": 4704,
      "caste": 4705,
      "lower": 4706,
      "##otic": 4707,
      "topic": 4708,
      "legit": 4709,
      "dc": 4710,
      "##eter": 4711,
      "implement": 4712,
      "assoc": 4713,
      "surgical": 4714,
      "tit": 4715,
      "ham": 4716,
      "path": 4717,
      "reject": 4718,
      "##dia": 4719,
      "accident": 4720,
      "khan": 4721,
      "rot": 4722,
      "afford": 4723,
      "certain": 4724,
      "debate": 4725,
      "restaurants": 4726,
      "tar": 4727,
      "##ove": 4728,
      "##af": 4729,
      "giving": 4730,
      "jesus": 4731,
      "base": 4732,
      "ll": 4733,
      "speech": 4734,
      "##ously": 4735,
      "bible": 4736,
      "##ring": 4737,
      "##uge": 4738,
      "maths": 4739,
      "rail": 4740,
      "##ength": 4741,
      "permanent": 4742,
      "environment": 4743,
      "factors": 4744,
      "cats": 4745,
      "volt": 4746,
      "maximum": 4747,
      "##ky": 4748,
      "half": 4749,
      "reach": 4750,
      "phrase": 4751,
      "border": 4752,
      "sens": 4753,
      "anger": 4754,
      "neut": 4755,
      "scen": 4756,
      "programs": 4757,
      "database": 4758,
      "##isation": 4759,
      "taste": 4760,
      "washing": 4761,
      "possib": 4762,
      "sahara": 4763,
      "receive": 4764,
      "hon": 4765,
      "##rus": 4766,
      "##0000": 4767,
      "plant": 4768,
      "##ems": 4769,
      "accepted": 4770,
      "reven": 4771,
      "collect": 4772,
      "devices": 4773,
      "separ": 4774,
      "korean": 4775,
      "ben": 4776,
      "rub": 4777,
      "vict": 4778,
      "drivers": 4779,
      "fresh": 4780,
      "cab": 4781,
      "od": 4782,
      "##ati": 4783,
      "release": 4784,
      "seat": 4785,
      "climate": 4786,
      "investing": 4787,
      "emotions": 4788,
      "episode": 4789,
      "protein": 4790,
      "hands": 4791,
      "experiences": 4792,
      "##arian": 4793,
      "conduct": 4794,
      "profit": 4795,
      "cheapest": 4796,
      "fed": 4797,
      "grade": 4798,
      "equal": 4799,
      "rout": 4800,
      "##ius": 4801,
      "##iring": 4802,
      "##ension": 4803,
      "astrolo": 4804,
      "lord": 4805,
      "stren": 4806,
      "sche": 4807,
      "population": 4808,
      "auth": 4809,
      "amazing": 4810,
      "dress": 4811,
      "##erve": 4812,
      "constant": 4813,
      "package": 4814,
      "harvard": 4815,
      "3g": 4816,
      "airl": 4817,
      "##aire": 4818,
      "##ali": 4819,
      "branch": 4820,
      "road": 4821,
      "detect": 4822,
      "local": 4823,
      "##adesh": 4824,
      "kvpy": 4825,
      "swe": 4826,
      "##dom": 4827,
      "report": 4828,
      "nam": 4829,
      "##rial": 4830,
      "background": 4831,
      "inspir": 4832,
      "equation": 4833,
      "esp": 4834,
      "sure": 4835,
      "minutes": 4836,
      "rights": 4837,
      "virt": 4838,
      "round": 4839,
      "sense": 4840,
      "waves": 4841,
      "constit": 4842,
      "cp": 4843,
      "came": 4844,
      "rbi": 4845,
      "brother": 4846,
      "original": 4847,
      "customer": 4848,
      "##rics": 4849,
      "##ever": 4850,
      "##yal": 4851,
      "##by": 4852,
      "dev": 4853,
      "entire": 4854,
      "turkey": 4855,
      "romantic": 4856,
      "tick": 4857,
      "##ford": 4858,
      "scam": 4859,
      "measure": 4860,
      "cross": 4861,
      "evolution": 4862,
      "carbon": 4863,
      "mains": 4864,
      "algorithms": 4865,
      "candidate": 4866,
      "rand": 4867,
      "enc": 4868,
      "malay": 4869,
      "##ughter": 4870,
      "gps": 4871,
      "##craft": 4872,
      "##ably": 4873,
      "includ": 4874,
      "##urally": 4875,
      "##ules": 4876,
      "serious": 4877,
      "businesses": 4878,
      "philippines": 4879,
      "wed": 4880,
      "##ole": 4881,
      "affected": 4882,
      "confidence": 4883,
      "streng": 4884,
      "dim": 4885,
      "##ji": 4886,
      "winning": 4887,
      "benefit": 4888,
      "european": 4889,
      "chrome": 4890,
      "analytics": 4891,
      "dh": 4892,
      "beat": 4893,
      "members": 4894,
      "historical": 4895,
      "ul": 4896,
      "cloud": 4897,
      "freel": 4898,
      "five": 4899,
      "##ither": 4900,
      "##izing": 4901,
      "sleeping": 4902,
      "citizen": 4903,
      "race": 4904,
      "##tain": 4905,
      "franc": 4906,
      "sold": 4907,
      "client": 4908,
      "conversation": 4909,
      "domain": 4910,
      "##ires": 4911,
      "foods": 4912,
      "cannot": 4913,
      "hang": 4914,
      "mart": 4915,
      "##ped": 4916,
      "recent": 4917,
      "planets": 4918,
      "angel": 4919,
      "thoughts": 4920,
      "##more": 4921,
      "##ecut": 4922,
      "refer": 4923,
      "led": 4924,
      "scientist": 4925,
      "chicken": 4926,
      "nc": 4927,
      "##reme": 4928,
      "init": 4929,
      "##olk": 4930,
      "atom": 4931,
      "mental": 4932,
      "destro": 4933,
      "##aches": 4934,
      "launch": 4935,
      "##mas": 4936,
      "##used": 4937,
      "ago": 4938,
      "ads": 4939,
      "clos": 4940,
      "puppy": 4941,
      "meant": 4942,
      "reservation": 4943,
      "ipad": 4944,
      "display": 4945,
      "knowing": 4946,
      "cover": 4947,
      "ups": 4948,
      "cream": 4949,
      "racist": 4950,
      "resume": 4951,
      "treatment": 4952,
      "geor": 4953,
      "dubai": 4954,
      "jail": 4955,
      "gifts": 4956,
      "goes": 4957,
      "older": 4958,
      "cambo": 4959,
      "##uto": 4960,
      "france": 4961,
      "tex": 4962,
      "urine": 4963,
      "performance": 4964,
      "##raid": 4965,
      "##itional": 4966,
      "behav": 4967,
      "characteristics": 4968,
      "exch": 4969,
      "##uss": 4970,
      "afraid": 4971,
      "weirdest": 4972,
      "definition": 4973,
      "bored": 4974,
      "##aries": 4975,
      "##oma": 4976,
      "acqu": 4977,
      "muscle": 4978,
      "cambodia": 4979,
      "dro": 4980,
      "decide": 4981,
      "signs": 4982,
      "cate": 4983,
      "gand": 4984,
      "##osis": 4985,
      "clothes": 4986,
      "esc": 4987,
      "parts": 4988,
      "virus": 4989,
      "##bre": 4990,
      "##iment": 4991,
      "notice": 4992,
      "received": 4993,
      "dry": 4994,
      "six": 4995,
      "chall": 4996,
      "sympt": 4997,
      "kid": 4998,
      "##ota": 4999,
      "nice": 5000,
      "##umin": 5001,
      "##paign": 5002,
      "du": 5003,
      "hd": 5004,
      "htm": 5005,
      "lad": 5006,
      "##iated": 5007,
      "admin": 5008,
      "##ogn": 5009,
      "funds": 5010,
      "repres": 5011,
      "regist": 5012,
      "almost": 5013,
      "las": 5014,
      "wire": 5015,
      "##icles": 5016,
      "que": 5017,
      "distrib": 5018,
      "elig": 5019,
      "attracted": 5020,
      "shopping": 5021,
      "##sl": 5022,
      "##cing": 5023,
      "##know": 5024,
      "##ention": 5025,
      "campaign": 5026,
      "html": 5027,
      "brown": 5028,
      "cultural": 5029,
      "##flix": 5030,
      "##ls": 5031,
      "##asm": 5032,
      "flip": 5033,
      "netflix": 5034,
      "document": 5035,
      "##ster": 5036,
      "##asa": 5037,
      "ny": 5038,
      "##iano": 5039,
      "##grade": 5040,
      "lines": 5041,
      "mir": 5042,
      "##jet": 5043,
      "sky": 5044,
      "films": 5045,
      "paral": 5046,
      "philosophy": 5047,
      "fish": 5048,
      "navy": 5049,
      "##ances": 5050,
      "upv": 5051,
      "street": 5052,
      "hotels": 5053,
      "respond": 5054,
      "restaurant": 5055,
      "iim": 5056,
      "mole": 5057,
      "sector": 5058,
      "journ": 5059,
      "dies": 5060,
      "pul": 5061,
      "##ceed": 5062,
      "serve": 5063,
      "placement": 5064,
      "requirements": 5065,
      "medicine": 5066,
      "ghost": 5067,
      "sin": 5068,
      "tried": 5069,
      "wins": 5070,
      "quickbooks": 5071,
      "analyst": 5072,
      "undergraduate": 5073,
      "rap": 5074,
      "##uff": 5075,
      "##ators": 5076,
      "##ica": 5077,
      "##ife": 5078,
      "banking": 5079,
      "##cont": 5080,
      "selling": 5081,
      "aliens": 5082,
      "kit": 5083,
      "wik": 5084,
      "##mary": 5085,
      "##uana": 5086,
      "carry": 5087,
      "jews": 5088,
      "chart": 5089,
      "publish": 5090,
      "voltage": 5091,
      "##oos": 5092,
      "lives": 5093,
      "atm": 5094,
      "spir": 5095,
      "joke": 5096,
      "colour": 5097,
      "typical": 5098,
      "surgery": 5099,
      "##bits": 5100,
      "along": 5101,
      "actors": 5102,
      "iron": 5103,
      "ble": 5104,
      "died": 5105,
      "##omp": 5106,
      "##ologies": 5107,
      "iii": 5108,
      "##ijuana": 5109,
      "pdf": 5110,
      "investors": 5111,
      "gmat": 5112,
      "strateg": 5113,
      "##where": 5114,
      "funding": 5115,
      "voc": 5116,
      "##aged": 5117,
      "meat": 5118,
      "relative": 5119,
      "generally": 5120,
      "boot": 5121,
      "dipl": 5122,
      "lon": 5123,
      "##gress": 5124,
      "##ilities": 5125,
      "register": 5126,
      "results": 5127,
      "argum": 5128,
      "80": 5129,
      "gun": 5130,
      "length": 5131,
      "##ester": 5132,
      "shall": 5133,
      "trade": 5134,
      "learned": 5135,
      "deliver": 5136,
      "applying": 5137,
      "debit": 5138,
      "##ona": 5139,
      "comment": 5140,
      "scrat": 5141,
      "##izz": 5142,
      "production": 5143,
      "calls": 5144,
      "##lands": 5145,
      "promote": 5146,
      "##60": 5147,
      "##oni": 5148,
      "cutoff": 5149,
      "enf": 5150,
      "syn": 5151,
      "reliable": 5152,
      "reliance": 5153,
      "paying": 5154,
      "caused": 5155,
      "reaction": 5156,
      "represent": 5157,
      "##emp": 5158,
      "wordpress": 5159,
      "rule": 5160,
      "francisco": 5161,
      "ut": 5162,
      "##cast": 5163,
      "##room": 5164,
      "narc": 5165,
      "obsess": 5166,
      "naturally": 5167,
      "error": 5168,
      "until": 5169,
      "symptoms": 5170,
      "honey": 5171,
      "tour": 5172,
      "tatt": 5173,
      "match": 5174,
      "hide": 5175,
      "wave": 5176,
      "condition": 5177,
      "hr": 5178,
      "unique": 5179,
      "goal": 5180,
      "anymore": 5181,
      "depos": 5182,
      "raj": 5183,
      "daughter": 5184,
      "wis": 5185,
      "##olve": 5186,
      "aspects": 5187,
      "confl": 5188,
      "##wan": 5189,
      "usb": 5190,
      "marijuana": 5191,
      "##icted": 5192,
      "payment": 5193,
      "situation": 5194,
      "africa": 5195,
      "virtual": 5196,
      "bomb": 5197,
      "vag": 5198,
      "##itation": 5199,
      "load": 5200,
      "effectively": 5201,
      "sap": 5202,
      "brows": 5203,
      "extra": 5204,
      "unf": 5205,
      "pregnancy": 5206,
      "methods": 5207,
      "mistake": 5208,
      "framework": 5209,
      "dad": 5210,
      "##ano": 5211,
      "haven": 5212,
      "express": 5213,
      "veh": 5214,
      "22": 5215,
      "mi": 5216,
      "##verse": 5217,
      "flow": 5218,
      "schol": 5219,
      "blogs": 5220,
      "formed": 5221,
      "grades": 5222,
      "##eal": 5223,
      "##zer": 5224,
      "disp": 5225,
      "astron": 5226,
      "essay": 5227,
      "purchase": 5228,
      "went": 5229,
      "##inst": 5230,
      "images": 5231,
      "introvert": 5232,
      "operating": 5233,
      "quantum": 5234,
      "russian": 5235,
      "23": 5236,
      "ran": 5237,
      "##iab": 5238,
      "prison": 5239,
      "walk": 5240,
      "constitution": 5241,
      "##icon": 5242,
      "##ida": 5243,
      "metal": 5244,
      "cyrus": 5245,
      "##antage": 5246,
      "unlock": 5247,
      "catch": 5248,
      "api": 5249,
      "mistry": 5250,
      "destroy": 5251,
      "viet": 5252,
      "contract": 5253,
      "hacked": 5254,
      "##hood": 5255,
      "stan": 5256,
      "poss": 5257,
      "moto": 5258,
      "fiction": 5259,
      "##gan": 5260,
      "union": 5261,
      "changes": 5262,
      "handle": 5263,
      "characters": 5264,
      "structures": 5265,
      "probability": 5266,
      "conflict": 5267,
      "##edia": 5268,
      "valid": 5269,
      "removed": 5270,
      "##cription": 5271,
      "radio": 5272,
      "strike": 5273,
      "vit": 5274,
      "##eria": 5275,
      "lie": 5276,
      "shouldn": 5277,
      "usually": 5278,
      "##oken": 5279,
      "fing": 5280,
      "##ecially": 5281,
      "phase": 5282,
      "strength": 5283,
      "categ": 5284,
      "ai": 5285,
      "killed": 5286,
      "comments": 5287,
      "pharm": 5288,
      "prem": 5289,
      "gandhi": 5290,
      "##sequ": 5291,
      "##duced": 5292,
      "capac": 5293,
      "continue": 5294,
      "algorithm": 5295,
      "claim": 5296,
      "especially": 5297,
      "random": 5298,
      "cos": 5299,
      "hiring": 5300,
      "snow": 5301,
      "##ii": 5302,
      "mars": 5303,
      "contain": 5304,
      "horror": 5305,
      "##odes": 5306,
      "disable": 5307,
      "define": 5308,
      "gravit": 5309,
      "##working": 5310,
      "suddenly": 5311,
      "##zz": 5312,
      "weap": 5313,
      "recogn": 5314,
      "desp": 5315,
      "transform": 5316,
      "airport": 5317,
      "professor": 5318,
      "vietnam": 5319,
      "3d": 5320,
      "rou": 5321,
      "tank": 5322,
      "skill": 5323,
      "depressed": 5324,
      "kolk": 5325,
      "lakh": 5326,
      "##edy": 5327,
      "produce": 5328,
      "mah": 5329,
      "scale": 5330,
      "stopped": 5331,
      "iran": 5332,
      "cancel": 5333,
      "robot": 5334,
      "narciss": 5335,
      "##mes": 5336,
      "attractions": 5337,
      "various": 5338,
      "ga": 5339,
      "rain": 5340,
      "wake": 5341,
      "##racy": 5342,
      "bes": 5343,
      "beng": 5344,
      "cru": 5345,
      "tel": 5346,
      "##lit": 5347,
      "##ken": 5348,
      "##inter": 5349,
      "cycle": 5350,
      "kolkata": 5351,
      "6s": 5352,
      "cig": 5353,
      "dual": 5354,
      "mc": 5355,
      "##agn": 5356,
      "visitors": 5357,
      "retrie": 5358,
      "bay": 5359,
      "hosp": 5360,
      "wealth": 5361,
      "built": 5362,
      "empire": 5363,
      "##erature": 5364,
      "literature": 5365,
      "fluently": 5366,
      "ece": 5367,
      "##ending": 5368,
      "entr": 5369,
      "novels": 5370,
      "architecture": 5371,
      "mount": 5372,
      "##iding": 5373,
      "##aps": 5374,
      "grand": 5375,
      "overrated": 5376,
      "supply": 5377,
      "rates": 5378,
      "##vt": 5379,
      "##eral": 5380,
      "##eler": 5381,
      "colon": 5382,
      "complex": 5383,
      "regarding": 5384,
      "##rier": 5385,
      "spoken": 5386,
      "prices": 5387,
      "firm": 5388,
      "species": 5389,
      "previous": 5390,
      "ult": 5391,
      "scratch": 5392,
      "##yl": 5393,
      "suggestions": 5394,
      "90": 5395,
      "pure": 5396,
      "tut": 5397,
      "proc": 5398,
      "raise": 5399,
      "excel": 5400,
      "sus": 5401,
      "##inal": 5402,
      "colors": 5403,
      "##ruction": 5404,
      "plane": 5405,
      "eggs": 5406,
      "##light": 5407,
      "batman": 5408,
      "organic": 5409,
      "treated": 5410,
      "2nd": 5411,
      "ari": 5412,
      "bitco": 5413,
      "wedding": 5414,
      "exchange": 5415,
      "journal": 5416,
      "##head": 5417,
      "style": 5418,
      "impress": 5419,
      "failure": 5420,
      "weakest": 5421,
      "anybody": 5422,
      "steel": 5423,
      "dhoni": 5424,
      "park": 5425,
      "networking": 5426,
      "setting": 5427,
      "lyrics": 5428,
      "70": 5429,
      "cm": 5430,
      "##idge": 5431,
      "above": 5432,
      "##ended": 5433,
      "agree": 5434,
      "somme": 5435,
      "christmas": 5436,
      "32": 5437,
      "suff": 5438,
      "calories": 5439,
      "identify": 5440,
      "maintain": 5441,
      "tren": 5442,
      "unknow": 5443,
      "equival": 5444,
      "groups": 5445,
      "permanently": 5446,
      "linkedin": 5447,
      "pg": 5448,
      "wild": 5449,
      "##ded": 5450,
      "##500": 5451,
      "##ann": 5452,
      "##uting": 5453,
      "upgrade": 5454,
      "dise": 5455,
      "disapp": 5456,
      "technologies": 5457,
      "15000": 5458,
      "released": 5459,
      "bag": 5460,
      "bern": 5461,
      "##to": 5462,
      "##kart": 5463,
      "took": 5464,
      "mutual": 5465,
      "mur": 5466,
      "##cies": 5467,
      "ground": 5468,
      "developing": 5469,
      "played": 5470,
      "certification": 5471,
      "liquid": 5472,
      "sd": 5473,
      "##ob": 5474,
      "presence": 5475,
      "reply": 5476,
      "connection": 5477,
      "brah": 5478,
      "naruto": 5479,
      "experienced": 5480,
      "cigare": 5481,
      "mr": 5482,
      "vect": 5483,
      "wid": 5484,
      "##vered": 5485,
      "earning": 5486,
      "solutions": 5487,
      "kg": 5488,
      "tinder": 5489,
      "##zil": 5490,
      "easier": 5491,
      "legally": 5492,
      "electricity": 5493,
      "##iqu": 5494,
      "##ocol": 5495,
      "lawy": 5496,
      "reviews": 5497,
      "materials": 5498,
      "speaker": 5499,
      "piece": 5500,
      "len": 5501,
      "sister": 5502,
      "wit": 5503,
      "##ooth": 5504,
      "brazil": 5505,
      "ibps": 5506,
      "possess": 5507,
      "fash": 5508,
      "##ulf": 5509,
      "consequ": 5510,
      "resident": 5511,
      "evil": 5512,
      "community": 5513,
      "accurate": 5514,
      "js": 5515,
      "##ciation": 5516,
      "limited": 5517,
      "1st": 5518,
      "nation": 5519,
      "yell": 5520,
      "myth": 5521,
      "flash": 5522,
      "sentences": 5523,
      "sugar": 5524,
      "couple": 5525,
      "fashion": 5526,
      "##oral": 5527,
      "stage": 5528,
      "feet": 5529,
      "became": 5530,
      "##ictions": 5531,
      "entrance": 5532,
      "##anes": 5533,
      "lif": 5534,
      "freed": 5535,
      "taller": 5536,
      "alive": 5537,
      "artific": 5538,
      "iv": 5539,
      "sort": 5540,
      "##lex": 5541,
      "appl": 5542,
      "smoke": 5543,
      "gravitational": 5544,
      "therm": 5545,
      "##alous": 5546,
      "##ached": 5547,
      "##oll": 5548,
      "alb": 5549,
      "##ounce": 5550,
      "biology": 5551,
      "significant": 5552,
      "author": 5553,
      "truly": 5554,
      "oppos": 5555,
      "exercises": 5556,
      "either": 5557,
      "gender": 5558,
      "##rd": 5559,
      "theories": 5560,
      "##pper": 5561,
      "basis": 5562,
      "atheists": 5563,
      "unknown": 5564,
      "gree": 5565,
      "sam": 5566,
      "##hem": 5567,
      "##ime": 5568,
      "action": 5569,
      "##ensity": 5570,
      "##ropri": 5571,
      "industrial": 5572,
      "alternative": 5573,
      "ba": 5574,
      "dut": 5575,
      "mich": 5576,
      "pas": 5577,
      "tend": 5578,
      "somebody": 5579,
      "plants": 5580,
      "resist": 5581,
      "looks": 5582,
      "added": 5583,
      "suppor": 5584,
      "employee": 5585,
      "substit": 5586,
      "gives": 5587,
      "joining": 5588,
      "jealous": 5589,
      "similarities": 5590,
      "##contin": 5591,
      "##cer": 5592,
      "forces": 5593,
      "laptops": 5594,
      "emails": 5595,
      "##elling": 5596,
      "nose": 5597,
      "pim": 5598,
      "##oon": 5599,
      "tricks": 5600,
      "flag": 5601,
      "itself": 5602,
      "bangl": 5603,
      "bits": 5604,
      "##jab": 5605,
      "desk": 5606,
      "kej": 5607,
      "mistakes": 5608,
      "revenue": 5609,
      "##uk": 5610,
      "##erg": 5611,
      "asia": 5612,
      "offline": 5613,
      "decre": 5614,
      "emotion": 5615,
      "scholars": 5616,
      "ja": 5617,
      "ric": 5618,
      "##atory": 5619,
      "involved": 5620,
      "players": 5621,
      "politic": 5622,
      "sources": 5623,
      "democracy": 5624,
      "liberal": 5625,
      "harmful": 5626,
      "oce": 5627,
      "xbox": 5628,
      "##inations": 5629,
      "areas": 5630,
      "ideal": 5631,
      "saved": 5632,
      "gar": 5633,
      "till": 5634,
      "ub": 5635,
      "##gh": 5636,
      "##inate": 5637,
      "##ials": 5638,
      "redmi": 5639,
      "placements": 5640,
      "valley": 5641,
      "central": 5642,
      "takes": 5643,
      "activities": 5644,
      "artificial": 5645,
      "bow": 5646,
      "nic": 5647,
      "rules": 5648,
      "##riwal": 5649,
      "##pped": 5650,
      "scene": 5651,
      "adop": 5652,
      "instrum": 5653,
      "generation": 5654,
      "##ception": 5655,
      "royal": 5656,
      "factor": 5657,
      "##print": 5658,
      "kejriwal": 5659,
      "gur": 5660,
      "vel": 5661,
      "##empt": 5662,
      "domin": 5663,
      "##olf": 5664,
      "weather": 5665,
      "spouse": 5666,
      "audio": 5667,
      "named": 5668,
      "tickets": 5669,
      "category": 5670,
      "push": 5671,
      "##hatt": 5672,
      "tom": 5673,
      "forward": 5674,
      "##olar": 5675,
      "actual": 5676,
      "remain": 5677,
      "designing": 5678,
      "scientifically": 5679,
      "captain": 5680,
      "despite": 5681,
      "freedom": 5682,
      "##aging": 5683,
      "2013": 5684,
      "##duction": 5685,
      "aircraft": 5686,
      "canadian": 5687,
      "roman": 5688,
      "selected": 5689,
      "discover": 5690,
      "##ault": 5691,
      "scra": 5692,
      "entry": 5693,
      "##coming": 5694,
      "equivalent": 5695,
      "cas": 5696,
      "mas": 5697,
      "##top": 5698,
      "worse": 5699,
      "pursuing": 5700,
      "anno": 5701,
      "democratic": 5702,
      "router": 5703,
      "bache": 5704,
      "h1": 5705,
      "zone": 5706,
      "theore": 5707,
      "execut": 5708,
      "statement": 5709,
      "challen": 5710,
      "300": 5711,
      "oxy": 5712,
      "##rad": 5713,
      "libr": 5714,
      "expert": 5715,
      "##osexual": 5716,
      "leaders": 5717,
      "##rem": 5718,
      "haw": 5719,
      "##oles": 5720,
      "shut": 5721,
      "temple": 5722,
      "##cloud": 5723,
      "consequences": 5724,
      "az": 5725,
      "din": 5726,
      "tier": 5727,
      "yog": 5728,
      "manip": 5729,
      "##aving": 5730,
      "199": 5731,
      "punjab": 5732,
      "failed": 5733,
      "mand": 5734,
      "##usion": 5735,
      "##angle": 5736,
      "century": 5737,
      "##ipping": 5738,
      "dar": 5739,
      "lew": 5740,
      "experiment": 5741,
      "besides": 5742,
      "lens": 5743,
      "piano": 5744,
      "##ray": 5745,
      "loved": 5746,
      "10th": 5747,
      "angry": 5748,
      "##prise": 5749,
      "absol": 5750,
      "##like": 5751,
      "##80": 5752,
      "##ends": 5753,
      "cro": 5754,
      "dna": 5755,
      "nut": 5756,
      "##oe": 5757,
      "scar": 5758,
      "pret": 5759,
      "wanted": 5760,
      "surface": 5761,
      "pizz": 5762,
      "##dr": 5763,
      "##otech": 5764,
      "exists": 5765,
      "masturbate": 5766,
      "scholarship": 5767,
      "gpa": 5768,
      "hall": 5769,
      "nasa": 5770,
      "visual": 5771,
      "hero": 5772,
      "hardest": 5773,
      "painting": 5774,
      "activity": 5775,
      "35": 5776,
      "ion": 5777,
      "##pur": 5778,
      "##iture": 5779,
      "##uted": 5780,
      "compar": 5781,
      "academic": 5782,
      "ratio": 5783,
      "sociopath": 5784,
      "tutor": 5785,
      "river": 5786,
      "##lel": 5787,
      "scrap": 5788,
      "points": 5789,
      "fant": 5790,
      "kne": 5791,
      "loose": 5792,
      "ring": 5793,
      "alien": 5794,
      "hasn": 5795,
      "turned": 5796,
      "religious": 5797,
      "embed": 5798,
      "##untu": 5799,
      "floor": 5800,
      "indones": 5801,
      "largest": 5802,
      "cgpa": 5803,
      "cu": 5804,
      "ox": 5805,
      "##cher": 5806,
      "stom": 5807,
      "frac": 5808,
      "ability": 5809,
      "plans": 5810,
      "raw": 5811,
      "connected": 5812,
      "bull": 5813,
      "##ued": 5814,
      "##rees": 5815,
      "stuff": 5816,
      "mode": 5817,
      "pride": 5818,
      "taxes": 5819,
      "soul": 5820,
      "pattern": 5821,
      "individuals": 5822,
      "vegetarian": 5823,
      "oxygen": 5824,
      "fan": 5825,
      "fur": 5826,
      "gb": 5827,
      "ss": 5828,
      "##10": 5829,
      "##edi": 5830,
      "cod": 5831,
      "processor": 5832,
      "broad": 5833,
      "shares": 5834,
      "atheist": 5835,
      "denom": 5836,
      "pronun": 5837,
      "spirit": 5838,
      "##right": 5839,
      "sequ": 5840,
      "##berg": 5841,
      "##ype": 5842,
      "belong": 5843,
      "advantage": 5844,
      "showing": 5845,
      "stanford": 5846,
      "3rd": 5847,
      "painless": 5848,
      "wikip": 5849,
      "oct": 5850,
      "##rig": 5851,
      "##anda": 5852,
      "cloth": 5853,
      "directly": 5854,
      "strikes": 5855,
      "administ": 5856,
      "wikipedia": 5857,
      "##elts": 5858,
      "dragon": 5859,
      "nature": 5860,
      "considering": 5861,
      "flipkart": 5862,
      "lewis": 5863,
      "##gers": 5864,
      "##dule": 5865,
      "paypal": 5866,
      "tests": 5867,
      "diploma": 5868,
      "yellow": 5869,
      "density": 5870,
      "fro": 5871,
      "lift": 5872,
      "vision": 5873,
      "breast": 5874,
      "affordable": 5875,
      "stomach": 5876,
      "ax": 5877,
      "mang": 5878,
      "tree": 5879,
      "chip": 5880,
      "ubuntu": 5881,
      "boss": 5882,
      "dying": 5883,
      "element": 5884,
      "##agers": 5885,
      "heavy": 5886,
      "femin": 5887,
      "discontin": 5888,
      "bigger": 5889,
      "airb": 5890,
      "centre": 5891,
      "institutes": 5892,
      "including": 5893,
      "jump": 5894,
      "heav": 5895,
      "auto": 5896,
      "brands": 5897,
      "texas": 5898,
      "bernie": 5899,
      "amp": 5900,
      "fill": 5901,
      "sher": 5902,
      "venture": 5903,
      "##ari": 5904,
      "##icing": 5905,
      "##icial": 5906,
      "conspir": 5907,
      "invited": 5908,
      "aer": 5909,
      "ielts": 5910,
      "vice": 5911,
      "##jp": 5912,
      "blu": 5913,
      "revolution": 5914,
      "washington": 5915,
      "procrast": 5916,
      "cope": 5917,
      "huge": 5918,
      "wi": 5919,
      "habits": 5920,
      "gobi": 5921,
      "conserv": 5922,
      "incident": 5923,
      "poly": 5924,
      "##ducing": 5925,
      "calculated": 5926,
      "networks": 5927,
      "budd": 5928,
      "egg": 5929,
      "applied": 5930,
      "furn": 5931,
      "kong": 5932,
      "##rete": 5933,
      "visitor": 5934,
      "edit": 5935,
      "direction": 5936,
      "papers": 5937,
      "channels": 5938,
      "sanders": 5939,
      "pronunciation": 5940,
      "tes": 5941,
      "tag": 5942,
      "fee": 5943,
      "button": 5944,
      "watched": 5945,
      "broke": 5946,
      "petrol": 5947,
      "eligible": 5948,
      "##nat": 5949,
      "developers": 5950,
      "airpl": 5951,
      "15k": 5952,
      "hosting": 5953,
      "hong": 5954,
      "ka": 5955,
      "##iler": 5956,
      "repair": 5957,
      "logic": 5958,
      "circle": 5959,
      "angular": 5960,
      "strategies": 5961,
      "scrapping": 5962,
      "nations": 5963,
      "tired": 5964,
      "##mm": 5965,
      "uns": 5966,
      "happening": 5967,
      "##ifications": 5968,
      "primary": 5969,
      "format": 5970,
      "interviews": 5971,
      "downloading": 5972,
      "located": 5973,
      "faux": 5974,
      "feature": 5975,
      "ethical": 5976,
      "blind": 5977,
      "motion": 5978,
      "paint": 5979,
      "barack": 5980,
      "percentile": 5981,
      "celebrate": 5982,
      "behavior": 5983,
      "eb": 5984,
      "tab": 5985,
      "##iers": 5986,
      "##uro": 5987,
      "silicon": 5988,
      "independent": 5989,
      "obsessed": 5990,
      "vagina": 5991,
      "btech": 5992,
      "##ply": 5993,
      "withd": 5994,
      "##unk": 5995,
      "amb": 5996,
      "practical": 5997,
      "risk": 5998,
      "freelanc": 5999,
      "supporters": 6000,
      "luck": 6001,
      "naz": 6002,
      "##jee": 6003,
      "##irus": 6004,
      "##hern": 6005,
      "belief": 6006,
      "section": 6007,
      "terrorism": 6008,
      "graphic": 6009,
      "grammar": 6010,
      "lack": 6011,
      "##ony": 6012,
      "syria": 6013,
      "pakistani": 6014,
      "##ternal": 6015,
      "satis": 6016,
      "mention": 6017,
      "dent": 6018,
      "chair": 6019,
      "govt": 6020,
      "officers": 6021,
      "statistics": 6022,
      "motivate": 6023,
      "motivated": 6024,
      "candidates": 6025,
      "advertise": 6026,
      "aware": 6027,
      "mill": 6028,
      "##lin": 6029,
      "##mission": 6030,
      "##onald": 6031,
      "##isc": 6032,
      "levels": 6033,
      "pizza": 6034,
      "icloud": 6035,
      "##put": 6036,
      "##rant": 6037,
      "##eless": 6038,
      "wearing": 6039,
      "keyword": 6040,
      "counter": 6041,
      "rice": 6042,
      "##bel": 6043,
      "sport": 6044,
      "seeing": 6045,
      "growing": 6046,
      "articles": 6047,
      "alternatives": 6048,
      "astronaut": 6049,
      "##atically": 6050,
      "##ansion": 6051,
      "painful": 6052,
      "member": 6053,
      "browser": 6054,
      "brahmin": 6055,
      "veloc": 6056,
      "vl": 6057,
      "##omet": 6058,
      "##ooting": 6059,
      "cogn": 6060,
      "editing": 6061,
      "doctors": 6062,
      "expanding": 6063,
      "parallel": 6064,
      "##cles": 6065,
      "expansion": 6066,
      "cheat": 6067,
      "indic": 6068,
      "dollar": 6069,
      "target": 6070,
      "sever": 6071,
      "lake": 6072,
      "explan": 6073,
      "circuit": 6074,
      "influence": 6075,
      "anonymous": 6076,
      "vehicle": 6077,
      "aad": 6078,
      "et": 6079,
      "jam": 6080,
      "les": 6081,
      "trib": 6082,
      "##bert": 6083,
      "instant": 6084,
      "simply": 6085,
      "genu": 6086,
      "profitable": 6087,
      "transaction": 6088,
      "generate": 6089,
      "responsible": 6090,
      "neutr": 6091,
      "hospital": 6092,
      "nik": 6093,
      "##gre": 6094,
      "interact": 6095,
      "town": 6096,
      "##ae": 6097,
      "plastic": 6098,
      "paytm": 6099,
      "broken": 6100,
      "cc": 6101,
      "dani": 6102,
      "vp": 6103,
      "##sis": 6104,
      "##mark": 6105,
      "##orage": 6106,
      "##acle": 6107,
      "ship": 6108,
      "shape": 6109,
      "##uration": 6110,
      "chur": 6111,
      "imag": 6112,
      "tested": 6113,
      "profession": 6114,
      "antiv": 6115,
      "##list": 6116,
      "##ua": 6117,
      "shirt": 6118,
      "episodes": 6119,
      "apt": 6120,
      "figh": 6121,
      "jan": 6122,
      "nom": 6123,
      "uri": 6124,
      "##asht": 6125,
      "aspir": 6126,
      "infos": 6127,
      "keeps": 6128,
      "crimin": 6129,
      "##ropriate": 6130,
      "font": 6131,
      "gd": 6132,
      "##rt": 6133,
      "threat": 6134,
      "homosexual": 6135,
      "sql": 6136,
      "velocity": 6137,
      "gap": 6138,
      "jer": 6139,
      "##fa": 6140,
      "##ipur": 6141,
      "##abul": 6142,
      "passion": 6143,
      "winter": 6144,
      "graphics": 6145,
      "boost": 6146,
      "bitcoin": 6147,
      "disease": 6148,
      "conspiracy": 6149,
      "tesla": 6150,
      "rio": 6151,
      "##zona": 6152,
      "##ively": 6153,
      "arri": 6154,
      "twice": 6155,
      "retail": 6156,
      "magic": 6157,
      "construction": 6158,
      "supreme": 6159,
      "##iques": 6160,
      "withdraw": 6161,
      "antivirus": 6162,
      "egy": 6163,
      "stack": 6164,
      "unit": 6165,
      "dont": 6166,
      "fluent": 6167,
      "possibility": 6168,
      "arizona": 6169,
      "₹1": 6170,
      "##bor": 6171,
      "chand": 6172,
      "processing": 6173,
      "swim": 6174,
      "scientists": 6175,
      "magnetic": 6176,
      "retrieve": 6177,
      "vector": 6178,
      "greek": 6179,
      "daniel": 6180,
      "egypt": 6181,
      "jim": 6182,
      "##pro": 6183,
      "##cular": 6184,
      "##rets": 6185,
      "##ara": 6186,
      "electoral": 6187,
      "consc": 6188,
      "drugs": 6189,
      "masturbating": 6190,
      "astrology": 6191,
      "ty": 6192,
      "##rom": 6193,
      "unif": 6194,
      "whose": 6195,
      "finding": 6196,
      "friendly": 6197,
      "ceo": 6198,
      "breaking": 6199,
      "flying": 6200,
      "congress": 6201,
      "scot": 6202,
      "arn": 6203,
      "shep": 6204,
      "extrem": 6205,
      "magaz": 6206,
      "triangle": 6207,
      "include": 6208,
      "documents": 6209,
      "infosys": 6210,
      "##arter": 6211,
      "##adu": 6212,
      "syll": 6213,
      "##ovo": 6214,
      "emotional": 6215,
      "www": 6216,
      "selection": 6217,
      "figure": 6218,
      "bought": 6219,
      "pull": 6220,
      "habit": 6221,
      "worry": 6222,
      "chess": 6223,
      "passed": 6224,
      "subt": 6225,
      "orgasm": 6226,
      "ipod": 6227,
      "leader": 6228,
      "weapons": 6229,
      "##pap": 6230,
      "##outh": 6231,
      "neuro": 6232,
      "club": 6233,
      "holes": 6234,
      "furniture": 6235,
      "dell": 6236,
      "vill": 6237,
      "##arch": 6238,
      "storage": 6239,
      "accenture": 6240,
      "acceler": 6241,
      "periods": 6242,
      "particles": 6243,
      "resource": 6244,
      "qualities": 6245,
      "therap": 6246,
      "chain": 6247,
      "warming": 6248,
      "monitor": 6249,
      "article": 6250,
      "falling": 6251,
      "figures": 6252,
      "laser": 6253,
      "##bra": 6254,
      "##ulate": 6255,
      "unable": 6256,
      "shepher": 6257,
      "ek": 6258,
      "na": 6259,
      "pump": 6260,
      "##uits": 6261,
      "##ums": 6262,
      "external": 6263,
      "underrated": 6264,
      "internal": 6265,
      "hob": 6266,
      "corrupt": 6267,
      "tattoo": 6268,
      "ber": 6269,
      "gear": 6270,
      "mp": 6271,
      "sight": 6272,
      "sons": 6273,
      "##ja": 6274,
      "nepal": 6275,
      "seed": 6276,
      "factory": 6277,
      "submit": 6278,
      "recommended": 6279,
      "vocabul": 6280,
      "deposit": 6281,
      "vocabulary": 6282,
      "dram": 6283,
      "gone": 6284,
      "##js": 6285,
      "##iling": 6286,
      "unex": 6287,
      "##unes": 6288,
      "longest": 6289,
      "repe": 6290,
      "computers": 6291,
      "investor": 6292,
      "equity": 6293,
      "debt": 6294,
      "bsc": 6295,
      "##iny": 6296,
      "alph": 6297,
      "musk": 6298,
      "obtain": 6299,
      "grey": 6300,
      "credits": 6301,
      "fixed": 6302,
      "described": 6303,
      "princip": 6304,
      "cath": 6305,
      "wise": 6306,
      "##pm": 6307,
      "immigration": 6308,
      "ncr": 6309,
      "##break": 6310,
      "embedded": 6311,
      "ko": 6312,
      "##nic": 6313,
      "inde": 6314,
      "jokes": 6315,
      "theme": 6316,
      "photography": 6317,
      "mathematical": 6318,
      "funny": 6319,
      "##etime": 6320,
      "finger": 6321,
      "lenovo": 6322,
      "der": 6323,
      "spo": 6324,
      "##aked": 6325,
      "letters": 6326,
      "satell": 6327,
      "creating": 6328,
      "clothing": 6329,
      "bor": 6330,
      "css": 6331,
      "ju": 6332,
      "##do": 6333,
      "arv": 6334,
      "output": 6335,
      "penal": 6336,
      "logo": 6337,
      "walking": 6338,
      "volume": 6339,
      "particularly": 6340,
      "hydrogen": 6341,
      "italy": 6342,
      "bachelor": 6343,
      "lying": 6344,
      "ni": 6345,
      "##mc": 6346,
      "##ket": 6347,
      "defe": 6348,
      "##une": 6349,
      "firms": 6350,
      "physically": 6351,
      "##ugu": 6352,
      "teenager": 6353,
      "republican": 6354,
      "bangladesh": 6355,
      "desktop": 6356,
      "explanation": 6357,
      "iits": 6358,
      "shy": 6359,
      "clash": 6360,
      "techniques": 6361,
      "demonetisation": 6362,
      "46": 6363,
      "bjp": 6364,
      "marath": 6365,
      "mini": 6366,
      "contacts": 6367,
      "properties": 6368,
      "criteria": 6369,
      "tooth": 6370,
      "##fered": 6371,
      "scared": 6372,
      "advis": 6373,
      "smartphones": 6374,
      "divided": 6375,
      "enterprise": 6376,
      "bott": 6377,
      "ocean": 6378,
      "26": 6379,
      "##hel": 6380,
      "chocol": 6381,
      "##aka": 6382,
      "##iva": 6383,
      "arts": 6384,
      "butter": 6385,
      "dislike": 6386,
      "##pected": 6387,
      "elon": 6388,
      "missing": 6389,
      "fo": 6390,
      "gos": 6391,
      "waste": 6392,
      "reference": 6393,
      "##abus": 6394,
      "resign": 6395,
      "poll": 6396,
      "minute": 6397,
      "posts": 6398,
      "swed": 6399,
      "frequency": 6400,
      "george": 6401,
      "mirror": 6402,
      "##otechn": 6403,
      "uniform": 6404,
      "fine": 6405,
      "##xit": 6406,
      "island": 6407,
      "sept": 6408,
      "cris": 6409,
      "supposed": 6410,
      "strang": 6411,
      "prior": 6412,
      "african": 6413,
      "h1b": 6414,
      "shepherd": 6415,
      "arvind": 6416,
      "cub": 6417,
      "##men": 6418,
      "except": 6419,
      "arrest": 6420,
      "chest": 6421,
      "string": 6422,
      "travelling": 6423,
      "completed": 6424,
      "jewish": 6425,
      "elements": 6426,
      "hell": 6427,
      "rh": 6428,
      "##arge": 6429,
      "upcoming": 6430,
      "legs": 6431,
      "studio": 6432,
      "rejected": 6433,
      "eve": 6434,
      "rings": 6435,
      "##mad": 6436,
      "beer": 6437,
      "prostit": 6438,
      "##ago": 6439,
      "wash": 6440,
      "taught": 6441,
      "confident": 6442,
      "latin": 6443,
      "celebrities": 6444,
      "saving": 6445,
      "senior": 6446,
      "27": 6447,
      "wine": 6448,
      "##hop": 6449,
      "##inct": 6450,
      "spons": 6451,
      "prank": 6452,
      "empty": 6453,
      "brexit": 6454,
      "confir": 6455,
      "steve": 6456,
      "discovered": 6457,
      "bengal": 6458,
      "clock": 6459,
      "dumb": 6460,
      "##ston": 6461,
      "england": 6462,
      "knows": 6463,
      "powers": 6464,
      "damage": 6465,
      "cv": 6466,
      "ven": 6467,
      "##au": 6468,
      "items": 6469,
      "orient": 6470,
      "scan": 6471,
      "breed": 6472,
      "forever": 6473,
      "department": 6474,
      "manufacturing": 6475,
      "abol": 6476,
      "goals": 6477,
      "##activ": 6478,
      "subjects": 6479,
      "grammat": 6480,
      "conscious": 6481,
      "mig": 6482,
      "##nc": 6483,
      "##tr": 6484,
      "optim": 6485,
      "christians": 6486,
      "independence": 6487,
      "assistant": 6488,
      "wireless": 6489,
      "syllabus": 6490,
      "ak": 6491,
      "cable": 6492,
      "ui": 6493,
      "itunes": 6494,
      "##ola": 6495,
      "quotes": 6496,
      "computing": 6497,
      "ps4": 6498,
      "digit": 6499,
      "educational": 6500,
      "wallet": 6501,
      "copyright": 6502,
      "advertising": 6503,
      "scenes": 6504,
      "diesel": 6505,
      "lect": 6506,
      "shown": 6507,
      "##dium": 6508,
      "maps": 6509,
      "conver": 6510,
      "neigh": 6511,
      "britain": 6512,
      "pimples": 6513,
      "executive": 6514,
      "sherlock": 6515,
      "kh": 6516,
      "##ein": 6517,
      "##itors": 6518,
      "comedy": 6519,
      "critic": 6520,
      "sqrt": 6521,
      "corn": 6522,
      "fuel": 6523,
      "luc": 6524,
      "##erved": 6525,
      "##olic": 6526,
      "mahab": 6527,
      "##log": 6528,
      "admit": 6529,
      "humanity": 6530,
      "lawyer": 6531,
      "yoga": 6532,
      "binary": 6533,
      "##eem": 6534,
      "##bed": 6535,
      "##rel": 6536,
      "##iday": 6537,
      "professors": 6538,
      "fantas": 6539,
      "45": 6540,
      "cow": 6541,
      "##ita": 6542,
      "##iders": 6543,
      "##anta": 6544,
      "followed": 6545,
      "signal": 6546,
      "values": 6547,
      "lessons": 6548,
      "promot": 6549,
      "delivery": 6550,
      "annoying": 6551,
      "##otechnology": 6552,
      "cree": 6553,
      "kick": 6554,
      "##lished": 6555,
      "##pe": 6556,
      "##vey": 6557,
      "##estic": 6558,
      "heal": 6559,
      "##iving": 6560,
      "helpful": 6561,
      "monthly": 6562,
      "owner": 6563,
      "bullet": 6564,
      "teachers": 6565,
      "innovations": 6566,
      "instrument": 6567,
      "extremely": 6568,
      "ola": 6569,
      "rah": 6570,
      "placed": 6571,
      "relation": 6572,
      "minor": 6573,
      "australian": 6574,
      "faith": 6575,
      "dynam": 6576,
      "rise": 6577,
      "##ingu": 6578,
      "thick": 6579,
      "mos": 6580,
      "amend": 6581,
      "poem": 6582,
      "affair": 6583,
      "seems": 6584,
      "expands": 6585,
      "concentrate": 6586,
      "registered": 6587,
      "fees": 6588,
      "veg": 6589,
      "friendship": 6590,
      "academy": 6591,
      "airlines": 6592,
      "##wami": 6593,
      "##ots": 6594,
      "willi": 6595,
      "ready": 6596,
      "charging": 6597,
      "singh": 6598,
      "tenn": 6599,
      "knew": 6600,
      "church": 6601,
      "rene": 6602,
      "twe": 6603,
      "spain": 6604,
      "scand": 6605,
      "offers": 6606,
      "solid": 6607,
      "insp": 6608,
      "territ": 6609,
      "opposite": 6610,
      "unexpected": 6611,
      "goswami": 6612,
      "64": 6613,
      "aug": 6614,
      "canon": 6615,
      "quor": 6616,
      "spring": 6617,
      "coins": 6618,
      "examination": 6619,
      "partners": 6620,
      "belie": 6621,
      "##erator": 6622,
      "##fficient": 6623,
      "religions": 6624,
      "circum": 6625,
      "diam": 6626,
      "fif": 6627,
      "##cil": 6628,
      "##omi": 6629,
      "##sey": 6630,
      "##ching": 6631,
      "finish": 6632,
      "##aphy": 6633,
      "retire": 6634,
      "##ttes": 6635,
      "arnab": 6636,
      "mahabhar": 6637,
      "ded": 6638,
      "rare": 6639,
      "##wing": 6640,
      "offered": 6641,
      "oral": 6642,
      "quote": 6643,
      "deactiv": 6644,
      "accomp": 6645,
      "saw": 6646,
      "feels": 6647,
      "asks": 6648,
      "aptitude": 6649,
      "fell": 6650,
      "wip": 6651,
      "##kal": 6652,
      "##roc": 6653,
      "compon": 6654,
      "engines": 6655,
      "mostly": 6656,
      "secure": 6657,
      "##pective": 6658,
      "calling": 6659,
      "microw": 6660,
      "movement": 6661,
      "keyboard": 6662,
      "cigarettes": 6663,
      "b2": 6664,
      "wing": 6665,
      "##jar": 6666,
      "##encies": 6667,
      "unb": 6668,
      "appoint": 6669,
      "##rug": 6670,
      "december": 6671,
      "depend": 6672,
      "##ricult": 6673,
      "industries": 6674,
      "killing": 6675,
      "linear": 6676,
      "automation": 6677,
      "efficiently": 6678,
      "recipe": 6679,
      "genuine": 6680,
      "sir": 6681,
      "tan": 6682,
      "##gling": 6683,
      "##any": 6684,
      "##ario": 6685,
      "##amin": 6686,
      "##urs": 6687,
      "sodium": 6688,
      "agency": 6689,
      "agricult": 6690,
      "programmers": 6691,
      "medium": 6692,
      "headphones": 6693,
      "voting": 6694,
      "properly": 6695,
      "satisf": 6696,
      "dil": 6697,
      "##life": 6698,
      "##ael": 6699,
      "##bour": 6700,
      "reverse": 6701,
      "##rif": 6702,
      "printer": 6703,
      "progress": 6704,
      "command": 6705,
      "flav": 6706,
      "justice": 6707,
      "redd": 6708,
      "scored": 6709,
      "tablet": 6710,
      "separate": 6711,
      "28": 6712,
      "node": 6713,
      "##bu": 6714,
      "beard": 6715,
      "stick": 6716,
      "##raine": 6717,
      "improved": 6718,
      "musical": 6719,
      "realize": 6720,
      "transg": 6721,
      "region": 6722,
      "apache": 6723,
      "beneficial": 6724,
      "restr": 6725,
      "turning": 6726,
      "predict": 6727,
      "queen": 6728,
      "widely": 6729,
      "99": 6730,
      "ple": 6731,
      "ride": 6732,
      "wood": 6733,
      "₹500": 6734,
      "##rupt": 6735,
      "meditation": 6736,
      "existing": 6737,
      "advance": 6738,
      "slit": 6739,
      "patient": 6740,
      "hinduism": 6741,
      "jackson": 6742,
      "routine": 6743,
      "malaysia": 6744,
      "cd": 6745,
      "rational": 6746,
      "sick": 6747,
      "##ns": 6748,
      "##30": 6749,
      "##edies": 6750,
      "stores": 6751,
      "##idden": 6752,
      "##ada": 6753,
      "disney": 6754,
      "psychological": 6755,
      "models": 6756,
      "dial": 6757,
      "ies": 6758,
      "##jac": 6759,
      "door": 6760,
      "seats": 6761,
      "guide": 6762,
      "federal": 6763,
      "5s": 6764,
      "nag": 6765,
      "##dies": 6766,
      "infect": 6767,
      "introduce": 6768,
      "terrorist": 6769,
      "michael": 6770,
      "indonesia": 6771,
      "aud": 6772,
      "mouth": 6773,
      "##uary": 6774,
      "##ado": 6775,
      "##ologist": 6776,
      "##issions": 6777,
      "provides": 6778,
      "artist": 6779,
      "logical": 6780,
      "fields": 6781,
      "younger": 6782,
      "citizenship": 6783,
      "associated": 6784,
      "subtit": 6785,
      "tiles": 6786,
      "##isions": 6787,
      "mys": 6788,
      "goods": 6789,
      "2012": 6790,
      "##ounder": 6791,
      "universal": 6792,
      "answering": 6793,
      "subst": 6794,
      "streaming": 6795,
      "ruby": 6796,
      "atomic": 6797,
      "gdp": 6798,
      "chocolate": 6799,
      "cases": 6800,
      "diab": 6801,
      "##care": 6802,
      "himself": 6803,
      "edge": 6804,
      "writers": 6805,
      "immedi": 6806,
      "psychopaths": 6807,
      "martial": 6808,
      "immediately": 6809,
      "fest": 6810,
      "mort": 6811,
      "oven": 6812,
      "zeal": 6813,
      "toe": 6814,
      "oracle": 6815,
      "suit": 6816,
      "##ivered": 6817,
      "boards": 6818,
      "electronic": 6819,
      "inventions": 6820,
      "illness": 6821,
      "superman": 6822,
      "lonely": 6823,
      "nba": 6824,
      "tas": 6825,
      "thigh": 6826,
      "2010": 6827,
      "kept": 6828,
      "transport": 6829,
      "traveling": 6830,
      "silver": 6831,
      "consulting": 6832,
      "title": 6833,
      "dance": 6834,
      "xia": 6835,
      "##rix": 6836,
      "split": 6837,
      "implic": 6838,
      "agent": 6839,
      "oldest": 6840,
      "simpl": 6841,
      "highly": 6842,
      "delivered": 6843,
      "breakup": 6844,
      "refrig": 6845,
      "occup": 6846,
      "concrete": 6847,
      "arguments": 6848,
      "pretty": 6849,
      "bs": 6850,
      "gi": 6851,
      "kap": 6852,
      "thesis": 6853,
      "##iced": 6854,
      "##aster": 6855,
      "adapt": 6856,
      "export": 6857,
      "acting": 6858,
      "accounting": 6859,
      "monet": 6860,
      "succeed": 6861,
      "talent": 6862,
      "##hammad": 6863,
      "declare": 6864,
      "ivy": 6865,
      "fet": 6866,
      "hat": 6867,
      "ren": 6868,
      "##ici": 6869,
      "compos": 6870,
      "##unch": 6871,
      "attention": 6872,
      "remedies": 6873,
      "assum": 6874,
      "versa": 6875,
      "transgender": 6876,
      "ah": 6877,
      "fel": 6878,
      "jet": 6879,
      "msc": 6880,
      "thro": 6881,
      "marvel": 6882,
      "differently": 6883,
      "soccer": 6884,
      "waiting": 6885,
      "identity": 6886,
      "essential": 6887,
      "semester": 6888,
      "further": 6889,
      "dj": 6890,
      "dsl": 6891,
      "nav": 6892,
      "##kar": 6893,
      "##ully": 6894,
      "scal": 6895,
      "propos": 6896,
      "designed": 6897,
      "divorce": 6898,
      "billionaire": 6899,
      "concentration": 6900,
      "ugly": 6901,
      "procrastination": 6902,
      "dish": 6903,
      "ira": 6904,
      "pool": 6905,
      "##dy": 6906,
      "##zuel": 6907,
      "compound": 6908,
      "manaphy": 6909,
      "2020": 6910,
      "buff": 6911,
      "extract": 6912,
      "liter": 6913,
      "##ibility": 6914,
      "facial": 6915,
      "recipes": 6916,
      "accidentally": 6917,
      "library": 6918,
      "bath": 6919,
      "ol": 6920,
      "appropriate": 6921,
      "##izon": 6922,
      "basket": 6923,
      "existed": 6924,
      "opening": 6925,
      "attacks": 6926,
      "islamic": 6927,
      "olympic": 6928,
      "response": 6929,
      "concepts": 6930,
      "translate": 6931,
      "##ziest": 6932,
      "##wards": 6933,
      "asse": 6934,
      "leaving": 6935,
      "teaching": 6936,
      "gujar": 6937,
      "medals": 6938,
      "affil": 6939,
      "photoshop": 6940,
      "director": 6941,
      "weakness": 6942,
      "domestic": 6943,
      "christianity": 6944,
      "manufacture": 6945,
      "richest": 6946,
      "fighter": 6947,
      "accomplish": 6948,
      "hung": 6949,
      "nfl": 6950,
      "vene": 6951,
      "##vant": 6952,
      "unlim": 6953,
      "##ipop": 6954,
      "cyber": 6955,
      "faced": 6956,
      "returns": 6957,
      "cuis": 6958,
      "zealand": 6959,
      "venezuel": 6960,
      "##ti": 6961,
      "##ubs": 6962,
      "hadoop": 6963,
      "150": 6964,
      "foreigners": 6965,
      "automatically": 6966,
      "railways": 6967,
      "theoret": 6968,
      "₹1000": 6969,
      "unlimited": 6970,
      "29": 6971,
      "aim": 6972,
      "icon": 6973,
      "##ini": 6974,
      "wheel": 6975,
      "suck": 6976,
      "accent": 6977,
      "biotechnology": 6978,
      "speakers": 6979,
      "safely": 6980,
      "##ommerce": 6981,
      "wales": 6982,
      "official": 6983,
      "introducing": 6984,
      "seconds": 6985,
      "clients": 6986,
      "vpn": 6987,
      "i5": 6988,
      "##force": 6989,
      "stam": 6990,
      "shoot": 6991,
      "##agle": 6992,
      "chlor": 6993,
      "##anged": 6994,
      "starts": 6995,
      "##ensions": 6996,
      "subscrib": 6997,
      "##garh": 6998,
      "honest": 6999,
      "substitute": 7000,
      "xiaomi": 7001,
      "baking": 7002,
      "diver": 7003,
      "tum": 7004,
      "##uce": 7005,
      "##opes": 7006,
      "fruit": 7007,
      "click": 7008,
      "interp": 7009,
      "happiness": 7010,
      "sms": 7011,
      "attempt": 7012,
      "solving": 7013,
      "majority": 7014,
      "kinds": 7015,
      "demonetize": 7016,
      "screens": 7017,
      "judge": 7018,
      "jimmy": 7019,
      "crisis": 7020,
      "fal": 7021,
      "kil": 7022,
      "nano": 7023,
      "pages": 7024,
      "rape": 7025,
      "sans": 7026,
      "##cd": 7027,
      "##irts": 7028,
      "##usive": 7029,
      "wouldn": 7030,
      "dishes": 7031,
      "removal": 7032,
      "karma": 7033,
      "fitness": 7034,
      "distribution": 7035,
      "criminal": 7036,
      "microwave": 7037,
      "dav": 7038,
      "##inated": 7039,
      "##etooth": 7040,
      "shock": 7041,
      "franch": 7042,
      "diss": 7043,
      "classical": 7044,
      "biased": 7045,
      "stronger": 7046,
      "spending": 7047,
      "lady": 7048,
      "challenges": 7049,
      "absolute": 7050,
      "bluetooth": 7051,
      "september": 7052,
      "venezuela": 7053,
      "pin": 7054,
      "##imb": 7055,
      "10k": 7056,
      "forms": 7057,
      "restore": 7058,
      "mentally": 7059,
      "babies": 7060,
      "celebrity": 7061,
      "printing": 7062,
      "crazy": 7063,
      "nyc": 7064,
      "decrease": 7065,
      "subtitles": 7066,
      "hous": 7067,
      "sar": 7068,
      "tat": 7069,
      "##yn": 7070,
      "##power": 7071,
      "trick": 7072,
      "##uls": 7073,
      "compl": 7074,
      "clust": 7075,
      "cheese": 7076,
      "confused": 7077,
      "degrees": 7078,
      "particle": 7079,
      "palest": 7080,
      "es": 7081,
      "lies": 7082,
      "soda": 7083,
      "##allow": 7084,
      "filter": 7085,
      "config": 7086,
      "successfully": 7087,
      "traditional": 7088,
      "millionaire": 7089,
      "enfield": 7090,
      "ebay": 7091,
      "kr": 7092,
      "sout": 7093,
      "##nb": 7094,
      "##ule": 7095,
      "##ban": 7096,
      "shift": 7097,
      "quad": 7098,
      "##ansas": 7099,
      "provided": 7100,
      "translation": 7101,
      "jaipur": 7102,
      "cart": 7103,
      "lux": 7104,
      "##40": 7105,
      "##vision": 7106,
      "##anas": 7107,
      "##alled": 7108,
      "##ops": 7109,
      "chief": 7110,
      "##apse": 7111,
      "cake": 7112,
      "approx": 7113,
      "freshers": 7114,
      "grammatically": 7115,
      "cuisine": 7116,
      "loll": 7117,
      "ns": 7118,
      "##ql": 7119,
      "##omy": 7120,
      "##sters": 7121,
      "mixed": 7122,
      "refund": 7123,
      "tracking": 7124,
      "input": 7125,
      "drawing": 7126,
      "cot": 7127,
      "nort": 7128,
      "##war": 7129,
      "##ania": 7130,
      "angle": 7131,
      "##ille": 7132,
      "ord": 7133,
      "thank": 7134,
      "proud": 7135,
      "commission": 7136,
      "##onto": 7137,
      "searching": 7138,
      "sending": 7139,
      "sony": 7140,
      "ethnic": 7141,
      "junior": 7142,
      "norm": 7143,
      "ux": 7144,
      "vad": 7145,
      "##obe": 7146,
      "##iter": 7147,
      "thin": 7148,
      "enh": 7149,
      "polar": 7150,
      "helps": 7151,
      "decided": 7152,
      "posted": 7153,
      "heads": 7154,
      "moments": 7155,
      "coup": 7156,
      "contribute": 7157,
      "powder": 7158,
      "upvotes": 7159,
      "emotionally": 7160,
      "heaven": 7161,
      "lollipop": 7162,
      "einst": 7163,
      "fbi": 7164,
      "nick": 7165,
      "held": 7166,
      "cock": 7167,
      "tai": 7168,
      "secrets": 7169,
      "beginning": 7170,
      "particip": 7171,
      "newspap": 7172,
      "savings": 7173,
      "discuss": 7174,
      "schedule": 7175,
      "reddit": 7176,
      "nadu": 7177,
      "overall": 7178,
      "caught": 7179,
      "backup": 7180,
      "plays": 7181,
      "tells": 7182,
      "childhood": 7183,
      "cupc": 7184,
      "johnson": 7185,
      "lakhs": 7186,
      "gs": 7187,
      "##kers": 7188,
      "##bian": 7189,
      "pradesh": 7190,
      "muscles": 7191,
      "fighting": 7192,
      "arabic": 7193,
      "founder": 7194,
      "kin": 7195,
      "##och": 7196,
      "##bull": 7197,
      "shower": 7198,
      "disk": 7199,
      "sale": 7200,
      "neck": 7201,
      "concern": 7202,
      "innovative": 7203,
      "ugc": 7204,
      "sharing": 7205,
      "administration": 7206,
      "einstein": 7207,
      "55": 7208,
      "kal": 7209,
      "lam": 7210,
      "mam": 7211,
      "pill": 7212,
      "##night": 7213,
      "##iat": 7214,
      "##mber": 7215,
      "bear": 7216,
      "spread": 7217,
      "plot": 7218,
      "##aceut": 7219,
      "increasing": 7220,
      "electrons": 7221,
      "officejet": 7222,
      "craziest": 7223,
      "susp": 7224,
      "buddh": 7225,
      "fully": 7226,
      "rum": 7227,
      "##ked": 7228,
      "##star": 7229,
      "cant": 7230,
      "##isgarh": 7231,
      "##uru": 7232,
      "spy": 7233,
      "sperm": 7234,
      "clans": 7235,
      "markets": 7236,
      "basics": 7237,
      "meeting": 7238,
      "toronto": 7239,
      "railway": 7240,
      "pharmaceut": 7241,
      "amendment": 7242,
      "##gia": 7243,
      "##rec": 7244,
      "map": 7245,
      "##ctc": 7246,
      "##ortion": 7247,
      "impos": 7248,
      "##onda": 7249,
      "mechanics": 7250,
      "ukraine": 7251,
      "##ucks": 7252,
      "##wl": 7253,
      "##ifier": 7254,
      "interface": 7255,
      "classic": 7256,
      "airprint": 7257,
      "paran": 7258,
      "conservative": 7259,
      "4620": 7260,
      "throat": 7261,
      "pharmaceutical": 7262,
      "bip": 7263,
      "ejac": 7264,
      "jay": 7265,
      "ronald": 7266,
      "##pc": 7267,
      "##real": 7268,
      "##rian": 7269,
      "##iff": 7270,
      "butt": 7271,
      "prize": 7272,
      "obc": 7273,
      "gods": 7274,
      "irctc": 7275,
      "customers": 7276,
      "scripting": 7277,
      "juice": 7278,
      "complain": 7279,
      "cine": 7280,
      "dump": 7281,
      "lakes": 7282,
      "parties": 7283,
      "employer": 7284,
      "batch": 7285,
      "calculus": 7286,
      "putin": 7287,
      "pronounce": 7288,
      "sequence": 7289,
      "ath": 7290,
      "boring": 7291,
      "uf": 7292,
      "##vember": 7293,
      "##erson": 7294,
      "pee": 7295,
      "clin": 7296,
      "november": 7297,
      "decent": 7298,
      "beauty": 7299,
      "continu": 7300,
      "borderline": 7301,
      "pink": 7302,
      "##ey": 7303,
      "chhatt": 7304,
      "inches": 7305,
      "##isms": 7306,
      "patent": 7307,
      "golden": 7308,
      "liked": 7309,
      "awes": 7310,
      "fundament": 7311,
      "bonds": 7312,
      "axis": 7313,
      "assemb": 7314,
      "chhattisgarh": 7315,
      "bacter": 7316,
      "gt": 7317,
      "vert": 7318,
      "##hold": 7319,
      "##uations": 7320,
      "notification": 7321,
      "abuse": 7322,
      "spin": 7323,
      "spect": 7324,
      "saudi": 7325,
      "couldn": 7326,
      "nowad": 7327,
      "specifically": 7328,
      "editor": 7329,
      "multi": 7330,
      "republicans": 7331,
      "ultimate": 7332,
      "airplane": 7333,
      "renew": 7334,
      "implications": 7335,
      "basketball": 7336,
      "gave": 7337,
      "jon": 7338,
      "mong": 7339,
      "rab": 7340,
      "##rome": 7341,
      "##70": 7342,
      "##wa": 7343,
      "dot": 7344,
      "##vere": 7345,
      "beach": 7346,
      "muhammad": 7347,
      "controll": 7348,
      "cheated": 7349,
      "lights": 7350,
      "30k": 7351,
      "italian": 7352,
      "nowadays": 7353,
      "mission": 7354,
      "pills": 7355,
      "ranger": 7356,
      "##ening": 7357,
      "shiva": 7358,
      "##illa": 7359,
      "compat": 7360,
      "manual": 7361,
      "poker": 7362,
      "consume": 7363,
      "eval": 7364,
      "crow": 7365,
      "organization": 7366,
      "geography": 7367,
      "inspirational": 7368,
      "duty": 7369,
      "politician": 7370,
      "index": 7371,
      "tennis": 7372,
      "##aid": 7373,
      "chi": 7374,
      "worked": 7375,
      "formal": 7376,
      "owners": 7377,
      "greater": 7378,
      "surge": 7379,
      "wonder": 7380,
      "ww2": 7381,
      "integrate": 7382,
      "pitbull": 7383,
      "fold": 7384,
      "hed": 7385,
      "turb": 7386,
      "##xide": 7387,
      "##ables": 7388,
      "ark": 7389,
      "booking": 7390,
      "consist": 7391,
      "carrier": 7392,
      "charger": 7393,
      "costs": 7394,
      "lesson": 7395,
      "physic": 7396,
      "infinity": 7397,
      "cooking": 7398,
      "illumin": 7399,
      "scariest": 7400,
      "mahabharata": 7401,
      "components": 7402,
      "dslr": 7403,
      "pic": 7404,
      "sib": 7405,
      "##12": 7406,
      "orbit": 7407,
      "##ulator": 7408,
      "ash": 7409,
      "upon": 7410,
      "nobel": 7411,
      "flor": 7412,
      "genius": 7413,
      "stranger": 7414,
      "former": 7415,
      "bio": 7416,
      "skinny": 7417,
      "consultant": 7418,
      "glasses": 7419,
      "##gaon": 7420,
      "actresses": 7421,
      "cosm": 7422,
      "denomination": 7423,
      "lesbian": 7424,
      "magazine": 7425,
      "##che": 7426,
      "##ef": 7427,
      "produced": 7428,
      "2018": 7429,
      "synd": 7430,
      "ends": 7431,
      "posting": 7432,
      "objects": 7433,
      "facing": 7434,
      "motivation": 7435,
      "kingdom": 7436,
      "ranking": 7437,
      "nikon": 7438,
      "sweden": 7439,
      "ire": 7440,
      "nt": 7441,
      "ray": 7442,
      "rude": 7443,
      "sr": 7444,
      "friction": 7445,
      "##ishing": 7446,
      "careers": 7447,
      "massage": 7448,
      "wwii": 7449,
      "capacity": 7450,
      "##cat": 7451,
      "##gage": 7452,
      "##asc": 7453,
      "##acing": 7454,
      "frust": 7455,
      "excl": 7456,
      "alumin": 7457,
      "chewing": 7458,
      "charges": 7459,
      "charged": 7460,
      "proven": 7461,
      "settle": 7462,
      "understanding": 7463,
      "diagn": 7464,
      "entrepreneurs": 7465,
      "constantly": 7466,
      "phen": 7467,
      "##icago": 7468,
      "adobe": 7469,
      "11th": 7470,
      "soldiers": 7471,
      "taiwan": 7472,
      "florida": 7473,
      "ireland": 7474,
      "400": 7475,
      "roo": 7476,
      "sach": 7477,
      "##rible": 7478,
      "##ares": 7479,
      "dreaming": 7480,
      "texts": 7481,
      "bhag": 7482,
      "racism": 7483,
      "argument": 7484,
      "disappear": 7485,
      "enhance": 7486,
      "vod": 7487,
      "whenever": 7488,
      "earphones": 7489,
      "breath": 7490,
      "circles": 7491,
      "layer": 7492,
      "ignore": 7493,
      "atmosp": 7494,
      "arrive": 7495,
      "franchise": 7496,
      "lou": 7497,
      "oh": 7498,
      "##kh": 7499,
      "weigh": 7500,
      "meal": 7501,
      "smile": 7502,
      "robert": 7503,
      "swift": 7504,
      "tempor": 7505,
      "gurgaon": 7506,
      "penalty": 7507,
      "diabet": 7508,
      "awesome": 7509,
      "lu": 7510,
      "##cut": 7511,
      "##wr": 7512,
      "##ilty": 7513,
      "adam": 7514,
      "##cket": 7515,
      "blow": 7516,
      "assass": 7517,
      "setup": 7518,
      "quantity": 7519,
      "ibm": 7520,
      "eastern": 7521,
      "television": 7522,
      "frequently": 7523,
      "array": 7524,
      "fantasy": 7525,
      "hedge": 7526,
      "bru": 7527,
      "elim": 7528,
      "fab": 7529,
      "qur": 7530,
      "tu": 7531,
      "##gate": 7532,
      "##bl": 7533,
      "lip": 7534,
      "mahar": 7535,
      "makeup": 7536,
      "evolve": 7537,
      "autism": 7538,
      "extro": 7539,
      "objective": 7540,
      "internships": 7541,
      "ghosts": 7542,
      "cfa": 7543,
      "km": 7544,
      "nig": 7545,
      "zo": 7546,
      "##eline": 7547,
      "##uses": 7548,
      "willing": 7549,
      "visible": 7550,
      "stere": 7551,
      "ecommerce": 7552,
      "torrents": 7553,
      "anonymously": 7554,
      "iraq": 7555,
      "impossible": 7556,
      "gall": 7557,
      "iims": 7558,
      "##net": 7559,
      "##fast": 7560,
      "##va": 7561,
      "##orate": 7562,
      "youth": 7563,
      "##role": 7564,
      "enable": 7565,
      "neural": 7566,
      "visited": 7567,
      "harder": 7568,
      "punish": 7569,
      "machines": 7570,
      "##crimin": 7571,
      "##aneously": 7572,
      "contributions": 7573,
      "seriously": 7574,
      "darth": 7575,
      "chairman": 7576,
      "keywords": 7577,
      "acceleration": 7578,
      "quorans": 7579,
      "illuminati": 7580,
      "vine": 7581,
      "##ature": 7582,
      "toile": 7583,
      "myst": 7584,
      "shah": 7585,
      "usern": 7586,
      "##izations": 7587,
      "##dered": 7588,
      "incor": 7589,
      "traits": 7590,
      "beings": 7591,
      "valu": 7592,
      "metro": 7593,
      "hostel": 7594,
      "arranged": 7595,
      "narcissist": 7596,
      "dinner": 7597,
      "7th": 7598,
      "##pet": 7599,
      "##ei": 7600,
      "##orrow": 7601,
      "##ession": 7602,
      "scores": 7603,
      "##aks": 7604,
      "lee": 7605,
      "discrimin": 7606,
      "description": 7607,
      "curve": 7608,
      "hardware": 7609,
      "window": 7610,
      "landing": 7611,
      "hindus": 7612,
      "conversations": 7613,
      "combat": 7614,
      "arabia": 7615,
      "intellect": 7616,
      "initial": 7617,
      "settings": 7618,
      "pollution": 7619,
      "31": 7620,
      "pad": 7621,
      "sri": 7622,
      "surn": 7623,
      "tie": 7624,
      "tough": 7625,
      "##arin": 7626,
      "stuck": 7627,
      "worried": 7628,
      "classified": 7629,
      "published": 7630,
      "norway": 7631,
      "telugu": 7632,
      "dm": 7633,
      "fans": 7634,
      "hope": 7635,
      "james": 7636,
      "pants": 7637,
      "tap": 7638,
      "##ville": 7639,
      "##stain": 7640,
      "stal": 7641,
      "stone": 7642,
      "##hers": 7643,
      "leaves": 7644,
      "sexually": 7645,
      "parad": 7646,
      "stored": 7647,
      "terrorists": 7648,
      "forgotten": 7649,
      "airline": 7650,
      "unblock": 7651,
      "assembly": 7652,
      "coo": 7653,
      "mine": 7654,
      "sik": 7655,
      "wan": 7656,
      "##nes": 7657,
      "##kan": 7658,
      "ine": 7659,
      "##itative": 7660,
      "##stru": 7661,
      "##osc": 7662,
      "usage": 7663,
      "teams": 7664,
      "bug": 7665,
      "mont": 7666,
      "crash": 7667,
      "digits": 7668,
      "graduates": 7669,
      "civilization": 7670,
      "estab": 7671,
      "versus": 7672,
      "originate": 7673,
      "replaced": 7674,
      "measured": 7675,
      "merch": 7676,
      "layman": 7677,
      "freshman": 7678,
      "dropped": 7679,
      "bleed": 7680,
      "valuable": 7681,
      "51": 7682,
      "60000": 7683,
      "ripp": 7684,
      "##point": 7685,
      "suits": 7686,
      "##quit": 7687,
      "realistic": 7688,
      "typically": 7689,
      "menstru": 7690,
      "iiit": 7691,
      "acquire": 7692,
      "ronaldo": 7693,
      "rif": 7694,
      "sulf": 7695,
      "van": 7696,
      "##lier": 7697,
      "##oub": 7698,
      "bey": 7699,
      "installed": 7700,
      "passing": 7701,
      "singer": 7702,
      "generator": 7703,
      "lots": 7704,
      "petrole": 7705,
      "lyric": 7706,
      "switzer": 7707,
      "cabin": 7708,
      "destroyed": 7709,
      "codes": 7710,
      "nazi": 7711,
      "pleas": 7712,
      "tatkal": 7713,
      "switzerland": 7714,
      "4th": 7715,
      "rating": 7716,
      "##orp": 7717,
      "##asp": 7718,
      "strug": 7719,
      "##teries": 7720,
      "##ishna": 7721,
      "guilty": 7722,
      "introduced": 7723,
      "verification": 7724,
      "collapse": 7725,
      "listening": 7726,
      "sociology": 7727,
      "virginity": 7728,
      "sweet": 7729,
      "jailbreak": 7730,
      "homosexuality": 7731,
      "petroleum": 7732,
      "bba": 7733,
      "dv": 7734,
      "gates": 7735,
      "honda": 7736,
      "##oke": 7737,
      "##isible": 7738,
      "whey": 7739,
      "chips": 7740,
      "##berry": 7741,
      "##ogue": 7742,
      "poison": 7743,
      "relat": 7744,
      "noida": 7745,
      "simult": 7746,
      "increased": 7747,
      "cultures": 7748,
      "paris": 7749,
      "esteem": 7750,
      "spots": 7751,
      "annual": 7752,
      "inflation": 7753,
      "relevant": 7754,
      "flights": 7755,
      "declared": 7756,
      "airbnb": 7757,
      "##ashtra": 7758,
      "defeat": 7759,
      "vader": 7760,
      "auck": 7761,
      "alex": 7762,
      "guns": 7763,
      "lion": 7764,
      "tig": 7765,
      "wage": 7766,
      "##pass": 7767,
      "reve": 7768,
      "fruits": 7769,
      "chicago": 7770,
      "##anted": 7771,
      "plate": 7772,
      "schiz": 7773,
      "healthcare": 7774,
      "animation": 7775,
      "cheaper": 7776,
      "opportunity": 7777,
      "eventually": 7778,
      "principle": 7779,
      "legitimate": 7780,
      "january": 7781,
      "athlet": 7782,
      "auckland": 7783,
      "fired": 7784,
      "ome": 7785,
      "ted": 7786,
      "tun": 7787,
      "tong": 7788,
      "##zen": 7789,
      "##arily": 7790,
      "thous": 7791,
      "##oted": 7792,
      "leon": 7793,
      "memor": 7794,
      "breakfast": 7795,
      "static": 7796,
      "reflect": 7797,
      "discount": 7798,
      "##ospace": 7799,
      "karnat": 7800,
      "21st": 7801,
      "adopt": 7802,
      "felt": 7803,
      "thousand": 7804,
      "36": 7805,
      "bol": 7806,
      "bicy": 7807,
      "##mo": 7808,
      "wasn": 7809,
      "donate": 7810,
      "##emy": 7811,
      "smarter": 7812,
      "improving": 7813,
      "investig": 7814,
      "weekend": 7815,
      "urdu": 7816,
      "links": 7817,
      "vacation": 7818,
      "conditions": 7819,
      "slowly": 7820,
      "georgia": 7821,
      "disabled": 7822,
      "syndrome": 7823,
      "karnataka": 7824,
      "aap": 7825,
      "bite": 7826,
      "f1": 7827,
      "fox": 7828,
      "hidden": 7829,
      "rig": 7830,
      "##eared": 7831,
      "##kg": 7832,
      "##kary": 7833,
      "##ales": 7834,
      "alge": 7835,
      "login": 7836,
      "##uda": 7837,
      "perception": 7838,
      "nobody": 7839,
      "addict": 7840,
      "##monton": 7841,
      "digest": 7842,
      "extent": 7843,
      "edmonton": 7844,
      "quickest": 7845,
      "safest": 7846,
      "optional": 7847,
      "comfortable": 7848,
      "aerospace": 7849,
      "several": 7850,
      "oriented": 7851,
      "algebra": 7852,
      "fer": 7853,
      "##mate": 7854,
      "##stal": 7855,
      "orange": 7856,
      "excess": 7857,
      "leather": 7858,
      "interior": 7859,
      "photograph": 7860,
      "famil": 7861,
      "bowl": 7862,
      "rahul": 7863,
      "ay": 7864,
      "hop": 7865,
      "hip": 7866,
      "mile": 7867,
      "rect": 7868,
      "sab": 7869,
      "##rac": 7870,
      "##kin": 7871,
      "##well": 7872,
      "##athy": 7873,
      "productive": 7874,
      "supporting": 7875,
      "steam": 7876,
      "copper": 7877,
      "presentation": 7878,
      "manipal": 7879,
      "nutr": 7880,
      "satellite": 7881,
      "bipolar": 7882,
      "bb": 7883,
      "eld": 7884,
      "ng": 7885,
      "wholes": 7886,
      "##eness": 7887,
      "reb": 7888,
      "newton": 7889,
      "googling": 7890,
      "camer": 7891,
      "sleepy": 7892,
      "kindle": 7893,
      "artists": 7894,
      "psychiat": 7895,
      "apartment": 7896,
      "resistance": 7897,
      "cotton": 7898,
      "cupcakes": 7899,
      "bon": 7900,
      "##hd": 7901,
      "chap": 7902,
      "asleep": 7903,
      "alt": 7904,
      "expression": 7905,
      "permit": 7906,
      "decisions": 7907,
      "metals": 7908,
      "deeply": 7909,
      "operations": 7910,
      "june": 7911,
      "spiritual": 7912,
      "strangest": 7913,
      "sor": 7914,
      "sed": 7915,
      "sac": 7916,
      "##hu": 7917,
      "##athan": 7918,
      "matrix": 7919,
      "broker": 7920,
      "paul": 7921,
      "##hens": 7922,
      "collide": 7923,
      "##rief": 7924,
      "roles": 7925,
      "registration": 7926,
      "trends": 7927,
      "tomorrow": 7928,
      "hawai": 7929,
      "neutrality": 7930,
      "august": 7931,
      "wipro": 7932,
      "ml": 7933,
      "mun": 7934,
      "ot": 7935,
      "pix": 7936,
      "rav": 7937,
      "sides": 7938,
      "tail": 7939,
      "##ober": 7940,
      "##rants": 7941,
      "##oned": 7942,
      "isro": 7943,
      "##chool": 7944,
      "sustain": 7945,
      "anywhere": 7946,
      "evolved": 7947,
      "skype": 7948,
      "keeping": 7949,
      "param": 7950,
      "##oster": 7951,
      "url": 7952,
      "murder": 7953,
      "october": 7954,
      "beliefs": 7955,
      "gary": 7956,
      "wast": 7957,
      "##mart": 7958,
      "##hent": 7959,
      "##esc": 7960,
      "beg": 7961,
      "##verts": 7962,
      "scars": 7963,
      "pray": 7964,
      "birds": 7965,
      "superpower": 7966,
      "construct": 7967,
      "crimes": 7968,
      "roll": 7969,
      "diabetes": 7970,
      "mtech": 7971,
      "pant": 7972,
      "##lab": 7973,
      "##ras": 7974,
      "##col": 7975,
      "##ros": 7976,
      "spark": 7977,
      "agencies": 7978,
      "caring": 7979,
      "rooms": 7980,
      "regions": 7981,
      "imei": 7982,
      "defense": 7983,
      "cement": 7984,
      "blogging": 7985,
      "puppies": 7986,
      "associate": 7987,
      "escape": 7988,
      "catholic": 7989,
      "diamond": 7990,
      "hump": 7991,
      "##lr": 7992,
      "##ext": 7993,
      "##krit": 7994,
      "##ened": 7995,
      "##aly": 7996,
      "item": 7997,
      "fever": 7998,
      "arms": 7999,
      "persons": 8000,
      "backst": 8001,
      "##aires": 8002,
      "attraction": 8003,
      "bulk": 8004,
      "scenario": 8005,
      "aiims": 8006,
      "mountain": 8007,
      "witness": 8008,
      "gujarat": 8009,
      "false": 8010,
      "compatible": 8011,
      "800": 8012,
      "tro": 8013,
      "##cel": 8014,
      "##how": 8015,
      "##zing": 8016,
      "##wear": 8017,
      "##bur": 8018,
      "##irty": 8019,
      "##igma": 8020,
      "champ": 8021,
      "trig": 8022,
      "trouble": 8023,
      "##ulated": 8024,
      "usps": 8025,
      "thanks": 8026,
      "##odynam": 8027,
      "authent": 8028,
      "diagram": 8029,
      "collaps": 8030,
      "coolest": 8031,
      "environmental": 8032,
      "bleach": 8033,
      "lonel": 8034,
      "sanskrit": 8035,
      "kinetic": 8036,
      "maharashtra": 8037,
      "username": 8038,
      "pip": 8039,
      "##ni": 8040,
      "##hy": 8041,
      "##orter": 8042,
      "fort": 8043,
      "shipping": 8044,
      "complim": 8045,
      "apprec": 8046,
      "guar": 8047,
      "matt": 8048,
      "secular": 8049,
      "insec": 8050,
      "insert": 8051,
      "bread": 8052,
      "membr": 8053,
      "volc": 8054,
      "awk": 8055,
      "sitting": 8056,
      "responsib": 8057,
      "victory": 8058,
      "wisdom": 8059,
      "tutorials": 8060,
      "cogniz": 8061,
      "lectures": 8062,
      "toefl": 8063,
      "simultaneously": 8064,
      "crop": 8065,
      "##tic": 8066,
      "inch": 8067,
      "##opl": 8068,
      "asp": 8069,
      "arbit": 8070,
      "calend": 8071,
      "passive": 8072,
      "throw": 8073,
      "remote": 8074,
      "##isexual": 8075,
      "ending": 8076,
      "swiss": 8077,
      "equations": 8078,
      "communist": 8079,
      "foundation": 8080,
      "raising": 8081,
      "talks": 8082,
      "structural": 8083,
      "entertain": 8084,
      "dye": 8085,
      "60k": 8086,
      "violence": 8087,
      "assistance": 8088,
      "robotics": 8089,
      "astronauts": 8090,
      "tummy": 8091,
      "screensh": 8092,
      "sibling": 8093,
      "mystery": 8094,
      "reveal": 8095,
      "authentic": 8096,
      "bp": 8097,
      "##een": 8098,
      "##aud": 8099,
      "##rogen": 8100,
      "##under": 8101,
      "povert": 8102,
      "typing": 8103,
      "admissions": 8104,
      "##haar": 8105,
      "replacement": 8106,
      "odd": 8107,
      "freelance": 8108,
      "creep": 8109,
      "mosquit": 8110,
      "interpret": 8111,
      "krishna": 8112,
      "poverty": 8113,
      "biting": 8114,
      "nap": 8115,
      "wet": 8116,
      "thor": 8117,
      "##utation": 8118,
      "##actions": 8119,
      "transmission": 8120,
      "propose": 8121,
      "extreme": 8122,
      "putting": 8123,
      "25000": 8124,
      "fluid": 8125,
      "richard": 8126,
      "premier": 8127,
      "swimming": 8128,
      "leonard": 8129,
      "bah": 8130,
      "fb": 8131,
      "july": 8132,
      "pac": 8133,
      "pir": 8134,
      "##obile": 8135,
      "##wh": 8136,
      "whis": 8137,
      "inject": 8138,
      "perce": 8139,
      "guard": 8140,
      "stops": 8141,
      "attemp": 8142,
      "mining": 8143,
      "filled": 8144,
      "10000": 8145,
      "50k": 8146,
      "turk": 8147,
      "automatic": 8148,
      "motorcy": 8149,
      "voted": 8150,
      "bisexual": 8151,
      "naked": 8152,
      "pig": 8153,
      "sear": 8154,
      "stable": 8155,
      "##ecraft": 8156,
      "##imal": 8157,
      "atl": 8158,
      "plug": 8159,
      "phy": 8160,
      "context": 8161,
      "foreigner": 8162,
      "recruitment": 8163,
      "puzz": 8164,
      "retirement": 8165,
      "cognizant": 8166,
      "osc": 8167,
      "thail": 8168,
      "beam": 8169,
      "##otyp": 8170,
      "lived": 8171,
      "##inee": 8172,
      "interst": 8173,
      "colum": 8174,
      "pok": 8175,
      "desire": 8176,
      "sheet": 8177,
      "bihar": 8178,
      "default": 8179,
      "drinks": 8180,
      "circul": 8181,
      "communicate": 8182,
      "protest": 8183,
      "album": 8184,
      "bicycle": 8185,
      "cameras": 8186,
      "thailand": 8187,
      "cpt": 8188,
      "ros": 8189,
      "uc": 8190,
      "vap": 8191,
      "##oor": 8192,
      "##orced": 8193,
      "shave": 8194,
      "shipp": 8195,
      "shirts": 8196,
      "nex": 8197,
      "mary": 8198,
      "joint": 8199,
      "2011": 8200,
      "strange": 8201,
      "drone": 8202,
      "commonly": 8203,
      "privacy": 8204,
      "chrom": 8205,
      "democrats": 8206,
      "consumer": 8207,
      "scraping": 8208,
      "dynamic": 8209,
      "deactivate": 8210,
      "fundamental": 8211,
      "beyond": 8212,
      "s7": 8213,
      "##ener": 8214,
      "##adic": 8215,
      "perspective": 8216,
      "##ictional": 8217,
      "presidents": 8218,
      "messi": 8219,
      "telling": 8220,
      "##place": 8221,
      "armed": 8222,
      "automobile": 8223,
      "teenagers": 8224,
      "possibly": 8225,
      "cpu": 8226,
      "molecular": 8227,
      "suffer": 8228,
      "tongue": 8229,
      "bhar": 8230,
      "cute": 8231,
      "ipl": 8232,
      "pair": 8233,
      "ud": 8234,
      "upper": 8235,
      "##gl": 8236,
      "##gi": 8237,
      "##down": 8238,
      "quota": 8239,
      "coca": 8240,
      "196": 8241,
      "award": 8242,
      "convictions": 8243,
      "cleaning": 8244,
      "seattle": 8245,
      "tourism": 8246,
      "brahmins": 8247,
      "mysql": 8248,
      "affiliate": 8249,
      "surname": 8250,
      "loneliness": 8251,
      "ken": 8252,
      "ov": 8253,
      "ow": 8254,
      "##ril": 8255,
      "##chest": 8256,
      "##fs": 8257,
      "##icul": 8258,
      "##rog": 8259,
      "shap": 8260,
      "mock": 8261,
      "comics": 8262,
      "asus": 8263,
      "closed": 8264,
      "margin": 8265,
      "allows": 8266,
      "synt": 8267,
      "accountant": 8268,
      "genre": 8269,
      "airt": 8270,
      "drunk": 8271,
      "controlled": 8272,
      "urban": 8273,
      "verbal": 8274,
      "farm": 8275,
      "achie": 8276,
      "closer": 8277,
      "agriculture": 8278,
      "paranormal": 8279,
      "bacteria": 8280,
      "75": 8281,
      "bala": 8282,
      "gta": 8283,
      "pand": 8284,
      "slim": 8285,
      "tumb": 8286,
      "##ku": 8287,
      "##bar": 8288,
      "##opal": 8289,
      "atoms": 8290,
      "abusive": 8291,
      "anyway": 8292,
      "scorp": 8293,
      "allah": 8294,
      "pricing": 8295,
      "console": 8296,
      "overd": 8297,
      "electrom": 8298,
      "acceptable": 8299,
      "competition": 8300,
      "variable": 8301,
      "liberals": 8302,
      "scheme": 8303,
      "suffering": 8304,
      "ionic": 8305,
      "fifa": 8306,
      "elder": 8307,
      "awkward": 8308,
      "5000": 8309,
      "dur": 8310,
      "dang": 8311,
      "ips": 8312,
      "##tu": 8313,
      "proceed": 8314,
      "worship": 8315,
      "intu": 8316,
      "addicted": 8317,
      "detail": 8318,
      "reasonable": 8319,
      "functional": 8320,
      "activate": 8321,
      "hyper": 8322,
      "bottle": 8323,
      "records": 8324,
      "##oosing": 8325,
      "wealthy": 8326,
      "luxury": 8327,
      "northern": 8328,
      "arkansas": 8329,
      "##writing": 8330,
      "vinegar": 8331,
      "cube": 8332,
      "##11": 8333,
      "##atar": 8334,
      "##arts": 8335,
      "marsh": 8336,
      "poems": 8337,
      "##enses": 8338,
      "hackers": 8339,
      "prophet": 8340,
      "hoax": 8341,
      "minds": 8342,
      "##plant": 8343,
      "respir": 8344,
      "critical": 8345,
      "influen": 8346,
      "dimensions": 8347,
      "##install": 8348,
      "sights": 8349,
      "consciousness": 8350,
      "toilet": 8351,
      "kann": 8352,
      "lg": 8353,
      "##yan": 8354,
      "##flow": 8355,
      "##just": 8356,
      "##health": 8357,
      "##ining": 8358,
      "stret": 8359,
      "asians": 8360,
      "allo": 8361,
      "loving": 8362,
      "bridge": 8363,
      "bush": 8364,
      "attitude": 8365,
      "verify": 8366,
      "eradic": 8367,
      "trees": 8368,
      "mexican": 8369,
      "protection": 8370,
      "sharma": 8371,
      "balaji": 8372,
      "cel": 8373,
      "jul": 8374,
      "rome": 8375,
      "somewhere": 8376,
      "enlight": 8377,
      "engage": 8378,
      "relate": 8379,
      "emerg": 8380,
      "matlab": 8381,
      "genetic": 8382,
      "##plus": 8383,
      "analog": 8384,
      "anthem": 8385,
      "practices": 8386,
      "250": 8387,
      "ahmed": 8388,
      "humping": 8389,
      "tumblr": 8390,
      "bound": 8391,
      "row": 8392,
      "tack": 8393,
      "##fall": 8394,
      "##iner": 8395,
      "##inav": 8396,
      "reform": 8397,
      "shooting": 8398,
      "chron": 8399,
      "trail": 8400,
      "managers": 8401,
      "columb": 8402,
      "invade": 8403,
      "lazy": 8404,
      "governments": 8405,
      "##iences": 8406,
      "operation": 8407,
      "homes": 8408,
      "platforms": 8409,
      "angeles": 8410,
      "mentioned": 8411,
      "aadhaar": 8412,
      "calendar": 8413,
      "gang": 8414,
      "om": 8415,
      "pod": 8416,
      "##chen": 8417,
      "##ato": 8418,
      "##ena": 8419,
      "however": 8420,
      "##station": 8421,
      "##ila": 8422,
      "actions": 8423,
      "aggre": 8424,
      "warm": 8425,
      "reader": 8426,
      "throughout": 8427,
      "filip": 8428,
      "lightning": 8429,
      "raised": 8430,
      "superior": 8431,
      "volunt": 8432,
      "##ograp": 8433,
      "dubbed": 8434,
      "victor": 8435,
      "##archy": 8436,
      "scandinav": 8437,
      "fabric": 8438,
      "30000": 8439,
      "360": 8440,
      "fert": 8441,
      "ia": 8442,
      "poo": 8443,
      "##iency": 8444,
      "##urt": 8445,
      "amd": 8446,
      "lean": 8447,
      "prepared": 8448,
      "designers": 8449,
      "equip": 8450,
      "smaller": 8451,
      "holmes": 8452,
      "teenage": 8453,
      "rental": 8454,
      "vitamin": 8455,
      "hawaii": 8456,
      "tower": 8457,
      "##time": 8458,
      "##hs": 8459,
      "##etry": 8460,
      "##aska": 8461,
      "##rote": 8462,
      "chos": 8463,
      "jose": 8464,
      "##izer": 8465,
      "centers": 8466,
      "psu": 8467,
      "assign": 8468,
      "##ancing": 8469,
      "volte": 8470,
      "immort": 8471,
      "epic": 8472,
      "ww1": 8473,
      "hypot": 8474,
      "util": 8475,
      "##uki": 8476,
      "frozen": 8477,
      "discontinuing": 8478,
      "atmosphere": 8479,
      "louis": 8480,
      "collapsed": 8481,
      "bin": 8482,
      "utt": 8483,
      "##wide": 8484,
      "##bb": 8485,
      "##arh": 8486,
      "ens": 8487,
      "notifications": 8488,
      "##ellar": 8489,
      "brought": 8490,
      "deserve": 8491,
      "vegan": 8492,
      "biological": 8493,
      "greece": 8494,
      "smartest": 8495,
      "triv": 8496,
      "mixt": 8497,
      "stephen": 8498,
      "situations": 8499,
      "bringing": 8500,
      "##wanathan": 8501,
      "backstory": 8502,
      "chosen": 8503,
      "49": 8504,
      "fictional": 8505,
      "gith": 8506,
      "##itis": 8507,
      "sty": 8508,
      "##weight": 8509,
      "ears": 8510,
      "watches": 8511,
      "bob": 8512,
      "warrant": 8513,
      "##ucker": 8514,
      "communications": 8515,
      "##engers": 8516,
      "verizon": 8517,
      "horse": 8518,
      "radiation": 8519,
      "ego": 8520,
      "bhopal": 8521,
      "merge": 8522,
      "##backs": 8523,
      "hike": 8524,
      "kitchen": 8525,
      "##bourne": 8526,
      "github": 8527,
      "dra": 8528,
      "eagle": 8529,
      "lum": 8530,
      "moo": 8531,
      "ton": 8532,
      "sore": 8533,
      "abst": 8534,
      "coval": 8535,
      "personally": 8536,
      "guest": 8537,
      "everybody": 8538,
      "forex": 8539,
      "##anka": 8540,
      "walmart": 8541,
      "impacts": 8542,
      "burning": 8543,
      "lifetime": 8544,
      "tribe": 8545,
      "deriv": 8546,
      "bm": 8547,
      "erect": 8548,
      "kim": 8549,
      "mes": 8550,
      "rated": 8551,
      "tip": 8552,
      "wwe": 8553,
      "induction": 8554,
      "units": 8555,
      "beta": 8556,
      "sole": 8557,
      "seven": 8558,
      "##ander": 8559,
      "thinks": 8560,
      "##echat": 8561,
      "##ogen": 8562,
      "overl": 8563,
      "singing": 8564,
      "##ugal": 8565,
      "treaty": 8566,
      "smoked": 8567,
      "launched": 8568,
      "immigrants": 8569,
      "melbourne": 8570,
      "manga": 8571,
      "##ometry": 8572,
      "quran": 8573,
      "ahmedabad": 8574,
      "berm": 8575,
      "bark": 8576,
      "gel": 8577,
      "kat": 8578,
      "vish": 8579,
      "wrote": 8580,
      "##gu": 8581,
      "##inea": 8582,
      "newly": 8583,
      "##abama": 8584,
      "invad": 8585,
      "##oca": 8586,
      "batteries": 8587,
      "cere": 8588,
      "packages": 8589,
      "clearing": 8590,
      "opinions": 8591,
      "efficiency": 8592,
      "bands": 8593,
      "alpha": 8594,
      "principles": 8595,
      "arrested": 8596,
      "##odynamics": 8597,
      "airtel": 8598,
      "bermuda": 8599,
      "95": 8600,
      "brief": 8601,
      "horn": 8602,
      "jaw": 8603,
      "mood": 8604,
      "pets": 8605,
      "vr": 8606,
      "tomat": 8607,
      "##char": 8608,
      "##chron": 8609,
      "##ears": 8610,
      "frank": 8611,
      "deaf": 8612,
      "##though": 8613,
      "although": 8614,
      "unhealth": 8615,
      "##orable": 8616,
      "guinea": 8617,
      "curs": 8618,
      "thrill": 8619,
      "##hib": 8620,
      "signals": 8621,
      "temper": 8622,
      "aws": 8623,
      "preferred": 8624,
      "boredom": 8625,
      "unfair": 8626,
      "transformer": 8627,
      "extrovert": 8628,
      "wholesale": 8629,
      "electromagn": 8630,
      "fuck": 8631,
      "pint": 8632,
      "rural": 8633,
      "sel": 8634,
      "##enn": 8635,
      "shad": 8636,
      "orth": 8637,
      "coach": 8638,
      "##raham": 8639,
      "delta": 8640,
      "staying": 8641,
      "ipcc": 8642,
      "leading": 8643,
      "mentor": 8644,
      "bedroom": 8645,
      "icse": 8646,
      "neutral": 8647,
      "collection": 8648,
      "martin": 8649,
      "premium": 8650,
      "politicians": 8651,
      "foam": 8652,
      "covalent": 8653,
      "md": 8654,
      "nerv": 8655,
      "##mt": 8656,
      "##house": 8657,
      "##requ": 8658,
      "forced": 8659,
      "stark": 8660,
      "itch": 8661,
      "##otype": 8662,
      "prelim": 8663,
      "earphone": 8664,
      "sauce": 8665,
      "worldwide": 8666,
      "laugh": 8667,
      "ended": 8668,
      "edition": 8669,
      "bird": 8670,
      "quantitative": 8671,
      "qualified": 8672,
      "pilani": 8673,
      "sadd": 8674,
      "chartered": 8675,
      "vlsi": 8676,
      "weaknesses": 8677,
      "southern": 8678,
      "hypothet": 8679,
      "unhealthy": 8680,
      "00": 8681,
      "350": 8682,
      "aid": 8683,
      "cad": 8684,
      "dys": 8685,
      "fasc": 8686,
      "htc": 8687,
      "hunt": 8688,
      "hdf": 8689,
      "ji": 8690,
      "mm": 8691,
      "ped": 8692,
      "pork": 8693,
      "ved": 8694,
      "yo": 8695,
      "##uble": 8696,
      "##writ": 8697,
      "islands": 8698,
      "##lements": 8699,
      "##oses": 8700,
      "unemp": 8701,
      "plu": 8702,
      "arrow": 8703,
      "##ounced": 8704,
      "noise": 8705,
      "solved": 8706,
      "##fully": 8707,
      "moved": 8708,
      "evening": 8709,
      "pierc": 8710,
      "russians": 8711,
      "evolutionary": 8712,
      "mandarin": 8713,
      "lucid": 8714,
      "inspired": 8715,
      "david": 8716,
      "renewable": 8717,
      "relativity": 8718,
      "unemploy": 8719,
      "##wise": 8720,
      "##eroid": 8721,
      "##icious": 8722,
      "alabama": 8723,
      "compre": 8724,
      "manhatt": 8725,
      "##izes": 8726,
      "employment": 8727,
      "runs": 8728,
      "causing": 8729,
      "calculator": 8730,
      "opposed": 8731,
      "introduction": 8732,
      "offering": 8733,
      "committed": 8734,
      "appears": 8735,
      "icici": 8736,
      "hamsters": 8737,
      "route": 8738,
      "sample": 8739,
      "comparison": 8740,
      "freelancing": 8741,
      "admitted": 8742,
      "dvd": 8743,
      "hen": 8744,
      "ky": 8745,
      "loud": 8746,
      "verm": 8747,
      "zucker": 8748,
      "##igarh": 8749,
      "##ima": 8750,
      "chase": 8751,
      "##bled": 8752,
      "##unction": 8753,
      "##rence": 8754,
      "spider": 8755,
      "20s": 8756,
      "##ourse": 8757,
      "contains": 8758,
      "releasing": 8759,
      "ignor": 8760,
      "regularly": 8761,
      "risks": 8762,
      "recognize": 8763,
      "1990": 8764,
      "freelancer": 8765,
      "drama": 8766,
      "newspaper": 8767,
      "aluminum": 8768,
      "bid": 8769,
      "cough": 8770,
      "cured": 8771,
      "lac": 8772,
      "si": 8773,
      "santa": 8774,
      "##ties": 8775,
      "##mail": 8776,
      "##estyle": 8777,
      "stol": 8778,
      "##ira": 8779,
      "##itha": 8780,
      "compens": 8781,
      "serial": 8782,
      "brush": 8783,
      "polic": 8784,
      "bodies": 8785,
      "skip": 8786,
      "remot": 8787,
      "clearly": 8788,
      "condom": 8789,
      "combination": 8790,
      "miscon": 8791,
      "upset": 8792,
      "acquis": 8793,
      "tattoos": 8794,
      "wildlife": 8795,
      "broadband": 8796,
      "neighbor": 8797,
      "mongol": 8798,
      "intellectual": 8799,
      "abstract": 8800,
      "nervous": 8801,
      "2x": 8802,
      "cer": 8803,
      "dum": 8804,
      "ket": 8805,
      "lunch": 8806,
      "mnc": 8807,
      "rails": 8808,
      "wolf": 8809,
      "##rain": 8810,
      "##rors": 8811,
      "##alam": 8812,
      "##ils": 8813,
      "##amine": 8814,
      "##eces": 8815,
      "fraud": 8816,
      "##isters": 8817,
      "##osph": 8818,
      "complic": 8819,
      "coal": 8820,
      "bugs": 8821,
      "contest": 8822,
      "bright": 8823,
      "transition": 8824,
      "providing": 8825,
      "cellular": 8826,
      "demonetizing": 8827,
      "turns": 8828,
      "colorado": 8829,
      "koh": 8830,
      "wanna": 8831,
      "emergency": 8832,
      "uttar": 8833,
      "manhattan": 8834,
      "stolen": 8835,
      "policies": 8836,
      "hul": 8837,
      "lingu": 8838,
      "mg": 8839,
      "nan": 8840,
      "wel": 8841,
      "##tte": 8842,
      "##link": 8843,
      "##vent": 8844,
      "##200": 8845,
      "##una": 8846,
      "##aki": 8847,
      "agents": 8848,
      "shell": 8849,
      "reducing": 8850,
      "miles": 8851,
      "198": 8852,
      "massive": 8853,
      "steal": 8854,
      "shared": 8855,
      "##rator": 8856,
      "nucleus": 8857,
      "##hetic": 8858,
      "pilots": 8859,
      "sensitive": 8860,
      "adopted": 8861,
      "worrying": 8862,
      "bengaluru": 8863,
      "abolishing": 8864,
      "williams": 8865,
      "assuming": 8866,
      "turkish": 8867,
      "interstellar": 8868,
      "remotely": 8869,
      "dirty": 8870,
      "vc": 8871,
      "wechat": 8872,
      "##tles": 8873,
      "##ios": 8874,
      "##inating": 8875,
      "inner": 8876,
      "##alal": 8877,
      "onto": 8878,
      "##iser": 8879,
      "usd": 8880,
      "marine": 8881,
      "2019": 8882,
      "upgrad": 8883,
      "underwear": 8884,
      "prepaid": 8885,
      "rema": 8886,
      "eaten": 8887,
      "parli": 8888,
      "gaining": 8889,
      "certified": 8890,
      "peter": 8891,
      "performing": 8892,
      "radius": 8893,
      "holoca": 8894,
      "hurting": 8895,
      "labor": 8896,
      "##ferences": 8897,
      "claims": 8898,
      "behavi": 8899,
      "strengths": 8900,
      "holocaust": 8901,
      "cous": 8902,
      "era": 8903,
      "##tan": 8904,
      "##met": 8905,
      "lips": 8906,
      "seal": 8907,
      "##orders": 8908,
      "flour": 8909,
      "attach": 8910,
      "transplant": 8911,
      "highways": 8912,
      "##ika": 8913,
      "privile": 8914,
      "reasoning": 8915,
      "greenlit": 8916,
      "torque": 8917,
      "forgive": 8918,
      "hypn": 8919,
      "absor": 8920,
      "curbing": 8921,
      "mythology": 8922,
      "bottom": 8923,
      "compliment": 8924,
      "creepiest": 8925,
      "zuckerberg": 8926,
      "parliament": 8927,
      "bare": 8928,
      "bother": 8929,
      "lag": 8930,
      "molar": 8931,
      "pte": 8932,
      "ri": 8933,
      "sas": 8934,
      "tens": 8935,
      "yrs": 8936,
      "##moon": 8937,
      "##enance": 8938,
      "forb": 8939,
      "soil": 8940,
      "sufficient": 8941,
      "sciences": 8942,
      "nether": 8943,
      "softwares": 8944,
      "modif": 8945,
      "opened": 8946,
      "removing": 8947,
      "educated": 8948,
      "edward": 8949,
      "totally": 8950,
      "nitrogen": 8951,
      "immigrate": 8952,
      "ssb": 8953,
      "germ": 8954,
      "tact": 8955,
      "uae": 8956,
      "wide": 8957,
      "##iar": 8958,
      "##viet": 8959,
      "beef": 8960,
      "stem": 8961,
      "##elly": 8962,
      "shamp": 8963,
      "##agar": 8964,
      "##imately": 8965,
      "soviet": 8966,
      "sue": 8967,
      "##ango": 8968,
      "creation": 8969,
      "badly": 8970,
      "surf": 8971,
      "penet": 8972,
      "headphone": 8973,
      "reactions": 8974,
      "competitors": 8975,
      "##ophren": 8976,
      "qualifications": 8977,
      "balls": 8978,
      "destination": 8979,
      "knight": 8980,
      "chandigarh": 8981,
      "confirmed": 8982,
      "dedu": 8983,
      "palestine": 8984,
      "configuration": 8985,
      "bruce": 8986,
      "punishment": 8987,
      "schizophren": 8988,
      "guarant": 8989,
      "ensure": 8990,
      "pf": 8991,
      "rag": 8992,
      "vom": 8993,
      "##ris": 8994,
      "##bucks": 8995,
      "##omed": 8996,
      "##etics": 8997,
      "##dible": 8998,
      "severe": 8999,
      "carol": 9000,
      "solo": 9001,
      "salman": 9002,
      "regul": 9003,
      "secondary": 9004,
      "verb": 9005,
      "bully": 9006,
      "trek": 9007,
      "ancest": 9008,
      "magnet": 9009,
      "vegetables": 9010,
      "damaged": 9011,
      "maintenance": 9012,
      "astrologer": 9013,
      "hangout": 9014,
      "honeymoon": 9015,
      "captaincy": 9016,
      "laserjet": 9017,
      "marathi": 9018,
      "houses": 9019,
      "eliminate": 9020,
      "screenshot": 9021,
      "nexus": 9022,
      "bones": 9023,
      "bars": 9024,
      "draft": 9025,
      "gross": 9026,
      "nd": 9027,
      "vive": 9028,
      "vold": 9029,
      "##tv": 9030,
      "##erior": 9031,
      "##arn": 9032,
      "comic": 9033,
      "trace": 9034,
      "suz": 9035,
      "phosph": 9036,
      "incest": 9037,
      "avg": 9038,
      "singular": 9039,
      "photograp": 9040,
      "affects": 9041,
      "hybr": 9042,
      "division": 9043,
      "invention": 9044,
      "buddhism": 9045,
      "stereotyp": 9046,
      "cia": 9047,
      "dict": 9048,
      "tiny": 9049,
      "##ilder": 9050,
      "##asion": 9051,
      "truck": 9052,
      "##mph": 9053,
      "coin": 9054,
      "explo": 9055,
      "gran": 9056,
      "##orship": 9057,
      "correl": 9058,
      "supports": 9059,
      "snake": 9060,
      "retain": 9061,
      "graduating": 9062,
      "refuge": 9063,
      "larger": 9064,
      "holder": 9065,
      "council": 9066,
      "pitch": 9067,
      "thermodynamics": 9068,
      "families": 9069,
      "bald": 9070,
      "hun": 9071,
      "ku": 9072,
      "##cend": 9073,
      "##roke": 9074,
      "##ects": 9075,
      "clubs": 9076,
      "interc": 9077,
      "outl": 9078,
      "medal": 9079,
      "throwing": 9080,
      "supplements": 9081,
      "increases": 9082,
      "animated": 9083,
      "jeans": 9084,
      "standing": 9085,
      "versions": 9086,
      "escort": 9087,
      "residential": 9088,
      "breasts": 9089,
      "mp3": 9090,
      "satisfied": 9091,
      "sorry": 9092,
      "equipment": 9093,
      "hdfc": 9094,
      "voldem": 9095,
      "hired": 9096,
      "##ghan": 9097,
      "##itte": 9098,
      "betting": 9099,
      "##ours": 9100,
      "differentiate": 9101,
      "belt": 9102,
      "matches": 9103,
      "forest": 9104,
      "explore": 9105,
      "strongly": 9106,
      "replacing": 9107,
      "motivational": 9108,
      "adults": 9109,
      "##inois": 9110,
      "roller": 9111,
      "implemented": 9112,
      "thermal": 9113,
      "refrigerator": 9114,
      "hungry": 9115,
      "voldemort": 9116,
      "i3": 9117,
      "lick": 9118,
      "ner": 9119,
      "nurs": 9120,
      "##pad": 9121,
      "##pop": 9122,
      "##ront": 9123,
      "##field": 9124,
      "##gon": 9125,
      "##25": 9126,
      "##rew": 9127,
      "##anic": 9128,
      "##opter": 9129,
      "friday": 9130,
      "##istically": 9131,
      "soap": 9132,
      "afghan": 9133,
      "cocon": 9134,
      "outcome": 9135,
      "smooth": 9136,
      "emo": 9137,
      "differential": 9138,
      "payments": 9139,
      "##hio": 9140,
      "providers": 9141,
      "memories": 9142,
      "communism": 9143,
      "irrit": 9144,
      "slight": 9145,
      "lottery": 9146,
      "receiving": 9147,
      "milky": 9148,
      "perfectly": 9149,
      "consumption": 9150,
      "dimension": 9151,
      "upvoted": 9152,
      "sync": 9153,
      "capacitor": 9154,
      "telesc": 9155,
      "neurosc": 9156,
      "circumst": 9157,
      "clusters": 9158,
      "memorize": 9159,
      "remainder": 9160,
      "netherlands": 9161,
      "coconut": 9162,
      "48": 9163,
      "aqu": 9164,
      "ft": 9165,
      "jr": 9166,
      "rough": 9167,
      "alaska": 9168,
      "semi": 9169,
      "numer": 9170,
      "motors": 9171,
      "socially": 9172,
      "distr": 9173,
      "##cules": 9174,
      "nato": 9175,
      "conversion": 9176,
      "israeli": 9177,
      "feedback": 9178,
      "inspiring": 9179,
      "kidney": 9180,
      "jayalal": 9181,
      "vivekan": 9182,
      "9th": 9183,
      "dx": 9184,
      "zomb": 9185,
      "##oices": 9186,
      "##eer": 9187,
      "##aism": 9188,
      "##aya": 9189,
      "proxy": 9190,
      "workers": 9191,
      "lemon": 9192,
      "blank": 9193,
      "poland": 9194,
      "##ologically": 9195,
      "meaningful": 9196,
      "assets": 9197,
      "defined": 9198,
      "verified": 9199,
      "integration": 9200,
      "judaism": 9201,
      "sweat": 9202,
      "unfollow": 9203,
      "journalism": 9204,
      "cigarette": 9205,
      "alphab": 9206,
      "comprehens": 9207,
      "bc": 9208,
      "kgs": 9209,
      "kik": 9210,
      "kali": 9211,
      "ohio": 9212,
      "toug": 9213,
      "##iel": 9214,
      "forum": 9215,
      "##isher": 9216,
      "shr": 9217,
      "mob": 9218,
      "deals": 9219,
      "unc": 9220,
      "20k": 9221,
      "calc": 9222,
      "##iana": 9223,
      "swami": 9224,
      "joined": 9225,
      "##worth": 9226,
      "lifestyle": 9227,
      "therapy": 9228,
      "seeds": 9229,
      "confirm": 9230,
      "subscribers": 9231,
      "cinema": 9232,
      "arbitration": 9233,
      "suzuki": 9234,
      "33": 9235,
      "dates": 9236,
      "gig": 9237,
      "hers": 9238,
      "nvid": 9239,
      "sf": 9240,
      "##erest": 9241,
      "##bow": 9242,
      "##urved": 9243,
      "overse": 9244,
      "justify": 9245,
      "justified": 9246,
      "profiles": 9247,
      "minecraft": 9248,
      "surve": 9249,
      "extension": 9250,
      "fallen": 9251,
      "operate": 9252,
      "updated": 9253,
      "secretary": 9254,
      "ethics": 9255,
      "crystal": 9256,
      "palm": 9257,
      "encour": 9258,
      "malayalam": 9259,
      "wishes": 9260,
      "rifle": 9261,
      "membrane": 9262,
      "leonardo": 9263,
      "vivekananda": 9264,
      "bump": 9265,
      "gf": 9266,
      "mate": 9267,
      "mouse": 9268,
      "slo": 9269,
      "sets": 9270,
      "##jit": 9271,
      "anch": 9272,
      "shorter": 9273,
      "##uden": 9274,
      "syrian": 9275,
      "sket": 9276,
      "playstation": 9277,
      "transit": 9278,
      "drain": 9279,
      "extinct": 9280,
      "##ographic": 9281,
      "females": 9282,
      "husky": 9283,
      "illinois": 9284,
      "boobs": 9285,
      "crying": 9286,
      "encry": 9287,
      "bombay": 9288,
      "##natural": 9289,
      "dental": 9290,
      "b2b": 9291,
      "evaluate": 9292,
      "nigeria": 9293,
      "cooper": 9294,
      "shippuden": 9295,
      "podcast": 9296,
      "scandinavian": 9297,
      "jayalalitha": 9298,
      "nvidia": 9299,
      "220": 9300,
      "bos": 9301,
      "fought": 9302,
      "va": 9303,
      "##kia": 9304,
      "choosing": 9305,
      "dele": 9306,
      "uncon": 9307,
      "##anges": 9308,
      "polym": 9309,
      "boiling": 9310,
      "emer": 9311,
      "attached": 9312,
      "soluble": 9313,
      "reputation": 9314,
      "cours": 9315,
      "apoc": 9316,
      "blocks": 9317,
      "starbucks": 9318,
      "waist": 9319,
      "negot": 9320,
      "portal": 9321,
      "awak": 9322,
      "challenge": 9323,
      "scholarships": 9324,
      "feminism": 9325,
      "jersey": 9326,
      "##build": 9327,
      "vodka": 9328,
      "menstrual": 9329,
      "insecure": 9330,
      "physi": 9331,
      "6th": 9332,
      "ara": 9333,
      "fle": 9334,
      "iot": 9335,
      "lis": 9336,
      "##iates": 9337,
      "##code": 9338,
      "##cule": 9339,
      "ink": 9340,
      "##oration": 9341,
      "##olving": 9342,
      "##very": 9343,
      "##riers": 9344,
      "earlier": 9345,
      "themes": 9346,
      "transactions": 9347,
      "generated": 9348,
      "mechanism": 9349,
      "hearing": 9350,
      "weekends": 9351,
      "cyl": 9352,
      "ipo": 9353,
      "introverts": 9354,
      "refuse": 9355,
      "qualify": 9356,
      "couns": 9357,
      "sharp": 9358,
      "locked": 9359,
      "rotate": 9360,
      "discovery": 9361,
      "casual": 9362,
      "instantly": 9363,
      "professionals": 9364,
      "prostitution": 9365,
      "paradox": 9366,
      "##karyotic": 9367,
      "##osterone": 9368,
      "coursera": 9369,
      "aa": 9370,
      "cet": 9371,
      "cav": 9372,
      "dup": 9373,
      "oc": 9374,
      "##rid": 9375,
      "##iant": 9376,
      "inj": 9377,
      "##oust": 9378,
      "##alid": 9379,
      "##eland": 9380,
      "##idel": 9381,
      "##diac": 9382,
      "peoples": 9383,
      "reserve": 9384,
      "overnight": 9385,
      "nokia": 9386,
      "boston": 9387,
      "bell": 9388,
      "##ocent": 9389,
      "drag": 9390,
      "downloaded": 9391,
      "metall": 9392,
      "antar": 9393,
      "slab": 9394,
      "rocket": 9395,
      "integrated": 9396,
      "recorded": 9397,
      "cpec": 9398,
      "texting": 9399,
      "eligibility": 9400,
      "##rayed": 9401,
      "denominations": 9402,
      "kapil": 9403,
      "theoretical": 9404,
      "folder": 9405,
      "ayurved": 9406,
      "outlook": 9407,
      "doub": 9408,
      "lte": 9409,
      "zen": 9410,
      "##ailed": 9411,
      "toy": 9412,
      "ford": 9413,
      "asper": 9414,
      "loans": 9415,
      "ardu": 9416,
      "contro": 9417,
      "aggress": 9418,
      "caffe": 9419,
      "testosterone": 9420,
      "interests": 9421,
      "technique": 9422,
      "##hesis": 9423,
      "entrop": 9424,
      "suggested": 9425,
      "argent": 9426,
      "proteins": 9427,
      "innovation": 9428,
      "synchron": 9429,
      "conditioner": 9430,
      "narcissistic": 9431,
      "therapist": 9432,
      "shampoo": 9433,
      "afghanistan": 9434,
      "bass": 9435,
      "ee": 9436,
      "flex": 9437,
[...]
