[PAD]
[UNK]
[CLS]
[SEP]
[MASK]
!
"
#
$
%
&
'
(
)
*
+
,
-
.
/
0
1
2
3
4
5
6
7
8
9
:
;
<
=
>
?
@
[
\
]
^
_
`
a
b
c
d
e
f
g
h
i
j
k
l
m
n
o
p
q
r
s
t
u
v
w
x
y
z
{
|
}
~
¢
£
¤
¥
§
¨
©
«
®
°
±
²
³
´
µ
·
¹
º
»
¼
½
¾
¿
×
æ
ð
÷
ø
ı
ł
ŋ
œ
ŧ
ƒ
ƕ
ƫ
ɐ
ɖ
ə
ɜ
ɡ
ɪ
ɮ
ɽ
ʉ
ʊ
ʌ
ʛ
ʻ
ʾ
ː
α
β
γ
δ
ε
η
θ
ι
κ
λ
μ
ν
ο
π
ρ
ς
σ
τ
φ
χ
ψ
ω
ϟ
а
б
в
г
д
е
ж
з
и
к
л
н
о
п
р
с
т
у
ф
х
ц
ч
щ
ы
ь
ю
я
ҿ
א
ב
ד
ה
ו
י
כ
ם
מ
נ
ס
פ
ק
ר
ש
ת
؟
ا
ب
ة
ت
ث
ج
ح
خ
د
ذ
ر
ز
س
ش
ص
ض
ظ
ع
غ
ف
ق
ك
ل
م
ن
ه
و
ى
ي
ک
ی
ः
अ
आ
इ
ई
उ
ऊ
ऋ
ए
ऐ
औ
क
ख
ग
च
ज
ट
ठ
ड
ण
त
थ
द
ध
न
प
फ
ब
भ
म
य
र
ल
व
श
ष
स
ह
ा
ि
ी
ो
ॐ
।
३
६
জ
ড
ত
ন
প
য
স
হ
া
ি
ଇ
କ
ଧ
ର
ା
ஆ
இ
எ
க
ங
ச
ட
ண
த
ந
ன
ப
ம
ய
ர
ற
ல
ள
ழ
வ
ா
ி
ு
ெ
ே
ை
ం
అ
జ
ణ
న
మ
ర
వ
ు
ూ
ಕ
ಗ
ಟ
ಣ
ತ
ದ
ಬ
ಭ
ಮ
ರ
ವ
ಸ
ಾ
ು
ೂ
ഏ
ക
ച
ഛ
ജ
ട
ത
ധ
ന
മ
ര
റ
ഴ
സ
ാ
ി
േ
ൺ
ർ
ൾ
ก
ค
ง
จ
ช
ซ
ต
ถ
ท
น
บ
ป
พ
ฟ
ม
ย
ร
ล
ว
ส
ห
อ
า
ำ
เ
แ
โ
ใ
ไ
ཡ
ᄀ
ᄁ
ᄂ
ᄃ
ᄅ
ᄆ
ᄇ
ᄉ
ᄋ
ᄌ
ᄎ
ᄏ
ᄒ
ᅡ
ᅢ
ᅥ
ᅦ
ᅧ
ᅩ
ᅫ
ᅬ
ᅭ
ᅮ
ᅱ
ᅳ
ᅵ
ᆫ
ᆭ
ᆯ
ᆷ
ᆻ
ᆼ
‑
–
—
‖
‘
’
“
”
•
…
′
″
⁄
⁴
₂
₅
€
₹
℃
℅
ℝ
℞
™
→
∀
∂
∃
∅
∆
∈
−
∓
∖
√
∝
∞
∠
∧
∩
∪
∫
≈
≜
≡
≤
≥
⊂
⊃
⊆
⊇
⋯
⌈
⌉
┬
╥
◾
☉
☐
☺
♎
♥
⚡
⚪
✂
✊
✢
➡
➰
⺈
、
。
「
」
〖
〗
〽
あ
い
う
か
き
く
け
こ
さ
し
す
せ
そ
た
つ
て
と
な
に
の
は
ひ
ふ
ほ
ま
み
も
や
よ
ら
る
れ
を
ん
イ
ク
シ
ト
フ
ホ
ル
ン
ー
ㅋ
㊗
㊙
㎡
一
丁
三
上
下
不
与
专
世
东
个
中
主
久
么
义
之
乐
也
买
乾
了
事
二
亚
些
交
亮
人
什
仁
今
从
他
付
令
以
们
仰
任
份
伐
休
会
伝
伤
伯
但
位
体
何
你
使
來
例
便
信
修
做
傷
傻
僕
儿
允
先
光
兔
入
內
公
共
关
兴
其
内
冉
冒
冷
几
出
分
刚
初
利
别
到
制
則
功
动
動
勿
十
南
卡
印
即
卷
厚
去
又
友
反
变
口
另
叫
可
吃
合
吉
名
后
吐
向
君
吝
吴
员
呵
呼
哥
唱
啦
啪
啬
喃
善
喝
回
国
土
在
地
场
坏
型
壁
夏
外
多
夜
夢
大
天
太
失
奖
女
好
如
妈
妙
妮
子
字
存
孤
学
安
宋
客
宪
家
寂
寒
寞
对
导
封
将
小
少
尚
就
尼
局
居
工
左
己
市
师
師
常
帽
干
平
年
幸
序
度
廉
建
开
弱
形
往
很
律
得
循
心
必
忍
忘
怀
思
恋
恬
息
悄
情
惊
想
愁
意
愛
感
懂
戏
成
我
战
手
才
打
扣
抜
押
抽
拍
招
持
插
搬
摄
撑
支
收
改
放
政
整
文
斯
方
族
无
日
旮
时
昂
易
星
昧
是
晚
晶
暧
最
月
有
朋
朝
未
本
术
杂
权
杨
杰
杵
果
枯
柳
校
核
格
栽
桂
森
極
槽
横
欺
步
武
歪
每
毒
比
毕
民
气
氣
水
汉
沓
没
法
洞
洲
海
消
淡
港
游
湃
満
满
演
漢
澎
澳
激
火
点
為
炼
無
然
煥
熱
燥
爱
片
特
独
狼
猫
王
玩
玲
理
琴
用
画
疑
疼
病
痴
白
百
的
皮
目
看
真
睨
睹
瞎
知
砖
碰
磨
礼
社
神
科
窩
立
竟
笑
筋
答
簷
粘
精
系
経
緣
级
统
缅
缘
美
翻
老
耻
胖
能
脏
脑
脸
腰
腻
膜
自
色
艾
花
苦
草
荧
荫
莉
莫
菁
華
萌
萎
著
蓮
虫
行
袋
被
装
西
要
見
親
规
角
言
話
語
説
證
譬
让
许
译
语
诱
说
课
谁
象
货
质
购
贰
赋
走
赵
起
超
践
踏
身
転
车
轮
轴
辣
边
达
过
运
还
这
进
迷
逆
选
這
通
逢
逼
運
達
遗
那
郊
醉
释
野
量
金
针
钢
铁
锋
长
開
问
阿
陰
陽
随
隐
隔
雅
需
霍
露
静
非
靠
面
音
题
风
飛
香
骂
骗
骚
高
鲜
鴻
鸡
鹵
麽
黎
黑
鼠
ﬁ
！
（
）
，
－
？
￦
￼
##s
##n
##t
##o
##l
##y
##p
##r
##i
##c
##f
##m
##e
##h
##u
##a
##g
##d
##k
##9
##4
##7
##6
##1
##v
##0
##8
##5
##2
##z
##w
##j
##b
##x
##q
##°
##च
##श
##3
##ो
##√
##л
##е
##к
##с
##а
##н
##д
##р
##о
##в
##и
##ч
##द
##ब
##ी
##´
##の
##た
##ひ
##は
##こ
##ि
##ख
##ा
##न
##ग
##ह
##ज
##ᅡ
##ᄌ
##ᅵ
##ᄆ
##ᆫ
##€
##ᅳ
##ᆯ
##≥
##φ
##ʉ
##ʛ
##ƕ
##६
##у
##ю
##ь
##÷
##−
##℅
##ı
##³
##π
##→
##ع
##ي
##د
##ऊ
##β
##स
##×
##ل
##س
##ف
##∝
##व
##য
##া
##ড
##প
##হ
##خ
##र
##त
##ω
##ا
##م
##ب
##و
##ر
##ج
##²
##ம
##ி
##ழ
##ण
##ฟ
##น
##ำ
##ค
##า
##ง
##т
##ц
##я
##ð
##ы
##म
##ः
##ה
##ו
##י
##ק
##ם
##☉
##ᅬ
##ᄁ
##ᄋ
##ᅭ
##ष
##ま
##て
##さ
##い
##す
##ك
##ら
##➡
##≤
##प
##य
##る
##ه
##ى
##ø
##ル
##ー
##フ
##േ
##ർ
##ക
##ാ
##ഴ
##ച
##ൾ
##₹
##з
##п
##г
##ی
##ک
##ن
##₂
##₅
##ल
##ல
##ா
##ை
##£
##½
##ट
##ಾ
##ರ
##ು
##ಕ
##ಟ
##क
##ங
##க
##ு
##ซ
##เ
##ว
##ร
##ت
##ش
##ق
##¹
##¨
##ป
##ส
##ต
##ض
##±
##ก
##ไ
##ม
##อ
##ล
##ถ
##พ
##れ
##も
##ə
##æ
##த
##ட
##μ
##™
##ন
##ত
##ি
##ᄅ
##ᅥ
##ᄃ
##ᅦ
##∞
##ೂ
##ன
##ய
##ச
##ெ
##ł
##º
##ס
##ص
##ା
##ଇ
##כ
##נ
##ת
##㎡
##ช
##भ
##⁄
##ʌ
##¢
##つ
##¥
##ح
##ة
##ƒ
##⚪
##ᆼ
##ᄒ
##ᅧ
##￼
##щ
##ŧ
##ర
##వ
##ం
##ठ
##ɪ
##ŋ
##ж
##थ
##ध
##ذ
##ᄀ
##ᅮ
##ᅢ
##ᅩ
##ತ
##ಸ
##ಮ
##ᄏ
##ᄉ
##ई
##㊙
##㊗
##⊆
##な
##℃
##แ
##จ
##ท
##ே
##ι
##ε
##ν
##ᅫ
##ᆻ
##פ
##ൺ
##ി
##ര
##ത
##ూ
##జ
##ు
##ణ
##ρ
##ο
##κ
##λ
##η
##ς
##θ
##ड
##ר
##ᆷ
##ᆭ
##み
##や
##®
##ใ
##வ
##⁴
##∧
##ん
##よ
##χ
##σ
##ற
##ண
##ಗ
##ಣ
##ز
##α
##τ
##と
##く
##ホ
##イ
##ン
##ト
##∩
##अ
##ದ
##ಭ
##ವ
##ᄂ
##ᄎ
##บ
##غ
##ظ
##ए
##б
##か
##ث
##┬
##ҿ
##ϟ
##ɮ
##あ
##ʊ
##ᅱ
##х
##∀
##ཡ
##∂
##ː
##ர
##∪
##ର
##ʻ
##ほ
##し
##ד
##ധ
##ഏ
##ഛ
##そ
##う
##സ
##റ
##ย
##at
##he
wh
##re
the
##in
##es
##an
##er
##on
what
in
##ou
##or
##ow
is
##en
do
##ing
to
an
##ar
how
##al
##it
##om
##ic
of
##st
##le
are
##et
##ed
and
you
##ion
can
##ve
##est
for
##il
th
##as
##ld
on
##ac
##is
be
##ro
##ent
st
##oo
##el
##id
why
##am
it
##ot
##ay
##ome
my
##ec
##ould
best
ha
li
##ke
##ir
##ter
##ol
##ver
##ig
##ce
re
sh
##ad
##op
does
##ly
mo
##ut
some
##se
##ith
##ation
##di
or
##ur
we
##one
##ill
##ri
with
pro
##ag
##ch
com
##pp
##if
##ich
##ear
##im
whe
##fe
##um
get
which
if
indi
##ate
qu
fr
ma
have
ch
ex
that
##00
should
tr
##nt
##ct
##ul
wor
me
as
##ers
de
##us
##th
con
en
##ine
your
from
##ood
at
##ant
ne
##ist
##out
##are
##ess
##os
not
##ble
al
un
##mp
bet
us
##res
##art
comp
##ie
##ect
india
so
##ap
will
##ook
pe
##ies
##un
##ht
who
##her
ab
##ment
peop
##ack
when
people
su
##ind
se
dif
##ang
like
am
good
go
way
##ity
##ren
##end
##ive
sp
##age
would
##ain
##and
there
lo
any
pl
##we
af
diffe
##ight
##ore
ac
##ort
##ions
man
eng
##ical
sc
ph
about
##lo
##ite
##ip
##ween
between
##ak
one
##ong
he
##ure
##ount
did
int
##act
most
imp
##ud
##ast
##ora
app
##ard
##now
##ace
make
lear
ad
learn
quora
pre
##all
20
##ass
was
by
tim
where
##ide
know
##ink
##ans
cl
co
##ial
##ell
work
fe
##ice
##ra
ever
##ram
##ust
##ish
life
##ia
mar
jo
don
##der
##our
differen
le
##iv
##ence
##ile
they
after
##ry
201
time
##oney
##ge
##ally
start
##ail
year
this
##qu
##vel
##av
money
new
##ary
##pt
all
##ck
##ff
acc
##ab
has
up
bec
##ame
exp
ar
##ber
gr
use
difference
mu
##ther
inter
##ance
ta
thing
inst
res
##irl
te
bu
##ics
stud
quest
think
##od
##bs
##iz
##ech
happ
##vie
##ump
bl
##riend
much
mean
##em
girl
book
##ire
##ue
someone
##oun
col
out
their
ear
engine
##lect
##og
per
pos
rec
many
pres
other
##ign
##ase
day
##up
##ated
##ree
##du
than
find
##line
but
##ub
po
##les
##ach
##si
##000
indian
exam
want
pr
##ath
##int
trump
##rent
##able
##ations
sy
happen
more
fir
##ep
##ult
rel
##ru
pers
ser
##ous
sa
##iver
world
cont
without
br
dis
feel
become
##erm
che
wr
##ound
##ick
online
##ory
better
engineer
person
first
##ors
##lish
##oug
prog
##ft
count
elect
##ph
wat
ban
off
##ident
program
cons
##red
over
##de
comm
des
mark
inc
##ress
no
##ces
job
act
compan
sm
need
##book
inv
english
##sible
univer
account
pol
impro
##ting
##ord
under
ev
into
could
ag
prep
buy
love
##ving
bo
vis
##elf
##orm
take
num
2016
##own
fl
gu
face
long
##reat
war
##ys
possible
improve
car
ca
them
##ience
##hip
em
mon
##ict
##ild
wom
##ough
##iness
ask
##gle
chang
friend
##ald
old
eff
bus
lang
langu
president
500
things
questions
cal
##let
her
compare
phone
##ian
notes
sex
##ool
pass
goo
##ert
##olog
cur
tech
##ning
weight
student
##ade
part
were
engineering
##cess
##ages
really
ways
1000
##ee
used
##ual
tra
ans
##ens
##velop
google
##king
##ities
donald
business
##ating
##lic
##view
stop
mus
webs
develop
##yp
intern
being
real
hel
spe
##ient
programm
different
fun
sk
back
bel
import
number
univers
##eric
chin
##ata
she
##oc
colle
hig
effect
att
just
top
##eth
look
tw
americ
sol
using
la
win
##ific
##ful
see
##phone
his
##its
##ples
med
play
sch
black
##ject
cr
##ates
facebook
every
answ
ro
books
thr
read
help
inf
mat
free
dec
rep
10
op
say
language
now
movie
##gy
study
lose
##con
##led
down
sim
soc
##orn
been
##stem
##cy
word
##rest
##duct
##iss
##low
inte
sal
market
hum
ke
##ix
eas
question
system
had
its
cre
ve
gen
##vice
rem
##way
##ism
##agram
years
big
##uter
##ular
mov
##ational
prof
##fer
sec
still
##ware
programming
emp
going
add
maj
month
school
##fore
##ons
trans
instagram
only
vide
change
aff
company
supp
care
##kes
computer
before
women
##apt
hack
incre
##ose
movies
hill
prepare
str
cor
invest
pri
##ond
reg
card
blo
cour
##ely
##ower
##xt
##friend
##roid
earth
pur
##ise
##ows
bad
college
rs
##ology
av
##inton
pay
char
##use
##ures
plan
##iting
##ese
android
red
##mon
exper
clinton
##ba
examples
im
high
live
math
country
test
min
##ative
##ited
website
class
##self
##uring
##ily
our
form
interest
##day
##ne
iphone
song
##ites
ide
ind
while
##urn
learning
##ments
prop
##ery
gover
soft
##als
##ition
typ
rup
##co
bas
##ution
data
exist
##get
govern
##ody
mot
del
##load
important
##wn
##loy
through
bi
vie
##ark
grad
view
##ees
dep
air
men
again
##ts
hillary
##hi
##ollow
ins
product
##alth
##ps
##ms
net
made
increase
det
dr
earn
##app
same
bank
fast
software
science
##ene
electr
right
techn
##ash
water
##sc
travel
fav
two
leg
##ake
follow
watch
relations
dri
##gest
##iet
own
great
sing
econ
##ced
##bile
place
fin
##istan
##ale
mess
econom
government
##me
fact
##az
##ital
during
employ
bat
##rop
sur
##ss
interview
##ices
design
hot
bre
ho
lapt
laptop
##ll
end
##word
hand
##ones
prov
##iest
phot
##ract
ener
mobile
##ize
##io
name
tell
adv
home
##earch
hard
fam
cam
##gin
ob
mast
relationship
sign
##ually
##ork
val
reas
cat
energy
pak
web
university
anyone
cent
give
##hes
##ream
him
##ically
delet
##ger
affect
##rib
process
answer
hair
cost
##ption
##gn
som
social
fil
##ious
child
har
##ute
pakistan
food
##tle
##verage
hist
getting
##ieve
rid
##ries
##gs
law
companies
china
health
speak
sub
proble
##ght
friends
##ames
true
even
meaning
bang
##ube
post
fat
come
##man
average
download
##ved
then
pop
days
term
visit
doing
human
power
gre
eat
sw
requ
career
##aut
2017
jav
gener
ps
##gr
mind
list
boy
##ah
##lim
yout
state
##ills
mech
##ality
sent
non
cult
video
##ips
run
##aph
##aces
##rist
usa
##oot
whats
##ction
write
guy
password
tv
too
anim
support
major
safe
##vert
spec
##duc
##cle
##cept
##ried
god
mechan
students
sn
aut
##rol
##ider
ass
suc
youtube
##form
##ents
done
doesn
##ling
email
tal
working
fore
current
##per
happens
##ied
##pect
experience
pub
##ote
less
wind
favor
dist
##leep
rupee
##ten
##ull
build
having
game
hear
very
##so
girls
##bo
keep
ent
modi
whatsapp
##ek
##ank
##erman
##ock
service
call
gm
##over
el
##te
##ines
##anc
fut
##ala
15
##ave
12
##bi
countries
dig
##arent
phys
##ired
let
##ways
favorite
equ
ret
light
got
ap
open
last
body
##ple
temp
##min
##br
##ai
##ars
pain
future
hotel
##wood
beh
history
white
##land
main
##ner
tak
sleep
employees
##oth
giv
grow
mem
##ouse
##ural
meth
train
kind
bene
##ric
prepar
week
success
##vices
ext
apply
conf
##ets
##ings
believe
##ug
smart
##ves
show
benef
art
delhi
manage
skills
##hed
##pl
##thing
parent
age
java
rest
##ral
project
effects
music
girlfriend
chinese
myself
remo
cle
against
election
##cent
tips
worth
##lywood
next
mechanical
##other
##ization
create
def
##ern
mac
##udi
control
block
##ollywood
##cul
places
met
join
##iod
pros
differences
marketing
review
educ
##erat
german
internet
caus
cap
##erc
makes
pen
states
applic
self
police
making
anal
##ants
recover
commun
##apan
interesting
american
fall
##ility
japan
common
##work
united
par
civ
polit
##ists
period
##ik
windows
begin
startup
##ision
cell
code
los
priv
##vers
##ness
gradu
##antages
mic
reason
these
##ror
ed
mor
civil
score
eu
never
##ories
set
hy
##ield
##air
stock
woman
##ying
salary
chan
deal
each
avail
dream
pregn
##ier
america
around
bro
amaz
actually
attract
pot
quick
course
redu
culture
##mat
##ret
rus
##ty
canad
series
##acter
psy
##ruct
chem
##ency
demon
available
id
answers
looking
hour
someth
ce
gmail
something
dark
##oose
deg
##ont
##ney
die
mil
pict
opt
##idered
considered
always
psych
##mit
mod
today
dem
##osed
purp
##ify
##ards
19
months
gain
sell
development
nat
another
economy
org
site
speed
writing
near
tax
ey
profess
delete
break
found
parents
pan
##ffic
##ope
won
install
universities
##ding
ir
##itive
pun
log
##har
##alore
well
type
foreign
##ges
space
bir
mba
##ma
point
jobs
calcul
aust
lat
stay
muslim
idea
ra
indust
search
wif
move
note
snap
##rect
dru
ant
popular
mach
##ently
fre
head
grou
services
je
sug
small
cert
wear
##ause
##ense
dire
happened
universe
mom
such
problem
##ional
level
public
##oid
##urb
vir
instit
purpose
sou
drink
py
##ush
iit
able
character
behind
##illion
education
games
##aching
bangalore
##nd
##tc
expl
boyfriend
living
##ister
scient
songs
star
##ams
wrong
worst
##ven
##ince
demonet
super
100
writ
##ross
##nect
seen
##ange
##ama
##ormal
family
differ
successful
loc
sl
uk
determ
##ead
send
lot
##ilar
expect
date
put
private
because
digital
pat
ms
presidential
mag
##ians
##ission
lit
technology
cause
websites
height
turn
##ton
instead
##bers
house
order
apple
mass
management
2000
cred
asked
const
majors
##na
ste
saf
##uck
degree
porn
##port
##ux
reduce
relig
hate
cy
##ipp
##omm
share
international
death
##ium
curren
apps
connect
times
effective
##come
text
sentence
bar
easily
tri
similar
talk
opp
city
##itable
##ung
cou
sour
tou
##thon
kill
##ds
austral
short
traffic
30
arm
##ien
cand
ter
allow
ip
facts
center
pregnant
based
legal
causes
visa
wal
deb
canada
##hol
iss
choose
nor
offic
indians
##tern
complet
calif
biggest
python
californ
sites
stat
night
##iety
##ym
christ
##ters
currency
##ses
##pa
both
also
vol
struct
mix
bal
##sia
story
dog
machine
##olution
media
benefits
##rat
gate
compared
##xy
##cl
##rope
jee
##ift
cir
california
lead
##ought
europe
stand
##ird
drug
##cc
##aste
cut
##ost
treat
##lease
##crib
##iction
field
accept
##mar
##ude
decision
micro
000
est
battle
##ins
amazon
value
terms
correct
videos
normal
strong
green
pc
pap
step
products
tool
##less
alco
given
alcohol
fix
##ogr
ur
##ib
photos
views
remove
intro
direct
ref
medical
humans
resp
pract
##ression
sun
ones
second
birth
smo
function
shot
18
##cri
exact
west
model
contact
##chat
preparation
low
impact
vote
##icket
recru
masturb
etc
react
profile
##read
overcome
inform
blog
must
##ana
didn
ang
pa
group
##ior
##ather
banning
called
##ship
partic
lin
created
solar
temperat
##idence
sat
##stand
scre
coaching
suggest
orig
phil
rate
##ov
##acy
check
drive
theory
##ential
percent
brit
known
snapchat
full
side
prev
research
11
intell
hours
vers
##rav
easiest
##ration
##ues
rece
organ
network
ideas
studi
imm
gold
intellig
method
##erv
##lock
communic
yourself
marri
mult
physics
fight
beaut
##ator
##akes
fres
cheap
file
matter
16
mist
##ane
##hab
##oice
##abad
ok
others
avoid
##lam
##eng
##urity
##ible
ge
single
trad
syd
##ids
2015
credit
##oud
land
mum
sydney
50
##bai
children
##ograph
##ination
brain
quality
germany
meet
office
recruit
##ails
easy
ment
link
mid
desert
application
ep
faster
##utions
advice
lar
ast
anything
australia
ias
suic
strate
left
understand
becom
store
russia
25
200
bollywood
wa
##imum
origin
famous
south
tur
##ler
track
access
improvement
cop
blood
tor
##hing
##anger
marks
flu
required
information
ver
##han
guys
dail
diff
poke
messages
brand
options
solve
##ume
neg
lik
rom
emot
##owing
creat
##itions
marriage
mumbai
institute
cold
news
daily
fa
size
resour
courses
signific
##ball
adm
##order
advantages
distance
rupees
##oms
##ety
studying
canc
prot
##ides
kore
sum
##ification
compet
prom
address
nu
uber
languages
##ized
security
key
offer
suicide
##utes
prec
##raw
attack
fem
deleted
industry
##ives
happy
provider
port
islam
hit
##aur
force
general
##uns
problems
cust
##icy
developer
past
iq
national
pokemon
##pir
investment
pet
corru
aw
##hest
started
safety
far
rich
foot
##ember
oil
healthy
source
special
div
vac
deep
chemical
pu
commit
##ron
di
cit
infin
bit
##els
##imate
lost
##ks
exerc
doct
those
suitable
repl
message
grav
area
consider
words
option
##20
colleges
analy
##ined
hind
says
pack
often
exactly
film
##fl
er
convert
##ode
gay
##hemat
il
three
##igh
skin
miss
gl
jio
##iful
spend
mathemat
few
##que
color
##leg
beautiful
moment
likes
perform
##bal
##ased
electron
propert
##ha
##att
explain
invent
page
purs
##body
##icult
activ
types
object
appro
fac
isn
bra
##ina
##cum
##den
motiv
##pects
##indi
forg
cri
##ape
custom
electrical
graduate
price
sound
dogs
inp
prefer
##ified
team
party
heard
nec
##oph
married
emb
bab
oper
male
north
spot
reasons
hor
late
##lement
sit
difficult
transfer
##por
across
autom
bill
##ason
var
##ager
picture
screen
personal
training
citiz
ii
vi
##ater
ww
##band
penis
conv
bud
describ
proposed
leave
capital
enough
host
##ulation
##rast
eating
hindi
democ
line
##ners
related
numbers
japanese
female
internship
clear
13
##hen
macbook
mal
youn
sams
twit
religion
##mb
nucle
loss
gala
hus
##mer
rad
coming
may
oly
sil
samsung
gam
olymp
recomm
said
ios
ly
##erial
recommend
##opath
exams
letter
##jo
crack
financ
basic
##ndra
cook
moder
opin
americans
chances
shop
diet
feat
master
prime
##ted
taking
since
##bit
wife
##amp
moon
##adv
obama
##ledge
nare
cele
hol
nar
##gor
tow
##derabad
paper
14
##cs
british
narendra
calculate
son
##istics
##nam
precaut
precautions
##ats
role
once
topics
everything
hur
hyderabad
surg
earthqu
restaur
##iation
##era
users
financial
cond
handling
balance
away
stri
coll
celebr
rank
everyone
eg
sect
inr
##oes
changed
comple
funn
quickly
please
political
pune
##pr
##ging
##inc
press
negative
##etic
limit
million
pi
communication
upd
panel
##ising
##tery
county
installation
##of
ann
17
##orts
exc
else
galaxy
quant
chance
rehab
bul
cg
sav
try
##apore
fail
corpor
singapore
##ounds
army
yes
experien
shotg
ill
##iate
following
##gen
disadv
hyp
select
depression
paid
hollywood
knowledge
##unt
bring
##erce
crush
glo
secret
speaking
demonetization
twitter
qual
blocked
chann
reading
##ases
blowing
##raft
belly
structure
cs
squ
mother
muslims
shotguns
##ta
taken
fire
board
nra
enter
amount
##xic
likely
resources
solution
terror
present
##ison
perman
animals
photo
clean
hire
##ned
##tm
##ender
scope
##grad
contin
gift
##rit
blue
salt
determine
##dle
electric
bh
season
algor
depart
officer
clo
dead
material
rac
##ward
table
disc
algorith
ball
arch
##ffe
require
result
within
##ula
laws
##ready
already
graph
fear
##ared
jew
studies
vs
##la
##ury
##ortun
earthquake
doll
weak
occ
##com
##ided
dating
##ered
camp
##rated
appear
##istic
##ences
admission
dest
wants
max
##vid
swit
##row
policy
currently
##istry
thinking
lic
thought
hom
infinite
tam
allowed
cool
corruption
##ker
marry
incl
professional
linux
least
eth
ib
##aff
needing
da
ker
##phones
san
natural
forgot
##itary
##ored
##soft
##sh
fund
eye
opinion
##osp
ident
##acher
altern
tools
stream
husband
charge
income
favour
hold
disadvantages
##etim
pictures
abs
##li
##ched
infl
##atient
grads
seem
illeg
useful
subject
necess
front
passport
meas
##mpt
inpatient
prevent
convers
seo
##ache
user
significance
dom
names
fly
fake
surv
candid
##here
novel
##nn
personality
ram
##ged
athe
tall
##aves
teacher
final
##key
eyes
greatest
moral
opportun
simple
microsoft
##ability
inside
couples
plat
buying
football
interested
ach
##ley
hindu
property
nuclear
western
den
lab
##itor
strategy
##ok
kar
mer
little
tre
##sp
shows
cricket
estate
temperatures
return
heart
epis
close
obs
##avy
span
written
smartphone
potential
anx
##rap
##ero
east
cash
staff
##rael
starting
feeling
kerala
21
israel
crit
modern
doctor
##ming
##iple
anc
wifi
teen
visiting
mb
##rench
memory
illegal
stories
case
##uation
save
accounts
favourite
slow
##adem
##ured
minister
followers
inn
expand
preparing
middle
father
fresher
mit
listen
fi
##anch
##und
##ording
systems
core
##iable
##mi
liber
formula
yet
phd
print
military
##anced
##idency
wall
mail
device
tea
##ensive
battery
york
##son
##ouble
towards
mexic
perf
watching
##ography
camera
percentage
rele
smoking
rev
positive
##cript
corporate
necessary
french
ru
cards
##duce
40
birthday
due
##rab
running
effic
works
proced
early
##ades
tamil
conc
poor
global
##urance
phones
coding
ess
enjo
magn
##het
##ox
reset
outs
details
afric
##omb
##feren
milk
danger
##ani
station
os
##rep
##ims
docum
neet
society
fit
weird
repub
##married
hp
##uum
unmarried
pil
evidence
elections
here
technical
among
provide
##arr
sales
rock
republic
medic
gh
viewed
tourist
ec
gas
ssc
touch
gram
though
##rate
academ
beginner
##otes
flat
playing
circ
yah
tot
individ
quit
schools
##box
upsc
event
young
anxiety
##iles
vacuum
hal
platform
chr
chemistry
boo
pm
sup
version
##old
planning
files
dat
kids
##ological
yahoo
cry
flight
sand
comb
laun
minimum
intelligence
torrent
dub
anime
positions
##sel
##lor
hyd
##itar
proof
24
##ches
##val
king
##ping
wars
harry
applications
respon
alone
toget
##umb
acid
told
##road
box
together
pressure
certific
##itude
##rene
olympics
voice
##ague
draw
lay
##water
##enture
##ugh
marked
##books
mis
projects
nit
teach
morning
replace
individual
commerce
resol
exercise
ten
##rie
prob
dangerous
##enger
concept
##ains
##sib
pursue
cities
baby
gets
manager
##py
##uing
court
cancer
sea
consult
arg
##tt
##inder
gravity
##pal
protect
describe
sbi
##stit
abroad
sud
image
harass
##yle
chat
##iled
example
rob
fastest
masturbation
enjoy
##ham
##be
might
##ij
##uit
adult
entrep
gaming
higher
displ
presidency
root
##icks
below
perfect
##reneur
##asing
weed
remember
latest
pupp
update
wish
##ancy
chenn
insurance
chennai
bed
##wal
##ately
economics
practice
##fact
##ffy
events
entrepreneur
billion
motor
##ised
according
growth
ign
##ived
purch
mathematics
##ished
attractive
status
classes
##df
immig
third
trust
coffe
dy
##ino
##ises
4g
##uate
trying
##ival
##ysis
hole
funniest
cb
##itect
expected
ancient
range
acne
12th
architect
drop
democrat
candy
coffee
gad
##fort
advanced
zero
##epend
veget
building
bot
foc
content
cars
copy
harassment
curb
undergrad
integr
sad
rent
highest
hacker
band
##ores
symb
imported
anti
cure
##rs
##ex
##aw
##illed
##ief
disorder
##gets
prospects
glass
coun
##selves
engineers
##ashm
resolution
partner
becoming
##oring
actor
independ
specific
cra
##uc
prote
defin
complete
rol
feed
writer
symbol
upload
pron
trip
cse
cup
large
rather
##atic
phr
cla
trading
##icle
record
rat
##board
innov
pal
prove
##antic
okay
##bon
ali
##ially
steps
concent
opportunities
##xual
contrib
bond
disco
pick
comes
hacks
gst
ic
##wor
goa
philos
budget
##onym
decl
sq
cann
determined
fig
##ique
plus
advert
hurt
##ays
particular
electronics
spotify
forget
##astic
weeks
recovery
##ashmir
60
kashmir
league
planet
summer
influ
##my
##ze
whether
license
unt
contrast
politics
korea
achieve
uses
needs
2014
drinking
focus
beginners
jud
tata
##agon
taffy
sudden
lim
##ressed
potter
bur
four
jun
env
##wered
##ipl
driving
survive
##oss
room
becomes
spanish
pow
##face
##50
##ctions
efficient
capt
##ax
##ga
##uth
powerful
issues
developed
audi
##hn
##assing
dreams
channel
burn
vot
##go
pred
histor
losing
animal
double
##ript
philipp
embarr
##tech
campus
whole
manu
##arm
thrones
outside
born
jack
coast
arab
importance
player
kn
aren
nothing
bike
##ervation
##iance
recip
christian
regret
physical
intelligent
##olved
needed
astro
##atives
##ece
startups
boys
longer
transl
procedure
hydro
##ya
driver
features
tele
cheating
viol
cbse
ug
shar
manufact
pit
pounds
##off
stra
attend
regular
finance
asian
sexual
saying
masters
##aking
commerc
departments
datab
sem
answered
multiple
##roll
regard
##ilt
issue
competitive
gif
unus
php
dam
native
total
gadgets
##orce
talking
isis
script
lesser
flo
fair
##ka
whom
##upid
psychopath
##akh
##par
##rum
##hara
frequ
ticket
##ivity
switch
kiss
##othes
economic
##uly
position
banks
server
creative
citizens
##uel
relationships
respect
straight
active
temperature
completing
saltwater
##press
subs
actress
everyday
psychology
gym
soci
##pping
intel
smell
sometim
russi
stre
testing
mexico
commercial
sen
##ny
##isco
loan
##ifically
crime
programmer
square
frame
john
harm
graduation
jour
mut
arr
peace
lock
changing
hitler
##irt
means
workout
##gar
resolutions
tcs
##ca
##iron
hacking
##back
##ground
location
##inary
##aced
feelings
liqu
expensive
sports
teeth
convince
embarrassing
##ami
princ
functions
existence
cells
analyt
kv
mad
##zy
stress
messenger
philosoph
environ
elected
request
strongest
certificate
approach
jes
##med
ital
shoes
accur
guitar
stars
##ament
##ference
ele
##rm
proper
mel
via
##ascript
##action
addiction
harv
apart
lond
##gb
moving
comfort
banned
reality
assist
demand
cgl
##da
alm
javascript
analysis
london
scientific
dollars
truth
asking
themselves
virgin
ris
##oop
heat
designer
unusual
##ught
anonym
hi
ice
##ering
maint
later
stupid
loves
mbbs
chick
completely
pilot
sometimes
choice
consum
wait
##ria
soon
recently
standard
invented
##oint
stocks
occur
linked
cast
caste
lower
##otic
topic
legit
dc
##eter
implement
assoc
surgical
tit
ham
path
reject
##dia
accident
khan
rot
afford
certain
debate
restaurants
tar
##ove
##af
giving
jesus
base
ll
speech
##ously
bible
##ring
##uge
maths
rail
##ength
permanent
environment
factors
cats
volt
maximum
##ky
half
reach
phrase
border
sens
anger
neut
scen
programs
database
##isation
taste
washing
possib
sahara
receive
hon
##rus
##0000
plant
##ems
accepted
reven
collect
devices
separ
korean
ben
rub
vict
drivers
fresh
cab
od
##ati
release
seat
climate
investing
emotions
episode
protein
hands
experiences
##arian
conduct
profit
cheapest
fed
grade
equal
rout
##ius
##iring
##ension
astrolo
lord
stren
sche
population
auth
amazing
dress
##erve
constant
package
harvard
3g
airl
##aire
##ali
branch
road
detect
local
##adesh
kvpy
swe
##dom
report
nam
##rial
background
inspir
equation
esp
sure
minutes
rights
virt
round
sense
waves
constit
cp
came
rbi
brother
original
customer
##rics
##ever
##yal
##by
dev
entire
turkey
romantic
tick
##ford
scam
measure
cross
evolution
carbon
mains
algorithms
candidate
rand
enc
malay
##ughter
gps
##craft
##ably
includ
##urally
##ules
serious
businesses
philippines
wed
##ole
affected
confidence
streng
dim
##ji
winning
benefit
european
chrome
analytics
dh
beat
members
historical
ul
cloud
freel
five
##ither
##izing
sleeping
citizen
race
##tain
franc
sold
client
conversation
domain
##ires
foods
cannot
hang
mart
##ped
recent
planets
angel
thoughts
##more
##ecut
refer
led
scientist
chicken
nc
##reme
init
##olk
atom
mental
destro
##aches
launch
##mas
##used
ago
ads
clos
puppy
meant
reservation
ipad
display
knowing
cover
ups
cream
racist
resume
treatment
geor
dubai
jail
gifts
goes
older
cambo
##uto
france
tex
urine
performance
##raid
##itional
behav
characteristics
exch
##uss
afraid
weirdest
definition
bored
##aries
##oma
acqu
muscle
cambodia
dro
decide
signs
cate
gand
##osis
clothes
esc
parts
virus
##bre
##iment
notice
received
dry
six
chall
sympt
kid
##ota
nice
##umin
##paign
du
hd
htm
lad
##iated
admin
##ogn
funds
repres
regist
almost
las
wire
##icles
que
distrib
elig
attracted
shopping
##sl
##cing
##know
##ention
campaign
html
brown
cultural
##flix
##ls
##asm
flip
netflix
document
##ster
##asa
ny
##iano
##grade
lines
mir
##jet
sky
films
paral
philosophy
fish
navy
##ances
upv
street
hotels
respond
restaurant
iim
mole
sector
journ
dies
pul
##ceed
serve
placement
requirements
medicine
ghost
sin
tried
wins
quickbooks
analyst
undergraduate
rap
##uff
##ators
##ica
##ife
banking
##cont
selling
aliens
kit
wik
##mary
##uana
carry
jews
chart
publish
voltage
##oos
lives
atm
spir
joke
colour
typical
surgery
##bits
along
actors
iron
ble
died
##omp
##ologies
iii
##ijuana
pdf
investors
gmat
strateg
##where
funding
voc
##aged
meat
relative
generally
boot
dipl
lon
##gress
##ilities
register
results
argum
80
gun
length
##ester
shall
trade
learned
deliver
applying
debit
##ona
comment
scrat
##izz
production
calls
##lands
promote
##60
##oni
cutoff
enf
syn
reliable
reliance
paying
caused
reaction
represent
##emp
wordpress
rule
francisco
ut
##cast
##room
narc
obsess
naturally
error
until
symptoms
honey
tour
tatt
match
hide
wave
condition
hr
unique
goal
anymore
depos
raj
daughter
wis
##olve
aspects
confl
##wan
usb
marijuana
##icted
payment
situation
africa
virtual
bomb
vag
##itation
load
effectively
sap
brows
extra
unf
pregnancy
methods
mistake
framework
dad
##ano
haven
express
veh
22
mi
##verse
flow
schol
blogs
formed
grades
##eal
##zer
disp
astron
essay
purchase
went
##inst
images
introvert
operating
quantum
russian
23
ran
##iab
prison
walk
constitution
##icon
##ida
metal
cyrus
##antage
unlock
catch
api
mistry
destroy
viet
contract
hacked
##hood
stan
poss
moto
fiction
##gan
union
changes
handle
characters
structures
probability
conflict
##edia
valid
removed
##cription
radio
strike
vit
##eria
lie
shouldn
usually
##oken
fing
##ecially
phase
strength
categ
ai
killed
comments
pharm
prem
gandhi
##sequ
##duced
capac
continue
algorithm
claim
especially
random
cos
hiring
snow
##ii
mars
contain
horror
##odes
disable
define
gravit
##working
suddenly
##zz
weap
recogn
desp
transform
airport
professor
vietnam
3d
rou
tank
skill
depressed
kolk
lakh
##edy
produce
mah
scale
stopped
iran
cancel
robot
narciss
##mes
attractions
various
ga
rain
wake
##racy
bes
beng
cru
tel
##lit
##ken
##inter
cycle
kolkata
6s
cig
dual
mc
##agn
visitors
retrie
bay
hosp
wealth
built
empire
##erature
literature
fluently
ece
##ending
entr
novels
architecture
mount
##iding
##aps
grand
overrated
supply
rates
##vt
##eral
##eler
colon
complex
regarding
##rier
spoken
prices
firm
species
previous
ult
scratch
##yl
suggestions
90
pure
tut
proc
raise
excel
sus
##inal
colors
##ruction
plane
eggs
##light
batman
organic
treated
2nd
ari
bitco
wedding
exchange
journal
##head
style
impress
failure
weakest
anybody
steel
dhoni
park
networking
setting
lyrics
70
cm
##idge
above
##ended
agree
somme
christmas
32
suff
calories
identify
maintain
tren
unknow
equival
groups
permanently
linkedin
pg
wild
##ded
##500
##ann
##uting
upgrade
dise
disapp
technologies
15000
released
bag
bern
##to
##kart
took
mutual
mur
##cies
ground
developing
played
certification
liquid
sd
##ob
presence
reply
connection
brah
naruto
experienced
cigare
mr
vect
wid
##vered
earning
solutions
kg
tinder
##zil
easier
legally
electricity
##iqu
##ocol
lawy
reviews
materials
speaker
piece
len
sister
wit
##ooth
brazil
ibps
possess
fash
##ulf
consequ
resident
evil
community
accurate
js
##ciation
limited
1st
nation
yell
myth
flash
sentences
sugar
couple
fashion
##oral
stage
feet
became
##ictions
entrance
##anes
lif
freed
taller
alive
artific
iv
sort
##lex
appl
smoke
gravitational
therm
##alous
##ached
##oll
alb
##ounce
biology
significant
author
truly
oppos
exercises
either
gender
##rd
theories
##pper
basis
atheists
unknown
gree
sam
##hem
##ime
action
##ensity
##ropri
industrial
alternative
ba
dut
mich
pas
tend
somebody
plants
resist
looks
added
suppor
employee
substit
gives
joining
jealous
similarities
##contin
##cer
forces
laptops
emails
##elling
nose
pim
##oon
tricks
flag
itself
bangl
bits
##jab
desk
kej
mistakes
revenue
##uk
##erg
asia
offline
decre
emotion
scholars
ja
ric
##atory
involved
players
politic
sources
democracy
liberal
harmful
oce
xbox
##inations
areas
ideal
saved
gar
till
ub
##gh
##inate
##ials
redmi
placements
valley
central
takes
activities
artificial
bow
nic
rules
##riwal
##pped
scene
adop
instrum
generation
##ception
royal
factor
##print
kejriwal
gur
vel
##empt
domin
##olf
weather
spouse
audio
named
tickets
category
push
##hatt
tom
forward
##olar
actual
remain
designing
scientifically
captain
despite
freedom
##aging
2013
##duction
aircraft
canadian
roman
selected
discover
##ault
scra
entry
##coming
equivalent
cas
mas
##top
worse
pursuing
anno
democratic
router
bache
h1
zone
theore
execut
statement
challen
300
oxy
##rad
libr
expert
##osexual
leaders
##rem
haw
##oles
shut
temple
##cloud
consequences
az
din
tier
yog
manip
##aving
199
punjab
failed
mand
##usion
##angle
century
##ipping
dar
lew
experiment
besides
lens
piano
##ray
loved
10th
angry
##prise
absol
##like
##80
##ends
cro
dna
nut
##oe
scar
pret
wanted
surface
pizz
##dr
##otech
exists
masturbate
scholarship
gpa
hall
nasa
visual
hero
hardest
painting
activity
35
ion
##pur
##iture
##uted
compar
academic
ratio
sociopath
tutor
river
##lel
scrap
points
fant
kne
loose
ring
alien
hasn
turned
religious
embed
##untu
floor
indones
largest
cgpa
cu
ox
##cher
stom
frac
ability
plans
raw
connected
bull
##ued
##rees
stuff
mode
pride
taxes
soul
pattern
individuals
vegetarian
oxygen
fan
fur
gb
ss
##10
##edi
cod
processor
broad
shares
atheist
denom
pronun
spirit
##right
sequ
##berg
##ype
belong
advantage
showing
stanford
3rd
painless
wikip
oct
##rig
##anda
cloth
directly
strikes
administ
wikipedia
##elts
dragon
nature
considering
flipkart
lewis
##gers
##dule
paypal
tests
diploma
yellow
density
fro
lift
vision
breast
affordable
stomach
ax
mang
tree
chip
ubuntu
boss
dying
element
##agers
heavy
femin
discontin
bigger
airb
centre
institutes
including
jump
heav
auto
brands
texas
bernie
amp
fill
sher
venture
##ari
##icing
##icial
conspir
invited
aer
ielts
vice
##jp
blu
revolution
washington
procrast
cope
huge
wi
habits
gobi
conserv
incident
poly
##ducing
calculated
networks
budd
egg
applied
furn
kong
##rete
visitor
edit
direction
papers
channels
sanders
pronunciation
tes
tag
fee
button
watched
broke
petrol
eligible
##nat
developers
airpl
15k
hosting
hong
ka
##iler
repair
logic
circle
angular
strategies
scrapping
nations
tired
##mm
uns
happening
##ifications
primary
format
interviews
downloading
located
faux
feature
ethical
blind
motion
paint
barack
percentile
celebrate
behavior
eb
tab
##iers
##uro
silicon
independent
obsessed
vagina
btech
##ply
withd
##unk
amb
practical
risk
freelanc
supporters
luck
naz
##jee
##irus
##hern
belief
section
terrorism
graphic
grammar
lack
##ony
syria
pakistani
##ternal
satis
mention
dent
chair
govt
officers
statistics
motivate
motivated
candidates
advertise
aware
mill
##lin
##mission
##onald
##isc
levels
pizza
icloud
##put
##rant
##eless
wearing
keyword
counter
rice
##bel
sport
seeing
growing
articles
alternatives
astronaut
##atically
##ansion
painful
member
browser
brahmin
veloc
vl
##omet
##ooting
cogn
editing
doctors
expanding
parallel
##cles
expansion
cheat
indic
dollar
target
sever
lake
explan
circuit
influence
anonymous
vehicle
aad
et
jam
les
trib
##bert
instant
simply
genu
profitable
transaction
generate
responsible
neutr
hospital
nik
##gre
interact
town
##ae
plastic
paytm
broken
cc
dani
vp
##sis
##mark
##orage
##acle
ship
shape
##uration
chur
imag
tested
profession
antiv
##list
##ua
shirt
episodes
apt
figh
jan
nom
uri
##asht
aspir
infos
keeps
crimin
##ropriate
font
gd
##rt
threat
homosexual
sql
velocity
gap
jer
##fa
##ipur
##abul
passion
winter
graphics
boost
bitcoin
disease
conspiracy
tesla
rio
##zona
##ively
arri
twice
retail
magic
construction
supreme
##iques
withdraw
antivirus
egy
stack
unit
dont
fluent
possibility
arizona
₹1
##bor
chand
processing
swim
scientists
magnetic
retrieve
vector
greek
daniel
egypt
jim
##pro
##cular
##rets
##ara
electoral
consc
drugs
masturbating
astrology
ty
##rom
unif
whose
finding
friendly
ceo
breaking
flying
congress
scot
arn
shep
extrem
magaz
triangle
include
documents
infosys
##arter
##adu
syll
##ovo
emotional
www
selection
figure
bought
pull
habit
worry
chess
passed
subt
orgasm
ipod
leader
weapons
##pap
##outh
neuro
club
holes
furniture
dell
vill
##arch
storage
accenture
acceler
periods
particles
resource
qualities
therap
chain
warming
monitor
article
falling
figures
laser
##bra
##ulate
unable
shepher
ek
na
pump
##uits
##ums
external
underrated
internal
hob
corrupt
tattoo
ber
gear
mp
sight
sons
##ja
nepal
seed
factory
submit
recommended
vocabul
deposit
vocabulary
dram
gone
##js
##iling
unex
##unes
longest
repe
computers
investor
equity
debt
bsc
##iny
alph
musk
obtain
grey
credits
fixed
described
princip
cath
wise
##pm
immigration
ncr
##break
embedded
ko
##nic
inde
jokes
theme
photography
mathematical
funny
##etime
finger
lenovo
der
spo
##aked
letters
satell
creating
clothing
bor
css
ju
##do
arv
output
penal
logo
walking
volume
particularly
hydrogen
italy
bachelor
lying
ni
##mc
##ket
defe
##une
firms
physically
##ugu
teenager
republican
bangladesh
desktop
explanation
iits
shy
clash
techniques
demonetisation
46
bjp
marath
mini
contacts
properties
criteria
tooth
##fered
scared
advis
smartphones
divided
enterprise
bott
ocean
26
##hel
chocol
##aka
##iva
arts
butter
dislike
##pected
elon
missing
fo
gos
waste
reference
##abus
resign
poll
minute
posts
swed
frequency
george
mirror
##otechn
uniform
fine
##xit
island
sept
cris
supposed
strang
prior
african
h1b
shepherd
arvind
cub
##men
except
arrest
chest
string
travelling
completed
jewish
elements
hell
rh
##arge
upcoming
legs
studio
rejected
eve
rings
##mad
beer
prostit
##ago
wash
taught
confident
latin
celebrities
saving
senior
27
wine
##hop
##inct
spons
prank
empty
brexit
confir
steve
discovered
bengal
clock
dumb
##ston
england
knows
powers
damage
cv
ven
##au
items
orient
scan
breed
forever
department
manufacturing
abol
goals
##activ
subjects
grammat
conscious
mig
##nc
##tr
optim
christians
independence
assistant
wireless
syllabus
ak
cable
ui
itunes
##ola
quotes
computing
ps4
digit
educational
wallet
copyright
advertising
scenes
diesel
lect
shown
##dium
maps
conver
neigh
britain
pimples
executive
sherlock
kh
##ein
##itors
comedy
critic
sqrt
corn
fuel
luc
##erved
##olic
mahab
##log
admit
humanity
lawyer
yoga
binary
##eem
##bed
##rel
##iday
professors
fantas
45
cow
##ita
##iders
##anta
followed
signal
values
lessons
promot
delivery
annoying
##otechnology
cree
kick
##lished
##pe
##vey
##estic
heal
##iving
helpful
monthly
owner
bullet
teachers
innovations
instrument
extremely
ola
rah
placed
relation
minor
australian
faith
dynam
rise
##ingu
thick
mos
amend
poem
affair
seems
expands
concentrate
registered
fees
veg
friendship
academy
airlines
##wami
##ots
willi
ready
charging
singh
tenn
knew
church
rene
twe
spain
scand
offers
solid
insp
territ
opposite
unexpected
goswami
64
aug
canon
quor
spring
coins
examination
partners
belie
##erator
##fficient
religions
circum
diam
fif
##cil
##omi
##sey
##ching
finish
##aphy
retire
##ttes
arnab
mahabhar
ded
rare
##wing
offered
oral
quote
deactiv
accomp
saw
feels
asks
aptitude
fell
wip
##kal
##roc
compon
engines
mostly
secure
##pective
calling
microw
movement
keyboard
cigarettes
b2
wing
##jar
##encies
unb
appoint
##rug
december
depend
##ricult
industries
killing
linear
automation
efficiently
recipe
genuine
sir
tan
##gling
##any
##ario
##amin
##urs
sodium
agency
agricult
programmers
medium
headphones
voting
properly
satisf
dil
##life
##ael
##bour
reverse
##rif
printer
progress
command
flav
justice
redd
scored
tablet
separate
28
node
##bu
beard
stick
##raine
improved
musical
realize
transg
region
apache
beneficial
restr
turning
predict
queen
widely
99
ple
ride
wood
₹500
##rupt
meditation
existing
advance
slit
patient
hinduism
jackson
routine
malaysia
cd
rational
sick
##ns
##30
##edies
stores
##idden
##ada
disney
psychological
models
dial
ies
##jac
door
seats
guide
federal
5s
nag
##dies
infect
introduce
terrorist
michael
indonesia
aud
mouth
##uary
##ado
##ologist
##issions
provides
artist
logical
fields
younger
citizenship
associated
subtit
tiles
##isions
mys
goods
2012
##ounder
universal
answering
subst
streaming
ruby
atomic
gdp
chocolate
cases
diab
##care
himself
edge
writers
immedi
psychopaths
martial
immediately
fest
mort
oven
zeal
toe
oracle
suit
##ivered
boards
electronic
inventions
illness
superman
lonely
nba
tas
thigh
2010
kept
transport
traveling
silver
consulting
title
dance
xia
##rix
split
implic
agent
oldest
simpl
highly
delivered
breakup
refrig
occup
concrete
arguments
pretty
bs
gi
kap
thesis
##iced
##aster
adapt
export
acting
accounting
monet
succeed
talent
##hammad
declare
ivy
fet
hat
ren
##ici
compos
##unch
attention
remedies
assum
versa
transgender
ah
fel
jet
msc
thro
marvel
differently
soccer
waiting
identity
essential
semester
further
dj
dsl
nav
##kar
##ully
scal
propos
designed
divorce
billionaire
concentration
ugly
procrastination
dish
ira
pool
##dy
##zuel
compound
manaphy
2020
buff
extract
liter
##ibility
facial
recipes
accidentally
library
bath
ol
appropriate
##izon
basket
existed
opening
attacks
islamic
olympic
response
concepts
translate
##ziest
##wards
asse
leaving
teaching
gujar
medals
affil
photoshop
director
weakness
domestic
christianity
manufacture
richest
fighter
accomplish
hung
nfl
vene
##vant
unlim
##ipop
cyber
faced
returns
cuis
zealand
venezuel
##ti
##ubs
hadoop
150
foreigners
automatically
railways
theoret
₹1000
unlimited
29
aim
icon
##ini
wheel
suck
accent
biotechnology
speakers
safely
##ommerce
wales
official
introducing
seconds
clients
vpn
i5
##force
stam
shoot
##agle
chlor
##anged
starts
##ensions
subscrib
##garh
honest
substitute
xiaomi
baking
diver
tum
##uce
##opes
fruit
click
interp
happiness
sms
attempt
solving
majority
kinds
demonetize
screens
judge
jimmy
crisis
fal
kil
nano
pages
rape
sans
##cd
##irts
##usive
wouldn
dishes
removal
karma
fitness
distribution
criminal
microwave
dav
##inated
##etooth
shock
franch
diss
classical
biased
stronger
spending
lady
challenges
absolute
bluetooth
september
venezuela
pin
##imb
10k
forms
restore
mentally
babies
celebrity
printing
crazy
nyc
decrease
subtitles
hous
sar
tat
##yn
##power
trick
##uls
compl
clust
cheese
confused
degrees
particle
palest
es
lies
soda
##allow
filter
config
successfully
traditional
millionaire
enfield
ebay
kr
sout
##nb
##ule
##ban
shift
quad
##ansas
provided
translation
jaipur
cart
lux
##40
##vision
##anas
##alled
##ops
chief
##apse
cake
approx
freshers
grammatically
cuisine
loll
ns
##ql
##omy
##sters
mixed
refund
tracking
input
drawing
cot
nort
##war
##ania
angle
##ille
ord
thank
proud
commission
##onto
searching
sending
sony
ethnic
junior
norm
ux
vad
##obe
##iter
thin
enh
polar
helps
decided
posted
heads
moments
coup
contribute
powder
upvotes
emotionally
heaven
lollipop
einst
fbi
nick
held
cock
tai
secrets
beginning
particip
newspap
savings
discuss
schedule
reddit
nadu
overall
caught
backup
plays
tells
childhood
cupc
johnson
lakhs
gs
##kers
##bian
pradesh
muscles
fighting
arabic
founder
kin
##och
##bull
shower
disk
sale
neck
concern
innovative
ugc
sharing
administration
einstein
55
kal
lam
mam
pill
##night
##iat
##mber
bear
spread
plot
##aceut
increasing
electrons
officejet
craziest
susp
buddh
fully
rum
##ked
##star
cant
##isgarh
##uru
spy
sperm
clans
markets
basics
meeting
toronto
railway
pharmaceut
amendment
##gia
##rec
map
##ctc
##ortion
impos
##onda
mechanics
ukraine
##ucks
##wl
##ifier
interface
classic
airprint
paran
conservative
4620
throat
pharmaceutical
bip
ejac
jay
ronald
##pc
##real
##rian
##iff
butt
prize
obc
gods
irctc
customers
scripting
juice
complain
cine
dump
lakes
parties
employer
batch
calculus
putin
pronounce
sequence
ath
boring
uf
##vember
##erson
pee
clin
november
decent
beauty
continu
borderline
pink
##ey
chhatt
inches
##isms
patent
golden
liked
awes
fundament
bonds
axis
assemb
chhattisgarh
bacter
gt
vert
##hold
##uations
notification
abuse
spin
spect
saudi
couldn
nowad
specifically
editor
multi
republicans
ultimate
airplane
renew
implications
basketball
gave
jon
mong
rab
##rome
##70
##wa
dot
##vere
beach
muhammad
controll
cheated
lights
30k
italian
nowadays
mission
pills
ranger
##ening
shiva
##illa
compat
manual
poker
consume
eval
crow
organization
geography
inspirational
duty
politician
index
tennis
##aid
chi
worked
formal
owners
greater
surge
wonder
ww2
integrate
pitbull
fold
hed
turb
##xide
##ables
ark
booking
consist
carrier
charger
costs
lesson
physic
infinity
cooking
illumin
scariest
mahabharata
components
dslr
pic
sib
##12
orbit
##ulator
ash
upon
nobel
flor
genius
stranger
former
bio
skinny
consultant
glasses
##gaon
actresses
cosm
denomination
lesbian
magazine
##che
##ef
produced
2018
synd
ends
posting
objects
facing
motivation
kingdom
ranking
nikon
sweden
ire
nt
ray
rude
sr
friction
##ishing
careers
massage
wwii
capacity
##cat
##gage
##asc
##acing
frust
excl
alumin
chewing
charges
charged
proven
settle
understanding
diagn
entrepreneurs
constantly
phen
##icago
adobe
11th
soldiers
taiwan
florida
ireland
400
roo
sach
##rible
##ares
dreaming
texts
bhag
racism
argument
disappear
enhance
vod
whenever
earphones
breath
circles
layer
ignore
atmosp
arrive
franchise
lou
oh
##kh
weigh
meal
smile
robert
swift
tempor
gurgaon
penalty
diabet
awesome
lu
##cut
##wr
##ilty
adam
##cket
blow
assass
setup
quantity
ibm
eastern
television
frequently
array
fantasy
hedge
bru
elim
fab
qur
tu
##gate
##bl
lip
mahar
makeup
evolve
autism
extro
objective
internships
ghosts
cfa
km
nig
zo
##eline
##uses
willing
visible
stere
ecommerce
torrents
anonymously
iraq
impossible
gall
iims
##net
##fast
##va
##orate
youth
##role
enable
neural
visited
harder
punish
machines
##crimin
##aneously
contributions
seriously
darth
chairman
keywords
acceleration
quorans
illuminati
vine
##ature
toile
myst
shah
usern
##izations
##dered
incor
traits
beings
valu
metro
hostel
arranged
narcissist
dinner
7th
##pet
##ei
##orrow
##ession
scores
##aks
lee
discrimin
description
curve
hardware
window
landing
hindus
conversations
combat
arabia
intellect
initial
settings
pollution
31
pad
sri
surn
tie
tough
##arin
stuck
worried
classified
published
norway
telugu
dm
fans
hope
james
pants
tap
##ville
##stain
stal
stone
##hers
leaves
sexually
parad
stored
terrorists
forgotten
airline
unblock
assembly
coo
mine
sik
wan
##nes
##kan
ine
##itative
##stru
##osc
usage
teams
bug
mont
crash
digits
graduates
civilization
estab
versus
originate
replaced
measured
merch
layman
freshman
dropped
bleed
valuable
51
60000
ripp
##point
suits
##quit
realistic
typically
menstru
iiit
acquire
ronaldo
rif
sulf
van
##lier
##oub
bey
installed
passing
singer
generator
lots
petrole
lyric
switzer
cabin
destroyed
codes
nazi
pleas
tatkal
switzerland
4th
rating
##orp
##asp
strug
##teries
##ishna
guilty
introduced
verification
collapse
listening
sociology
virginity
sweet
jailbreak
homosexuality
petroleum
bba
dv
gates
honda
##oke
##isible
whey
chips
##berry
##ogue
poison
relat
noida
simult
increased
cultures
paris
esteem
spots
annual
inflation
relevant
flights
declared
airbnb
##ashtra
defeat
vader
auck
alex
guns
lion
tig
wage
##pass
reve
fruits
chicago
##anted
plate
schiz
healthcare
animation
cheaper
opportunity
eventually
principle
legitimate
january
athlet
auckland
fired
ome
ted
tun
tong
##zen
##arily
thous
##oted
leon
memor
breakfast
static
reflect
discount
##ospace
karnat
21st
adopt
felt
thousand
36
bol
bicy
##mo
wasn
donate
##emy
smarter
improving
investig
weekend
urdu
links
vacation
conditions
slowly
georgia
disabled
syndrome
karnataka
aap
bite
f1
fox
hidden
rig
##eared
##kg
##kary
##ales
alge
login
##uda
perception
nobody
addict
##monton
digest
extent
edmonton
quickest
safest
optional
comfortable
aerospace
several
oriented
algebra
fer
##mate
##stal
orange
excess
leather
interior
photograph
famil
bowl
rahul
ay
hop
hip
mile
rect
sab
##rac
##kin
##well
##athy
productive
supporting
steam
copper
presentation
manipal
nutr
satellite
bipolar
bb
eld
ng
wholes
##eness
reb
newton
googling
camer
sleepy
kindle
artists
psychiat
apartment
resistance
cotton
cupcakes
bon
##hd
chap
asleep
alt
expression
permit
decisions
metals
deeply
operations
june
spiritual
strangest
sor
sed
sac
##hu
##athan
matrix
broker
paul
##hens
collide
##rief
roles
registration
trends
tomorrow
hawai
neutrality
august
wipro
ml
mun
ot
pix
rav
sides
tail
##ober
##rants
##oned
isro
##chool
sustain
anywhere
evolved
skype
keeping
param
##oster
url
murder
october
beliefs
gary
wast
##mart
##hent
##esc
beg
##verts
scars
pray
birds
superpower
construct
crimes
roll
diabetes
mtech
pant
##lab
##ras
##col
##ros
spark
agencies
caring
rooms
regions
imei
defense
cement
blogging
puppies
associate
escape
catholic
diamond
hump
##lr
##ext
##krit
##ened
##aly
item
fever
arms
persons
backst
##aires
attraction
bulk
scenario
aiims
mountain
witness
gujarat
false
compatible
800
tro
##cel
##how
##zing
##wear
##bur
##irty
##igma
champ
trig
trouble
##ulated
usps
thanks
##odynam
authent
diagram
collaps
coolest
environmental
bleach
lonel
sanskrit
kinetic
maharashtra
username
pip
##ni
##hy
##orter
fort
shipping
complim
apprec
guar
matt
secular
insec
insert
bread
membr
volc
awk
sitting
responsib
victory
wisdom
tutorials
cogniz
lectures
toefl
simultaneously
crop
##tic
inch
##opl
asp
arbit
calend
passive
throw
remote
##isexual
ending
swiss
equations
communist
foundation
raising
talks
structural
entertain
dye
60k
violence
assistance
robotics
astronauts
tummy
screensh
sibling
mystery
reveal
authentic
bp
##een
##aud
##rogen
##under
povert
typing
admissions
##haar
replacement
odd
freelance
creep
mosquit
interpret
krishna
poverty
biting
nap
wet
thor
##utation
##actions
transmission
propose
extreme
putting
25000
fluid
richard
premier
swimming
leonard
bah
fb
july
pac
pir
##obile
##wh
whis
inject
perce
guard
stops
attemp
mining
filled
10000
50k
turk
automatic
motorcy
voted
bisexual
naked
pig
sear
stable
##ecraft
##imal
atl
plug
phy
context
foreigner
recruitment
puzz
retirement
cognizant
osc
thail
beam
##otyp
lived
##inee
interst
colum
pok
desire
sheet
bihar
default
drinks
circul
communicate
protest
album
bicycle
cameras
thailand
cpt
ros
uc
vap
##oor
##orced
shave
shipp
shirts
nex
mary
joint
2011
strange
drone
commonly
privacy
chrom
democrats
consumer
scraping
dynamic
deactivate
fundamental
beyond
s7
##ener
##adic
perspective
##ictional
presidents
messi
telling
##place
armed
automobile
teenagers
possibly
cpu
molecular
suffer
tongue
bhar
cute
ipl
pair
ud
upper
##gl
##gi
##down
quota
coca
196
award
convictions
cleaning
seattle
tourism
brahmins
mysql
affiliate
surname
loneliness
ken
ov
ow
##ril
##chest
##fs
##icul
##rog
shap
mock
comics
asus
closed
margin
allows
synt
accountant
genre
airt
drunk
controlled
urban
verbal
farm
achie
closer
agriculture
paranormal
bacteria
75
bala
gta
pand
slim
tumb
##ku
##bar
##opal
atoms
abusive
anyway
scorp
allah
pricing
console
overd
electrom
acceptable
competition
variable
liberals
scheme
suffering
ionic
fifa
elder
awkward
5000
dur
dang
ips
##tu
proceed
worship
intu
addicted
detail
reasonable
functional
activate
hyper
bottle
records
##oosing
wealthy
luxury
northern
arkansas
##writing
vinegar
cube
##11
##atar
##arts
marsh
poems
##enses
hackers
prophet
hoax
minds
##plant
respir
critical
influen
dimensions
##install
sights
consciousness
toilet
kann
lg
##yan
##flow
##just
##health
##ining
stret
asians
allo
loving
bridge
bush
attitude
verify
eradic
trees
mexican
protection
sharma
balaji
cel
jul
rome
somewhere
enlight
engage
relate
emerg
matlab
genetic
##plus
analog
anthem
practices
250
ahmed
humping
tumblr
bound
row
tack
##fall
##iner
##inav
reform
shooting
chron
trail
managers
columb
invade
lazy
governments
##iences
operation
homes
platforms
angeles
mentioned
aadhaar
calendar
gang
om
pod
##chen
##ato
##ena
however
##station
##ila
actions
aggre
warm
reader
throughout
filip
lightning
raised
superior
volunt
##ograp
dubbed
victor
##archy
scandinav
fabric
30000
360
fert
ia
poo
##iency
##urt
amd
lean
prepared
designers
equip
smaller
holmes
teenage
rental
vitamin
hawaii
tower
##time
##hs
##etry
##aska
##rote
chos
jose
##izer
centers
psu
assign
##ancing
volte
immort
epic
ww1
hypot
util
##uki
frozen
discontinuing
atmosphere
louis
collapsed
bin
utt
##wide
##bb
##arh
ens
notifications
##ellar
brought
deserve
vegan
biological
greece
smartest
triv
mixt
stephen
situations
bringing
##wanathan
backstory
chosen
49
fictional
gith
##itis
sty
##weight
ears
watches
bob
warrant
##ucker
communications
##engers
verizon
horse
radiation
ego
bhopal
merge
##backs
hike
kitchen
##bourne
github
dra
eagle
lum
moo
ton
sore
abst
coval
personally
guest
everybody
forex
##anka
walmart
impacts
burning
lifetime
tribe
deriv
bm
erect
kim
mes
rated
tip
wwe
induction
units
beta
sole
seven
##ander
thinks
##echat
##ogen
overl
singing
##ugal
treaty
smoked
launched
immigrants
melbourne
manga
##ometry
quran
ahmedabad
berm
bark
gel
kat
vish
wrote
##gu
##inea
newly
##abama
invad
##oca
batteries
cere
packages
clearing
opinions
efficiency
bands
alpha
principles
arrested
##odynamics
airtel
bermuda
95
brief
horn
jaw
mood
pets
vr
tomat
##char
##chron
##ears
frank
deaf
##though
although
unhealth
##orable
guinea
curs
thrill
##hib
signals
temper
aws
preferred
boredom
unfair
transformer
extrovert
wholesale
electromagn
fuck
pint
rural
sel
##enn
shad
orth
coach
##raham
delta
staying
ipcc
leading
mentor
bedroom
icse
neutral
collection
martin
premium
politicians
foam
covalent
md
nerv
##mt
##house
##requ
forced
stark
itch
##otype
prelim
earphone
sauce
worldwide
laugh
ended
edition
bird
quantitative
qualified
pilani
sadd
chartered
vlsi
weaknesses
southern
hypothet
unhealthy
00
350
aid
cad
dys
fasc
htc
hunt
hdf
ji
mm
ped
pork
ved
yo
##uble
##writ
islands
##lements
##oses
unemp
plu
arrow
##ounced
noise
solved
##fully
moved
evening
pierc
russians
evolutionary
mandarin
lucid
inspired
david
renewable
relativity
unemploy
##wise
##eroid
##icious
alabama
compre
manhatt
##izes
employment
runs
causing
calculator
opposed
introduction
offering
committed
appears
icici
hamsters
route
sample
comparison
freelancing
admitted
dvd
hen
ky
loud
verm
zucker
##igarh
##ima
chase
##bled
##unction
##rence
spider
20s
##ourse
contains
releasing
ignor
regularly
risks
recognize
1990
freelancer
drama
newspaper
aluminum
bid
cough
cured
lac
si
santa
##ties
##mail
##estyle
stol
##ira
##itha
compens
serial
brush
polic
bodies
skip
remot
clearly
condom
combination
miscon
upset
acquis
tattoos
wildlife
broadband
neighbor
mongol
intellectual
abstract
nervous
2x
cer
dum
ket
lunch
mnc
rails
wolf
##rain
##rors
##alam
##ils
##amine
##eces
fraud
##isters
##osph
complic
coal
bugs
contest
bright
transition
providing
cellular
demonetizing
turns
colorado
koh
wanna
emergency
uttar
manhattan
stolen
policies
hul
lingu
mg
nan
wel
##tte
##link
##vent
##200
##una
##aki
agents
shell
reducing
miles
198
massive
steal
shared
##rator
nucleus
##hetic
pilots
sensitive
adopted
worrying
bengaluru
abolishing
williams
assuming
turkish
interstellar
remotely
dirty
vc
wechat
##tles
##ios
##inating
inner
##alal
onto
##iser
usd
marine
2019
upgrad
underwear
prepaid
rema
eaten
parli
gaining
certified
peter
performing
radius
holoca
hurting
labor
##ferences
claims
behavi
strengths
holocaust
cous
era
##tan
##met
lips
seal
##orders
flour
attach
transplant
highways
##ika
privile
reasoning
greenlit
torque
forgive
hypn
absor
curbing
mythology
bottom
compliment
creepiest
zuckerberg
parliament
bare
bother
lag
molar
pte
ri
sas
tens
yrs
##moon
##enance
forb
soil
sufficient
sciences
nether
softwares
modif
opened
removing
educated
edward
totally
nitrogen
immigrate
ssb
germ
tact
uae
wide
##iar
##viet
beef
stem
##elly
shamp
##agar
##imately
soviet
sue
##ango
creation
badly
surf
penet
headphone
reactions
competitors
##ophren
qualifications
balls
destination
knight
chandigarh
confirmed
dedu
palestine
configuration
bruce
punishment
schizophren
guarant
ensure
pf
rag
vom
##ris
##bucks
##omed
##etics
##dible
severe
carol
solo
salman
regul
secondary
verb
bully
trek
ancest
magnet
vegetables
damaged
maintenance
astrologer
hangout
honeymoon
captaincy
laserjet
marathi
houses
eliminate
screenshot
nexus
bones
bars
draft
gross
nd
vive
vold
##tv
##erior
##arn
comic
trace
suz
phosph
incest
avg
singular
photograp
affects
hybr
division
invention
buddhism
stereotyp
cia
dict
tiny
##ilder
##asion
truck
##mph
coin
explo
gran
##orship
correl
supports
snake
retain
graduating
refuge
larger
holder
council
pitch
thermodynamics
families
bald
hun
ku
##cend
##roke
##ects
clubs
interc
outl
medal
throwing
supplements
increases
animated
jeans
standing
versions
escort
residential
breasts
mp3
satisfied
sorry
equipment
hdfc
voldem
hired
##ghan
##itte
betting
##ours
differentiate
belt
matches
forest
explore
strongly
replacing
motivational
adults
##inois
roller
implemented
thermal
refrigerator
hungry
voldemort
i3
lick
ner
nurs
##pad
##pop
##ront
##field
##gon
##25
##rew
##anic
##opter
friday
##istically
soap
afghan
cocon
outcome
smooth
emo
differential
payments
##hio
providers
memories
communism
irrit
slight
lottery
receiving
milky
perfectly
consumption
dimension
upvoted
sync
capacitor
telesc
neurosc
circumst
clusters
memorize
remainder
netherlands
coconut
48
aqu
ft
jr
rough
alaska
semi
numer
motors
socially
distr
##cules
nato
conversion
israeli
feedback
inspiring
kidney
jayalal
vivekan
9th
dx
zomb
##oices
##eer
##aism
##aya
proxy
workers
lemon
blank
poland
##ologically
meaningful
assets
defined
verified
integration
judaism
sweat
unfollow
journalism
cigarette
alphab
comprehens
bc
kgs
kik
kali
ohio
toug
##iel
forum
##isher
shr
mob
deals
unc
20k
calc
##iana
swami
joined
##worth
lifestyle
therapy
seeds
confirm
subscribers
cinema
arbitration
suzuki
33
dates
gig
hers
nvid
sf
##erest
##bow
##urved
overse
justify
justified
profiles
minecraft
surve
extension
fallen
operate
updated
secretary
ethics
crystal
palm
encour
malayalam
wishes
rifle
membrane
leonardo
vivekananda
bump
gf
mate
mouse
slo
sets
##jit
anch
shorter
##uden
syrian
sket
playstation
transit
drain
extinct
##ographic
females
husky
illinois
boobs
crying
encry
bombay
##natural
dental
b2b
evaluate
nigeria
cooper
shippuden
podcast
scandinavian
jayalalitha
nvidia
220
bos
fought
va
##kia
choosing
dele
uncon
##anges
polym
boiling
emer
attached
soluble
reputation
cours
apoc
blocks
starbucks
waist
negot
portal
awak
challenge
scholarships
feminism
jersey
##build
vodka
menstrual
insecure
physi
6th
ara
fle
iot
lis
##iates
##code
##cule
ink
##oration
##olving
##very
##riers
earlier
themes
transactions
generated
mechanism
hearing
weekends
cyl
ipo
introverts
refuse
qualify
couns
sharp
locked
rotate
discovery
casual
instantly
professionals
prostitution
paradox
##karyotic
##osterone
coursera
aa
cet
cav
dup
oc
##rid
##iant
inj
##oust
##alid
##eland
##idel
##diac
peoples
reserve
overnight
nokia
boston
bell
##ocent
drag
downloaded
metall
antar
slab
rocket
integrated
recorded
cpec
texting
eligibility
##rayed
denominations
kapil
theoretical
folder
ayurved
outlook
doub
lte
zen
##ailed
toy
ford
asper
loans
ardu
contro
aggress
caffe
testosterone
interests
technique
##hesis
entrop
suggested
argent
proteins
innovation
synchron
conditioner
narcissistic
therapist
shampoo
afghanistan
bass
ee
flex
gum
hil
rul
##pool
toler
##keys
pean
spent
impe
adhd
poetry
helic
delo
signed
swallow
defend
founders
standards
recruiter
sounds
libert
billionaires
violin
included
documentaries
pulled
trend
bags
tweet
ntse
plugin
hub
pes
rod
sle
tight
ze
##lan
##16
##rof
produc
compuls
spam
interaction
offices
roy
simulation
keys
finished
120
gotten
april
sla
studied
2008
summary
facilities
vibr
funded
declar
knife
rapid
tweets
ordinary
participate
establish
pleasure
thriller
circumstances
antarct
arduino
entropy
deloitte
##comm
##19
##win
beaches
##idal
##igan
conqu
noticed
compounds
adolf
inters
perm
flaw
investments
purple
pakistanis
180
turbo
fault
maybe
cooked
secretly
marrying
influential
authors
territory
tiger
deleting
controvers
dand
merc
pp
pear
rounds
sip
wb
##rape
##function
##2000
##rer
##isl
##ento
arth
aging
playlist
repro
crew
adding
imess
indus
assault
194
lowest
addresses
converted
ww3
ghz
sponsor
vegas
appointment
task
phenom
motorcycle
acquisition
ahead
ell
gor
hits
odi
tast
tiss
yam
##cm
##jay
whit
##acc
stains
shoe
abortion
spaces
permission
helping
delay
legisl
ps3
penny
europeans
2002
vacc
excell
label
touching
protected
displace
vegetable
attending
distributed
william
divers
omegle
bharat
influenced
electromagnetic
saddest
peanut
5th
hcl
iphones
nude
nda
outer
rapp
session
tort
yu
##90
##adav
##imize
##asts
whereas
recy
polls
info
hills
bikes
photon
distract
periodic
loses
trial
fluency
missed
approved
updates
holding
benz
agreement
pacific
tackle
cousin
carolina
neuroscience
5k
aip
hook
nin
sword
vas
##nu
##page
##rating
theat
##stream
exit
##active
involve
flush
emulator
stopping
decline
pornstar
issued
performed
toward
labrad
cashless
audience
molecule
lawyers
millions
towns
repeated
merchant
bmw
prelims
hybrid
3ds
fu
pound
##oy
##rative
##fol
##eing
##15
##wall
##osaur
grown
##ups
immin
assess
potty
197
breaks
directors
multip
160
compete
explained
silent
lyft
continent
eleph
viruses
weapon
absolut
ampl
proposal
stamina
temperament
imminent
85
ale
diction
pent
zip
##gment
##inity
##inger
liver
##ador
abi
abraham
##iveness
recording
conserved
ages
roomm
planes
owns
obl
blocking
patri
silly
outsour
sensor
vehicles
hobb
territories
concerned
mamm
respiration
calcium
65
ae
bing
cum
gal
kum
nest
sigma
##ml
##db
##onic
##idays
##sexual
##ags
comed
##ifying
##using
pho
appeal
accomm
prin
polish
moves
terminal
taxis
snapdr
slang
##flu
mathematic
holiday
squad
philippine
encoun
mortgage
nickn
pharmaceuticals
struggle
aggregate
abiotic
accommod
snapdragon
52
hors
##hero
toxic
rein
spell
oneplus
bypass
feb
programme
##restrial
preparations
##cribe
portfol
collie
requirement
merced
printed
conducted
publishing
recognition
mcd
bitsat
mandatory
affairs
spectrum
cabinet
mixture
district
arabs
antarctica
labrador
au
b1
cens
fate
hiv
iisc
lt
mh
##test
##kins
##atma
inher
##itals
shakes
##chi
fridge
uncom
compiler
aband
booked
colomb
monkeys
mush
imports
attorn
finally
finland
##ceptions
##ipped
wax
committ
cracked
pieces
symbols
membership
snowden
aadhar
addictive
whiskey
kannada
pinterest
crist
dan
kan
mint
##nl
##heast
##onia
##onna
##otics
##keley
##rip
quiet
##ruff
invalid
boil
additional
designs
demonit
terrible
organizations
attacked
horiz
alternate
concert
##oxide
knee
elev
punjabi
berkeley
django
##chester
achieved
vermont
schizophrenia
overseas
absolutely
nint
srm
##pu
##pan
##esium
shark
##opol
##opia
##charge
##ppers
abdom
impl
timeline
coe
pole
##deal
acts
supplement
tester
##days
propag
ridicul
accessories
negatively
entrepreneurship
junk
journey
revenge
relatively
mahatma
oxid
substance
wasting
intersect
displacement
04
hund
idi
jain
jake
nail
pics
rooting
##aware
##vin
##vis
##omas
liar
exec
neither
uninstall
##acks
##indra
spr
spray
allies
hasht
pointer
googled
regards
governor
extended
purposes
jeff
institution
locations
pcm
##ervations
gamb
recommendation
failing
hypothes
entering
consultancy
purchased
separation
drops
airplanes
theoretically
normally
clinical
entertainment
invaded
cursed
intercourse
herself
caffeine
bom
pest
tang
##car
##style
##otive
##adi
##opher
conce
conference
servers
nov
partition
realistically
medit
infat
deploy
drill
legends
drives
apolog
selfish
parag
irr
supernatural
patel
specialist
corporation
homeless
booth
##itarian
limits
closest
frost
angularjs
repeat
sachin
athletes
excessive
perceive
aipmt
portfolio
44
bone
dio
eee
g4
mv
##uti
##ifer
##imir
chose
alleg
manchester
##ipt
prest
march
outdo
handwriting
obv
memes
metab
metaph
explos
gateway
marriages
shops
phrases
cancelled
cruel
theorem
awareness
continuous
turbine
intuitive
victoria
lumia
dysfunction
piercing
zombie
alphabet
hundred
600
a2
bil
loop
ts
upt
##atch
##omes
##rooms
##osure
lob
exports
wanting
invite
looked
remedy
##ractive
##aha
distingu
trains
##play
capable
falls
superhero
connecting
1800
origins
missile
difficulty
tablets
camping
combust
boxer
peaceful
molecules
tanks
michigan
guru
dinosaur
tutorial
patterns
imagine
fingerprint
bpo
ceremon
behaviour
nursing
argentina
dandruff
cisco
ebooks
kur
vary
votes
##inos
##onom
##iments
unw
seas
##ipse
adjust
allen
##abeth
happiest
serv
cafe
effort
downv
survey
signature
snee
behave
macro
##ructure
snapdeal
heading
100k
triple
respons
holidays
revol
probably
purchasing
integral
dresses
vlad
hobby
satellites
rationale
festival
monetize
horses
mercedes
obvious
ary
bf
ecl
fare
mck
none
##24
orb
##osh
sock
amcat
##izabeth
saas
cheque
electro
consent
hello
attrib
seek
suppose
highlands
productivity
statements
snakes
assume
elizabeth
defence
potus
creativity
holy
resolve
cups
cannab
voter
violent
rotating
diplom
broadcast
lucky
aspiring
incorpor
overlay
complicated
excellent
3000
dal
gent
groc
i7
pard
sain
##mus
##made
whatever
onion
##aco
stain
sha
quite
shoulder
trash
aside
unity
##endo
lover
acoust
imperial
clar
joker
expired
##echarge
prescription
polo
busy
matters
simps
indo
inspect
##scope
correctly
suggestion
facult
appearing
magnesium
hydroxide
ncert
nazis
olive
temporary
psychiatrist
derivative
ridiculous
grocery
mull
nits
rib
rogue
tib
##35
thai
stare
weld
semin
teens
perks
warri
ourselves
banker
requires
##erators
accepting
awake
bitter
discip
fiit
craig
devil
deviation
adsense
wallets
ufo
vertical
ovulation
stretch
stereotypes
counselling
imessage
gra
hates
jup
lump
sung
vend
##lik
##fit
##ho
##ui
##22
##born
##inn
##arms
thunder
##ura
chats
##inem
##acked
engg
hem
residency
bananas
invisible
flirt
deck
handed
templ
##works
psychologist
leads
110
hypoc
identical
predictions
liquor
bootst
sociopaths
cognitive
discrimination
nutrition
champions
marshm
enlighten
compensation
kohli
asperger
aggressive
dioxide
cram
gop
kern
ocd
rising
##vas
##jan
##atter
somehow
concl
neh
##osy
unh
##resp
compress
arrog
boeing
justin
planned
photons
lists
parenting
loser
nearly
smallest
nights
lincol
romance
varanas
capitalism
gamma
limitations
4gb
##going
bench
launching
##iables
disappeared
libraries
jumping
scotland
patients
thighs
occupied
diagnosed
responsibilities
apocal
duplic
lincoln
varanasi
bds
gard
hug
mol
ngo
qa
wol
##tes
##iative
dos
ants
##arest
clone
lease
grid
blade
passenger
salaries
humor
biomed
owned
minded
retina
cleared
logistics
austria
protocol
males
sandw
antibi
ladies
cruz
##heads
siblings
misconceptions
germans
helicopter
##fluid
cannabis
fiitjee
37
700
yester
##nel
##rey
dota
module
##cho
spac
blon
blame
discharge
##lets
universes
inferior
transist
insight
detailed
supported
disturb
pencil
irs
popularity
practicing
brains
2007
divide
committing
measures
potentially
enforce
pharmacy
hallow
indicate
advisable
priority
dependent
sacrif
overdose
regulations
oblig
accommodation
mcdonald
ltd
jupiter
yesterday
dick
noun
rc
ya
##lers
##bble
##orph
##sty
thread
##ishes
##entional
stab
enemy
impression
##eller
##ypse
laz
biotic
##azz
listed
autoc
##anches
irish
viral
momentum
motivates
announce
slower
quitting
arrange
instruments
oxford
belongs
dentist
passionate
prostitute
instrumentation
infection
zodiac
bleeding
pixel
filipino
dictionary
encounter
cristiano
infatuation
blonde
foss
gir
hated
##ran
##ias
##cus
##fone
##oming
cham
intermed
prince
banana
skate
genes
strings
elite
apes
confess
cellphone
reduced
shortest
20000
preferably
eyesight
ratan
fairy
brothers
hdmi
puls
fingers
garlic
conservatives
interacting
##proof
marathon
dedic
refriger
luke
alloc
warranty
drawn
ignorant
hilary
conquer
mercury
colombia
committee
nintendo
acoustic
marshmallow
34
fulf
wives
waking
##nia
##kat
##eters
##ette
##irting
conve
ate
und
unix
##asses
coke
allerg
disorders
boiled
50000
twin
infrast
bats
speaks
memorable
cyan
balanced
goldman
##job
bulld
denmark
merit
cricketer
fiber
ignored
semen
honors
odds
authority
gsoc
complaint
controlling
assassinated
sabha
immortal
hobbies
horizont
muller
apocalypse
biz
bake
bills
cort
dtu
fried
lith
poop
rasp
tube
wrist
₹2000
##mg
##hand
##uber
##rection
thomas
##isons
##enders
##inking
granted
persian
1080
variables
medication
llc
albums
dominant
leadership
berlin
tasks
kapoor
fetish
trailer
halloween
2gb
db
nud
nails
rit
rust
##raph
##hra
##itely
ordered
##ulph
spicy
manner
intended
##asthan
worker
gray
reson
builder
##ruary
branches
flies
warren
eminem
sheets
helped
emper
empathy
badass
eats
caps
graduated
debates
satur
##ova
qualification
appearance
salesforce
dropbox
fedex
advertisement
scott
audit
transportation
bsnl
manufacturers
ethnicity
controller
temporarily
thousands
column
orthod
compulsory
kumar
february
pardon
bulldog
98
fol
lgb
mt
races
sided
yadav
##hal
##zes
tob
##roph
stations
stroke
ligh
##uman
chains
exception
yours
ammon
loyal
plural
adject
bubble
relax
bris
desper
trainee
mature
freezing
singers
socialism
dealing
virat
superfluid
##rater
blogger
farming
bulb
stupidest
rajasthan
bitcoins
pgd
lenses
withdrawal
scalp
sulfur
faculty
enlightenment
nehru
biomedical
2d
4s
8gb
aam
cms
diod
ether
fart
jelly
mn
mca
vul
welf
yr
##atron
alarm
pepper
acids
scary
##uding
coord
leap
##abilities
evap
calm
decides
genoc
profits
charl
surr
meter
geometry
glue
sectors
exciting
glob
destinations
atheism
innocent
##world
comfortably
rejection
handsome
mahindra
possessions
lucknow
##onyms
borrow
lecture
promotion
chihu
volunteer
##worthy
libertarian
diversity
vladimir
discipline
infrastructure
raspberry
chihuah
gita
hating
htt
hiding
ig
np
nerve
rays
sized
t20
wil
##kind
##hea
##igen
##rive
##ulkar
useless
##ordan
cardi
integer
strict
##apped
subway
elastic
defic
institutions
satan
automotive
financially
switched
procedures
achievements
knock
rotation
detected
upvote
conflicts
cruise
significantly
tendulkar
magazines
villain
puzzles
columbia
combustion
eclipse
kernel
2g
4k
77
cache
fails
gonna
h2
panc
tense
##ynt
##parent
toky
storm
##ayana
myster
##see
##uram
##agues
##umes
maine
##ieval
##aba
brad
warcraft
##ologists
backlink
medieval
depth
drum
##scious
employed
camps
swoll
mainland
extrater
gainer
talked
portals
hurts
rooted
float
victim
referred
challeng
##uguese
agricultural
stamps
palestin
gallery
cocaine
engagement
##bledore
dumbledore
seasons
hs
ls
tails
viv
xl
##fc
##fare
##xies
ingre
##isites
hai
##olism
shake
clat
climb
maruti
contemp
braces
curric
marketer
gene
regain
regression
pays
formation
insult
hottest
youtuber
passwords
applicable
microm
##mature
19th
installing
estimate
tradition
portuguese
horrible
viber
illust
survival
fiance
medicines
ignoring
immigrant
uploaded
accuracy
victims
raped
robots
severity
village
dumbest
literally
housing
physicist
mileage
circulation
julian
trivia
correlation
refugees
phoen
hypothesis
genocide
tokyo
swollen
ingredi
ctc
fm
faces
hu
j7
jama
ln
merm
xat
yield
##nost
##cam
##mu
##eed
##aug
##kok
##oul
anten
##icip
##str
stamp
##ayer
wheels
chord
##ulum
notable
wayne
coinc
attain
imo
indore
viewing
messaging
surpr
interviewer
affecting
assange
##mini
morality
##matic
optical
household
armen
alcoholic
organisms
certificates
switching
truths
conductor
hanging
randomly
mangalore
ccna
appreciate
louisiana
privilege
attorney
irrational
bootstrap
intermediate
welfare
3s
3x
lap
por
soph
sulph
tub
ware
ye
yale
##sin
##iosis
theta
##anj
##erves
isol
##arians
beats
##otism
shia
spiders
plain
plates
scoo
##iper
hex
##asty
learnt
hash
##berty
watt
polite
skipping
shel
solver
decade
classification
downloads
buildings
mainstream
locate
puberty
horosc
earthquakes
focused
telecom
kissing
subscription
implementing
pimple
remaining
neutrons
dramas
cuba
nagpur
chloride
dumps
bhagat
attempts
oscar
chromos
oxidation
lighter
breat
ki
lun
sail
sizes
tone
uan
vent
vim
##yo
##rina
##mates
##anol
stones
##amed
##uther
##chlor
unatt
sphere
lok
adder
serving
sao
descript
##ysics
carb
interns
##connect
secured
experiments
insane
letting
temples
punch
austin
##ucky
pornography
estim
portugal
brake
recommendations
##spot
superm
voters
respectively
strategic
##chers
venus
simplify
navig
##hyd
atlanta
penetration
telescope
encourage
prestig
arrogant
66
eight
jazz
morm
nri
paste
ske
vat
vinc
##gent
##gian
##55
##ilton
ons
haz
##olo
mold
weren
conj
peak
prerequ
co2
instance
reservations
agile
calor
passengers
twent
charles
delicious
legend
employers
advise
hairs
submar
meanings
bangkok
worthy
politically
slot
steering
photosynt
asteroid
diarr
activation
facility
labs
tourists
drawbacks
vietnamese
vectors
filling
strangers
migrate
progressive
flavor
sarc
##ochond
roots
incorrect
mattress
scorpio
ppf
coefficient
phoenix
ace
bun
dak
gy
jur
jordan
loo
nus
sid
##case
##ko
##99
##vable
##enium
##elp
adap
grass
recre
recove
##rukh
disaster
carn
badm
##appy
mechatron
asset
protons
deepest
excuse
deny
pickup
melting
llb
iranian
maintaining
myths
nicest
composition
discussion
shahrukh
alexander
bolt
eradicate
chronic
shadow
deduct
mckin
##osystem
vinci
ebook
lust
nm
pence
qatar
sx
troll
##iber
##cling
##atore
##anium
##oran
anat
##ication
std
##eling
##ayan
##rim
##atem
exha
convey
unst
spelling
intim
feas
resear
##emark
preschool
##uprof
bron
incomp
cauc
herbal
rss
bases
expecting
oppose
stats
acceptance
multipl
illusion
destiny
ibuprof
observe
circular
boxing
hamilton
mask
paintings
articleship
##ometric
defeated
siri
tuition
mosquito
owning
erectile
podcasts
##respond
laziness
surround
diarrhea
exhaust
ero
hoc
jury
oz
s6
sacked
tony
zinc
##for
whale
##erk
isb
##enon
##ito
##iti
someones
quarter
unbi
comput
clut
##ivia
expenses
cola
flirting
backend
rose
correspond
bias
technological
filing
pubic
apol
##bridge
potass
gained
stein
treatments
##aneous
horizon
cookies
140
ecosystem
beds
castle
diseases
rhy
converter
accomplishments
approximately
continuously
gtx
sachs
montreal
joseph
selenium
cylinder
micromax
unattractive
photosynthesis
recovered
unbiased
43
cnn
dow
trop
tension
vamp
##gium
dol
##omer
##rove
haunt
##oline
trac
##ership
usual
scroll
marx
##gemini
##velength
accel
bless
##ivers
agnost
guess
guatem
skilled
basically
menu
##ieties
riding
trainer
headache
connections
issuing
checking
trademark
wavelength
cops
branded
firef
mbps
ruin
procedural
rocks
##wali
senate
implementation
detective
inspiration
miami
hospitals
##obia
fellows
bathroom
witnessed
tibet
ibuprofen
potassium
cord
dasht
fib
golf
heter
pse
##tb
##uar
##organ
dose
##ometer
canvas
##ashed
beagle
stages
##elled
aloe
segment
coimb
pocket
chef
guilt
transmit
highlight
proved
homemade
healthiest
apk
organs
logged
soup
determines
expectations
angels
vera
divisible
celebrated
titles
roads
carbonate
##slist
disappoint
spoiler
bottles
sustainable
napole
katrina
itchy
hypothetical
welcome
gentle
ethernet
contempor
mckinsey
coimbatore
ds
herm
hij
io
xi
##inator
##eton
shaving
moist
##ava
peru
waterm
overw
flower
heroes
sexy
backed
##loyd
adventure
trained
capgemini
norwe
nightm
##cla
impacted
saturn
screw
trader
chemicals
diwali
firewall
hydrochlor
duke
carrying
frameworks
impressive
experts
rarely
inev
rigged
vapor
udemy
unemployment
ndtv
declaration
rapidly
roommate
dinosaurs
lgbt
computational
apollo
guatemala
8th
bcom
dip
fisher
g3
han
hons
kam
lan
moles
pending
##hai
##hma
##uch
##bc
theater
##inent
##onts
inbox
inex
anth
##amic
##oto
liking
##agan
meals
intention
learner
20th
clay
workplace
arc
mugh
recon
relieve
viswanathan
##ocate
replic
reports
regional
imdb
earned
##azi
healthier
autistic
equally
communities
reasonably
1960
spacex
currencies
textbooks
multiver
errors
##ateral
magnitude
combine
contribution
capture
workouts
princeton
accurately
rubik
fishing
loading
baja
flavors
enabled
sikh
volcan
neighborhood
zenfone
synchronous
controversial
assessment
craigslist
antibiotics
emperor
orthodox
breathe
badminton
38
72
cakes
jedi
kl
kings
mma
rama
##liest
##pat
##rup
##iations
##ki
therape
##oured
##ingly
##stone
##ede
##rosh
stim
##eches
##uron
##child
##feed
##uma
##herical
mankind
##aker
appeared
leak
weights
partial
strain
regrow
technically
elit
cellul
slave
magento
microscope
traditions
tracks
hostels
galaxies
bhub
fathers
##fortable
recipient
occurs
strengt
documentary
dispute
recognized
rainbow
tags
dialog
ejaculation
maryland
horny
tomato
ancestry
phenomenon
yamaha
uncomfortable
##anjali
dakota
therapeut
bca
craft
echo
fisc
gases
horm
kent
kota
kmc
lane
nse
ore
tires
##100
##atics
anne
##omers
##ico
andhra
##ilog
##ashes
##rocess
reward
maker
meiosis
neil
abilities
##angana
spherical
plas
covered
##ryl
overweight
marking
emi
emit
realty
hotspot
distinct
125
apis
##otherap
parking
publicly
pyram
barcel
directory
shots
filed
disadvantage
absence
coastal
astroph
browsing
retriever
substitutes
elementary
airbus
aeron
buddha
tribes
partnership
monetary
buffet
newspapers
shaped
singularity
photographer
emoji
dragons
slavery
pearl
rapper
outdoor
metabolism
distinguish
duplicate
ingredients
volcanoes
barcelona
cz
fool
gather
hier
lbs
wand
##ng
##pg
##rical
##uay
##dar
##dam
##base
##bered
##eros
andrew
##acles
##acco
rear
##ads
quiz
alert
##rams
persu
offs
conservation
freeze
redeem
classroom
bankrupt
legacy
follower
youtub
taxi
patna
massach
cycl
reactive
awa
liberty
ruled
40k
poorly
acidic
kitkat
colours
flowers
shuttle
crore
feminist
advertisements
resigned
cubic
circumc
cartoon
volcano
dangal
tactics
paragraph
seminar
garden
fossil
nudity
extraterrestrial
hydrochloric
1z
87
dust
ddr
jill
nas
nine
tay
torn
veter
##mers
##best
inapp
isot
isps
tol
tome
##etts
ont
##dib
producing
##chain
worn
albert
##ieber
##ooker
peer
sci
heating
pref
exposure
buck
presently
offensive
bose
monopol
infant
repet
reputed
##ductor
depress
cataly
processes
swing
tvs
##tered
extend
euro
modem
irre
patanjali
texted
shortcut
completion
papua
##ographical
midnight
hitting
ern
grams
fourth
philosophical
heroin
indonesian
kaif
jammu
nikola
aspirant
converting
churchill
mysore
manufacturer
roof
##burg
slightly
nickname
deficit
jamaica
contemporary
youtubers
1z0
ao
gut
lcd
mild
nl
recharge
tir
viz
viable
wiz
wrest
##shi
##tor
##gary
##vania
##300
##alent
##ldon
beans
shades
shaw
enl
##osity
uss
sees
plag
acet
##orted
##rah
##pton
otherwise
##sian
contrad
disconnect
##ermat
chetan
visas
embr
crm
crus
decomp
operator
veins
regime
courts
##words
centres
harmon
snooker
metric
michel
morally
lately
modeling
251
promises
prevented
inspiron
paralysis
astronomy
lifting
nike
ejaculate
physicists
cosmic
excluding
blowjob
bbc
chapter
dangers
vishwanathan
linguistics
upto
sacrifice
pulsar
dedicated
antenna
cf
cows
fusion
lpa
rna
tape
vanc
wound
wings
##cot
##87
##jud
##bad
toys
reun
shif
trillion
alle
##akers
intj
##asters
leo
lex
##query
accused
speeches
reperc
aviation
charity
insects
seller
eyel
panic
slaves
killer
organize
organisation
50ae
asthma
awards
missiles
conventional
absent
labour
##space
anxious
boxes
probable
consultants
chatting
madrid
hirosh
baseball
entirely
##ussions
oceans
fantastic
tyres
principe
spoil
advisors
abolished
criticism
deactivated
infected
nsit
bumps
princess
socks
horizontal
ritual
adapter
mechatronics
feasible
pseud
norwegian
bhubanes
dialogues
hiroshima
84
bieber
cider
cds
fonts
sv
tune
wires
##fish
##hire
##hew
##inction
##anth
thir
##asia
##asaki
##amy
##olis
shri
enem
enroll
nearest
##istical
managing
coverage
joy
joe
expat
disg
olds
helium
decorate
##consin
salad
miner
ideology
musician
moroc
rush
1980
panels
refused
recruiting
recruiters
facetime
strip
fears
powered
coaster
requests
##brew
vocal
wisconsin
claimed
dutch
duties
believing
restricted
ngos
bonus
fortune
thorough
##while
columns
##writer
toughest
bombs
unwanted
tobacco
adderall
caucas
aeronaut
ety
gpu
hut
ktm
ott
roth
xana
##mology
##burn
inert
inverse
##ouver
##oura
iso
##ili
##adel
moons
fract
chile
compass
suited
managed
scoring
hey
##ellation
residence
buzz
invasion
carpet
monitors
shear
remem
avatar
valuation
mete
dealer
replies
mitochond
crypt
dylan
##boarding
manufactured
odor
colonies
ultra
##ylvania
taboo
retailers
diameter
southeast
coupon
appreciated
interpretation
tensor
sketch
flaws
gorilla
shakespe
gambling
diode
globally
palestinian
multiverse
czech
vancouver
xanax
89
dancing
glow
jar
jquery
##no
##lah
##fly
##afe
##dd
##wid
##bird
##qwl
##orse
##aga
socket
clerk
##isha
##ivals
##oda
perpet
watson
overs
carrie
195
urge
urjit
sunday
receipt
koreans
prompt
prominent
customs
variance
viking
lymph
sonoran
excited
certifications
consuming
##afone
dropping
mike
constitutional
possession
greeks
bachel
hawking
ssd
imagination
nomination
penalties
fetch
puzzle
lacs
kuwa
encrypt
impeached
wbjee
legislation
intersections
attributes
transistor
fulfill
1080p
backlinks
fellowship
therapeutics
disgust
shakespeare
dic
floyd
hips
jag
lact
lung
lanka
nh
qr
rt
raz
sop
sde
tet
tamp
void
##mic
##bane
references
shiv
shield
##imeter
wheat
indie
choices
aspect
deh
spl
interv
relatives
##rux
##ocl
integers
advent
rides
popc
equil
##centric
penns
ceiling
pcs
##ibe
lara
admire
specialization
130
radical
ramayana
heartbreak
wallpap
circuits
datas
symbolize
uploading
databases
pharmac
complexity
annoy
codec
imaginary
fighters
resignation
minority
satisfy
simplest
giant
consistently
vodafone
breathing
sikhs
ripples
fertil
ceramic
hulk
mobiles
mammals
explosion
brisbane
clutch
plasma
plagiar
42
40000
azer
df
d5
duration
gaz
rog
ti
zoo
zones
##ih
##chem
##crux
##hit
##uous
##vo
##heim
##alism
##stars
##oler
##igo
frag
chop
atroc
##mentation
intoler
##assy
afterlife
colored
finds
relief
disag
counted
fasting
travels
driven
signing
distilled
bodybuild
blockchain
prospect
sett
idol
starter
sends
patience
stands
organized
fights
oklah
25k
pasta
transferred
automated
cracking
moderation
condens
##nedy
walls
bots
jacket
arabian
madras
melt
honor
beatles
queens
ambani
optimize
substances
proposition
cockro
established
kennedy
awakens
repeatedly
abdominal
calorie
napoleon
strengthen
inappropriate
repercussions
etymology
mitochondria
pennsylvania
oklahoma
4x
gee
kills
luther
nur
nood
pist
rr
rv
rud
tries
##nadu
##oons
##ere
##van
##vet
##west
##bul
##32
ank
##stood
##ashi
##asms
##otine
##olics
ships
##adryl
##rio
##riet
##ulating
unpro
spare
scopes
##logs
coder
grap
taj
resorts
##atha
cheats
overth
visc
flux
monday
shed
laid
winston
decor
minimal
finite
designjet
powerpoint
entity
methamp
modules
##cribed
refres
originally
erase
horcrux
husbands
karan
tamilnadu
trustworthy
contributing
iceland
telecomm
benadryl
spirits
conditioning
daddy
bengali
journalist
nominee
swedish
inequ
ratings
mosquitoes
injection
plugged
henry
ragh
elevator
welding
pgdm
erotic
anthrop
methamphet
aids
dd
git
gem
kard
pug
whites
##stan
##isp
bees
orland
quot
hebrew
apples
adams
preference
prejud
marines
instruct
##lesh
consecut
carried
##lete
curious
muscular
funeral
belgium
blackheads
dece
hadn
deterg
economical
cambridge
subcon
postal
##boy
entered
clever
morgan
potat
staring
allowing
##paid
sunny
checked
diary
analyze
firearms
survived
##erob
eccentric
miser
motorola
untold
prediction
closet
displaystyle
colonized
jealousy
oxide
toothp
optimization
thickness
scandal
subscribe
surgeon
pipe
utilize
4919
dictator
toyota
simpson
taylor
popcorn
47
bac
bans
d3
dated
foo
gulf
hoo
tons
vell
##lace
##iy
##fire
##za
##alt
##itan
shit
exe
spite
acknow
covers
grant
mucus
instances
##phia
commod
smith
underwater
warning
improvements
curved
humid
existential
delaware
surprise
confront
civilians
headaches
officially
##ymes
cutting
reactor
checks
2004
prototype
nationalism
diy
exercising
##opathy
motherboard
discrete
rukh
academics
proofs
trusted
specifications
consumers
rubber
reporting
##controll
colonial
comparing
feminists
incidents
scanner
orders
spinning
frustrated
ripple
bolivia
tomatoes
hypothetically
comprehension
shrink
ruling
meditate
unhappy
sandwich
enforcement
autocad
prerequisites
anatomy
hockey
tracer
inevitable
meteor
gn
hou
hollow
jets
kansas
pond
pier
pension
rl
sg
tx
vin
wont
##17
##bir
##oman
##isy
##econom
##ationally
##cha
##ifiers
##imp
worm
composed
abd
##rens
pla
manila
##ptions
blur
incub
aged
boat
flop
sexiest
##ochem
societies
empires
addition
invested
prophe
proport
selfie
hyund
walt
vijay
returned
chris
semicon
soldier
initiate
cruc
previously
sushi
satisfact
catholics
vegans
pigs
omn
mooc
lisa
inherit
hashtags
sungl
cramps
resonance
adjectives
michelle
bhubaneswar
##adelphia
bachelors
kuwait
hyundai
1k
53
74
hic
hog
hilar
lal
lamp
nad
oily
pus
tb
##rine
##cp
##father
##has
##wag
##ju
##herent
##esh
##orous
isp
##itch
threes
##ela
##aming
prol
indirect
query
##ulative
enters
alk
unlik
complement
sovere
##herry
recur
descend
flood
flute
sheldon
twist
crown
everywhere
decimal
salmon
forehead
equality
eukaryotic
darker
nearby
constip
deaths
trim
australians
##standing
philadelphia
prevalent
avoided
creatures
portrayed
convention
malware
hurric
collab
announced
##oku
voicemail
frequent
consumed
initially
creamy
escorts
hdd
vaginal
nicotine
egyptian
neighbour
healing
bhagav
ferr
trigger
unemployed
hypnosis
forbidden
bullying
phosphate
surveys
polymer
theatre
curriculum
onsite
dolph
inexp
orlando
subconscious
potatoes
vellore
sunglasses
1tb
a3
bour
bites
ct
dong
fills
mall
nir
pab
pvt
rip
##lord
##yroid
##aq
##86
##esign
doors
##omic
##ilia
thumb
thiel
##idences
##keep
##uts
##sea
##ateur
unde
##resa
seals
pls
sched
##aken
##rame
alliance
instinct
sym
##phy
monarchy
downs
strand
bloom
charism
drones
##asha
homework
sublim
##aho
##forms
##ancies
boyfriends
textbook
christopher
ballo
sunni
suicidal
divorced
##ritis
karna
combined
judicial
kissed
cabs
acquired
unlocked
trending
##obic
##emption
indicator
submitted
adaptations
bearing
ufc
nutritional
troops
responsibility
durable
styles
mongolia
guaranteed
whiten
a2a
ceremony
orbital
incorporate
vulner
bajaj
elitmus
fiscal
ontario
disagree
noodles
detergent
ase
bach
fad
hc
jf
nodes
pra
rack
s3
tile
um
vet
##tect
##pi
##gc
##rely
inaug
toss
stressed
##amb
##amous
itiner
lied
##chan
##ppo
wheeler
cha
##inding
##enda
##udes
adwords
clim
lev
yearly
##odor
indiana
sa1
overt
bold
passes
backward
crude
roast
marketplace
genetics
##kesh
minimize
propriet
gradient
drown
battles
girlfriends
meters
founded
statistical
cutest
refuses
geographical
turks
competitions
portable
ranked
bhim
mitosis
gasoline
boots
bandwid
counsel
achievement
requested
melania
occurred
honours
synonym
witch
decreasing
administrator
ambass
monitoring
neighb
dialogue
gujarati
headset
coupons
wonderful
investigation
ngc
altitude
otg
begging
mindset
vomiting
producers
abandoned
rhyme
remembered
consecutive
pablo
bandwidth
mant
pav
rf
ross
ranges
vow
xp
##note
##hil
##hub
##vation
##inters
##icting
##acies
##oli
revers
##opic
prokaryotic
mao
asc
unlike
##arton
pew
plz
apparent
bookmark
recall
brakes
cheek
offended
guid
warfare
realized
backp
##ethical
twins
avengers
centrif
runner
mainly
weekly
prospective
orgasms
breakdown
armstr
terrier
fluct
approaches
baba
silk
condoms
licenses
rolls
alike
historically
almond
cables
rajan
azhar
unsubs
creepy
nagasaki
dissolve
configure
suspension
parameters
searched
moocs
vomit
##arnation
numerical
metallur
sneeze
prestigious
cellulite
enemies
armstrong
62
dun
ease
ger
gly
kaz
mice
pie
rpm
sare
vid
wo
yelp
##pot
##rion
##mle
##master
##bing
##hered
wharton
doc
dock
toast
##eta
##etically
reached
##adium
fraction
trich
troub
unite
compression
##mented
intense
coil
##ileaks
brow
brig
carbo
monkey
friendz
##erto
curse
ski
stray
generating
##peria
publ
1500
darkness
anticip
steak
volts
immune
2006
2001
specially
divid
##shore
streams
argue
liquids
hammer
measurement
initiative
closing
wikileaks
irony
miui
opposing
banglore
manipulate
##iciency
literary
kilos
approximate
photographs
##charger
hulu
explode
hunter
elephant
aleppo
outsourcing
propaganda
charlie
challenging
agnostic
firefox
hilarious
itinerary
bse
cpa
jh
lug
mcc
noug
pv
ppc
ryan
sind
zom
##lon
##loo
##cers
##uan
##45
##21
##eds
beasts
myers
lib
reinc
maid
##usions
envelop
neo
##osition
align
unethical
scams
##allas
workload
teleg
##odb
poles
boiler
flick
herit
realise
credible
purifier
##hibit
drift
obst
fatig
lets
equals
wells
notebook
snape
iitians
superst
shorts
2005
creates
cancellation
activated
annum
failures
boarding
obser
ignou
pronounced
concentric
subsid
castes
hangover
covering
enforced
narcissists
lifes
flags
darwin
discontinue
jerk
cornell
appointed
occupy
composite
assumptions
lamb
stalin
diamonds
pirated
columbus
doubt
tolerance
slept
producer
distracted
ninja
apologize
warehouse
horoscope
haunted
enlarge
thoroughly
raghuram
nougat
dallas
eut
gri
gems
jab
mute
nid
oak
pne
tale
tds
vm
ward
##schild
##twe
##gg
##giving
##bie
##eration
topper
##sts
##acity
##isor
stall
straw
steroid
##idas
referen
shim
##urus
ifs
unn
amateur
manually
scream
##akum
marc
donations
armp
##achi
baner
flora
skull
maturity
##issance
bios
earns
economically
provision
filters
##mann
pope
swear
psus
worthwhile
antim
sender
barriers
oppon
couch
practically
penises
moderate
bhut
holders
measuring
essays
captured
respected
actively
rottwe
collectively
separated
referral
utah
matching
deposits
contractor
containing
wildest
width
behavioral
criminals
neurolog
principal
sponsorship
akh
khal
believed
festivals
talented
rabies
hunting
arthur
warrior
http
minerals
azerbai
atrocities
methamphetamine
satisfaction
unsubscribe
pneum
94
93
dhan
dwar
eco
gest
kir
mph
ry
rows
render
xperia
##uity
##inform
##anmar
##alf
##etta
stub
myanmar
shame
##uries
##ista
unreal
unrequ
usc
##unal
abc
acry
imply
appropri
coaches
pointers
programing
incoming
involving
undergo
caltech
##ertain
trave
backwards
belkin
blacks
regrets
highway
testament
insan
insist
detox
follows
obam
signify
socialist
sniper
forecast
distant
##boards
painted
artwork
politely
stayed
movements
starving
microphone
2009
copied
promise
portland
gluc
corporations
holds
domains
magnets
attended
fairly
associates
distribut
obsession
resistant
niche
masood
sequel
##listed
hobbit
mp4
orientation
dynamics
thicker
inspire
clinic
ownership
sulfate
seduce
granville
vaccine
auction
fingerprints
template
girth
watermel
nightmares
kentucky
rituals
toothpaste
hicc
constipation
bhagavad
browse
banerjee
unrequited
58
7000
aur
craw
dl
dair
dnc
fc
iocl
lions
rope
sama
##sa
##aids
##reen
##eries
##eno
##icut
##icular
thc
ster
sting
##idated
notified
unic
usmle
pep
amity
manners
clip
arj
prisons
contag
brick
##fty
agenda
flame
monster
laos
indicted
waterloo
winds
distro
##bians
kindly
restart
prosper
idaho
modelling
speeds
founding
pcb
westworld
immun
geforce
landlord
landforms
puerto
youngest
twitching
sections
bulgar
jewel
robin
buried
burned
neutron
reported
pulling
categories
visualization
procrastinating
interactive
spoke
forens
restrictions
scalar
kalam
rabbits
scorpion
poorest
franklin
vedic
stealing
upgrading
guarantee
tougher
encryption
emerging
spacetime
yawn
announcement
desperate
preschools
cockroaches
telecommun
##erobic
houston
inauguration
telegram
heritage
dairy
5v
cage
drav
fals
fps
gro
jane
kab
ou
pend
##sha
##oh
##person
##city
##fi
##aine
##aissance
##bec
whist
##inely
##alo
##itivity
forums
##acare
##roe
##rium
##agic
meets
comprom
pluto
##ountered
##aved
newborn
resc
resur
recession
symm
firing
worlds
brill
nova
internationally
thrown
sims
remind
biochem
drdo
traveller
finn
processors
generations
##teen
tempered
reduction
calculating
pornstars
trips
##ographics
objectives
embassy
latex
variety
malt
licens
cooling
eyebr
observed
##ademy
mexicans
perfume
revision
telephone
scenari
encountered
journals
mountains
residents
yogurt
comparable
chandr
renaissance
crowd
montana
##karyotes
filipinos
confirmation
uncond
elephants
chihuahua
aeronautical
rothschild
vikings
rottweiler
dravid
scenarios
01
96
bic
hes
ie
ping
pis
rhet
s5
tl
ties
uv
ucla
vest
vibe
xml
##lal
##wash
##je
##bot
##heet
##inagar
##eli
rey
##lyn
##urities
proton
fright
frames
maf
trucks
meg
##outs
amster
scala
schen
accents
##abs
expire
arous
grace
cheer
incent
actuar
invoice
carriers
##ductive
genetically
transcript
cares
corp
minnes
endorse
hardly
himal
poster
##ancer
##versity
diego
treating
microcontroll
immed
landsc
skinned
diets
annivers
hypert
structured
subjective
passports
denied
##oked
##ilesh
launder
probation
##ija
ignores
concentrated
picked
regarded
astrologers
laden
html5
pulse
radioactive
container
murdered
resistor
rico
nuts
genuinely
professionally
aspirin
obtained
believers
hatred
nickel
struggling
poisonous
chapters
revealing
boundary
dictators
continental
mathematicians
execution
responses
farewell
allergies
cyanide
multiplayer
mughal
##otherapy
jfk
centrifugal
luggage
euthan
antimatter
akhilesh
azerbaijan
contagious
amsterdam
schengen
actuarial
minnesota
anniversary
39
57
720
dash
fond
fms
kb
null
oyo
pmp
panda
rats
##uated
##gation
##bro
istan
thar
##iram
##oling
##utory
##ifies
neur
uncle
unpop
##iex
abrupt
acm
##iah
johar
expense
reserved
##ema
recurs
##duled
priced
sai
chel
overp
nost
invol
womb
laund
suppl
ministers
##tsd
capita
fallout
civilizations
brokers
canadians
sellers
legalized
statutory
baloch
##inson
erp
featured
experiencing
hype
knowledgeable
racing
discipl
maximize
##liance
merged
globalization
africans
ghaz
hydra
icpc
embarrass
detection
representative
unfortun
discontinued
tables
etiqu
gears
crowdf
lionel
thanksgiving
oscill
vaping
slee
mathematician
demonitization
lobster
hypocr
illustrator
nmims
tropical
hierarchy
laravel
plagiarism
dfrac
fatigue
acrylic
traveled
obamacare
rhetor
immediate
istanbul
1b
dhar
duck
hbo
k3
mri
puss
s4
tender
ticks
##iors
##iens
##camp
##fin
##hazi
##jas
theft
theists
dots
docs
anna
stares
revel
##utter
##ithik
##die
##illance
prohib
tru
conferences
ally
alchem
aliex
unint
##aprio
engaged
intp
intend
clou
##ivate
expir
expend
outgoing
served
sexist
roku
reads
primar
##ashian
endange
costume
ridge
culturally
specs
caller
128
equator
musicians
microp
brook
taxation
armor
##ratic
directed
suns
functioning
studios
geology
deserts
rolex
amounts
licence
dawn
tenure
scheduled
registering
hrithik
mahal
iranians
benghazi
colony
parks
earnings
domino
ionization
knees
feminine
chandra
migration
mongodb
consistent
frustrating
rifles
trigon
farmers
comprehensive
surveillance
injury
revolt
diplomatic
ammonium
chords
ussr
dicaprio
bodybuilding
inequality
kardashian
dongle
glucose
watermelon
chelsea
aliexpress
endangered
dear
dense
dirt
ets
erupt
hrs
jall
jones
lil
nipp
samp
tear
##np
##tx
##pes
##iary
##fing
##kini
##14
##zed
infty
##orking
##etric
canton
bean
stair
##irm
shoo
doesnt
orchest
##urning
prost
##agra
chal
trap
traction
unfriend
soy
abused
adul
##ella
resem
##sius
disres
offshore
monoxide
1000rs
trait
repeal
remains
corps
charter
insom
##raction
masterc
harvey
confed
controls
dealership
psychic
freely
magical
mixing
diffusion
inventory
soundtr
opera
radi
footballer
revolve
osama
amongst
combinations
robb
architectural
renting
definitely
rolling
casting
campaigns
skyrim
deposited
cucum
soulmate
counterp
tyre
nihil
cvv
breeds
copyrighted
cowork
promoting
finishing
dilation
cluster
shivaji
wondering
kenya
elderly
absorb
barely
photographers
slogan
anchoring
invalidating
inspector
cardio
gentleman
abdul
lifespan
etiquette
diz
gc
hsc
hana
jenn
kak
m3
xam
##yr
##hr
##ao
##kim
##65
##bage
##xer
##atra
##arth
bee
bears
stance
##verbs
choms
demat
##osing
alto
##apur
spont
##aining
intending
adidas
##ivism
##pta
##bson
outlet
symp
contents
watts
bane
marker
invitation
businessman
backlogs
##ocial
lax
seeking
decades
repo
transf
biography
##arks
##arket
valent
postgrad
swip
listing
meta
applicant
potato
sundar
sunburn
liner
organis
fauna
hindust
##ighter
approval
difficulties
billions
wwi
bhatt
deadly
kara
cricketers
##walker
judges
scripts
hiber
targary
sensors
destroying
upside
duct
lasik
rajya
disprove
duality
pretend
heavily
corrupted
everest
prostitutes
optimal
coworking
promoted
hatch
buffer
icons
buddhist
tigers
ravi
aspire
##ogenic
pedoph
riots
irritating
uncertain
negotiate
comedian
mvc
compressor
aamir
mermaids
scooter
estimated
overwhel
##rocessor
morocco
ottoman
prejudice
##economics
inexpensive
bloomberg
zomato
forensic
chomsky
2k
88
aj
duter
eos
hipp
json
lann
lany
vu
von
##nar
##noon
##lines
##hole
##gging
##51
##onin
ingest
isc
ana
##alia
canal
forth
##rot
##roit
ree
moz
##uten
##riya
##ulas
meer
mega
neon
uno
##iere
##unding
##ivores
afternoon
##duces
safer
sauron
brut
bride
emma
monroe
infj
freezer
decay
detroit
##apping
##sche
swall
##ahar
tvf
defines
milit
natives
punct
souls
patch
patents
battlefield
directions
organism
methodology
meetup
branding
romans
competitor
nuke
portra
fargo
missou
daugh
positively
layers
misunder
dyn
violation
commercials
detector
beaten
kidn
##asmic
skywalker
kitten
expressions
purely
brazilian
quoran
component
gibson
nsa
turbul
zoom
vanilla
alexa
photographic
wasted
searches
allahabad
intuition
celsius
recycle
shaft
disturbing
sulfuric
lsd
coincidence
monopoly
perpetual
rrb
ambassador
trichy
briggs
bhutan
brilliant
balochistan
hydraul
pussy
jennifer
duterte
daughters
900
brav
ck
crab
dare
dile
gol
hv
mec
mul
pw
ptsd
qm
ssl
tin
vcs
##years
##frame
##map
##ev
##kil
##jis
##essee
##ergy
##arma
##ione
##asy
stability
##amas
##eco
##ecess
##kee
##versible
reinstall
shoud
##riage
##ppi
meme
deodor
betrayed
sevent
plast
intake
##udd
clan
##uster
muse
resort
persist
noam
novice
accountants
buyer
##leton
curly
##ensional
##ocon
topology
throne
generic
##coder
bikini
##psc
surren
returning
demol
demonetized
sliding
30s
mixers
filmm
deadpool
daener
##liers
denver
ecu
nitrate
##hammed
##bean
bonding
focusing
semantic
regardless
dimensional
referring
mirrors
disputes
colonize
90s
supporter
garage
polyg
millenn
borough
corner
rabbit
aluminium
reflection
assigned
assignment
hunger
impeach
metaphor
wolver
submarine
moistur
annex
razor
threesome
kazakh
pneumonia
hiccups
laundry
dizzy
postgraduate
karaoke
daenerys
1m
4000
54
56
5x
97
bure
fri
fade
fidel
gix
ions
jin
pars
urug
voices
##nom
##rc
##aired
##dess
##77
inver
##ori
todd
##arre
##iches
##stein
##aser
##iso
##issi
beams
liability
lipton
mapping
chol
exhib
peers
therefore
heater
premar
##quila
tequila
serials
personnel
gui
emig
efforts
colleagues
americas
bigg
payroll
governance
insect
valve
valued
hairfall
costly
goddess
elab
selfies
##ikatt
edison
1970
slack
baraka
californians
2003
fluor
verbs
petition
filmed
clearance
shopify
inclined
ethanol
mbti
sandy
nitric
enjoyable
symbolism
demanding
separately
categor
sixth
synonyms
dispos
telangana
mcg
richer
romania
##radun
egyptians
sponsors
extraction
kilog
srcc
ripped
roshan
shapes
synthetic
enlightened
rowling
fertility
immortality
guests
vishnu
emojis
delayed
imperialism
molest
lithium
scottish
sulphur
lungs
descriptive
sarcastic
juris
heterosexual
astrophysics
bankruptcy
disgusting
dehradun
refresh
anthropology
hogw
backpack
shimla
samaj
jallikatt
cantonese
disrespect
insomnia
swallowing
missouri
wolverine
jallikattu
68
aunt
asexual
bend
bree
bending
dermat
fog
genders
jb
jen
jbl
josh
leth
mens
mrs
pine
tears
wick
##rick
##core
##hz
##vy
##zheim
##reciation
inorgan
##owa
##inge
toshi
##itudes
##lee
##igm
reaches
orph
##urai
fry
##ulus
##ulates
conven
##essions
alot
alum
alzheim
unrel
abbre
##angular
##logy
intimate
premature
donation
##quil
##abling
expose
outstanding
perp
brid
disability
overhe
guidel
carib
traitor
developments
operators
proportion
##cobar
factual
valence
haircut
showed
showcase
##ernity
metrics
edx
slip
walker
oneself
groupon
geographic
tracked
oils
packs
mississi
preferable
moderators
##comed
##oka
potentiality
fitbit
vegetarians
predicted
violate
streak
dryer
nyu
responding
premiere
halls
discontinuation
tribunal
aspirants
threats
advisor
foil
grammatical
buffalo
escobar
menstruation
digestion
rectifier
spirituality
ignorance
brushing
hangouts
bcg
arthritis
spaceship
mushkil
huh
porcel
chromosomes
navigation
recreational
vampire
intentionally
massachus
wrestling
charismatic
asean
guidance
unpopular
inorganic
toshiba
abbrev
guidelines
mississippi
69
650
dess
dba
dunk
fou
grab
iaf
rang
##rations
##mons
##gal
##dated
##oning
inherent
##encing
toll
##ilit
thus
stadium
myopia
liz
##illes
exter
ascend
amm
lovers
##akash
timet
happily
examinations
syrup
writes
consol
nostal
curves
colleague
medi
downgrade
mineral
indoor
basin
bibl
energ
boycot
retired
##aik
kindness
extensions
civilian
bros
idle
textile
cuts
treats
sunlight
smokers
angles
liners
mistaken
colder
attacking
portray
packaging
cookie
14th
annually
qualcomm
homo
homoph
homeland
observ
ghana
touristic
claus
burnt
analytical
sensitivity
quebec
scholar
grandparent
maintained
comparative
stuffed
indicative
typh
pumps
lucrative
kickass
tennessee
audition
kila
shocking
dissoc
gsm
concerns
extroverts
##what
awarded
fascism
linguistic
ayurvedic
flexible
plugins
reproduce
amplifier
reinforce
kanpur
responsive
obviously
championship
stabil
convex
mysteries
mormon
oregon
ernest
horcruxes
schedul
##informatics
jewelry
ouija
crowdfunding
alchemist
hibern
dilem
gixxer
premarital
hogwarts
porcelain
massachusetts
63
cin
cts
fah
hood
kund
kany
ost
pich
pins
tn
tent
taco
vast
wired
xav
zika
##side
##miss
##aj
##was
##wah
##37
##atomic
##heit
induce
isi
isa
dop
##arius
stated
hag
##urable
##urious
##pppp
trilog
unsc
betray
goku
##endicular
afcat
acetic
phant
adverse
coat
leaf
upward
grounds
tapped
reserves
##izers
outdated
##ogene
preserve
overload
boom
herb
ansys
winners
throws
readers
keen
endopl
costco
talaq
reticul
penn
russ
demonst
panama
determin
microbi
##ibal
larry
nationality
quantities
mothers
racial
##ffered
protector
streets
hamster
paths
sweating
malaysian
escal
duoling
dispose
contraction
32gb
flagged
kaine
uniforms
believes
nagar
iconic
clicking
paranoid
frustration
plateau
omega
rectangle
##rosion
##hydr
matthew
revealed
bahad
perceived
respiratory
vedas
roughly
220v
metallic
alleged
vendor
hemisp
wolves
batsman
twenty
buffett
tampon
unlikely
steroids
laundering
neurons
mastercard
uruguay
alzheimer
perpendicular
fahren
pichai
##ogeneous
endoplasmic
duolingo
1a
arist
dw
dice
erection
hua
m60
pess
pup
sang
sink
sisters
tire
tqwl
woo
xii
xcode
zoos
##sen
##tp
##pit
##had
##hya
##vi
##bes
##beth
##anian
invert
andre
ongc
##ishers
stunt
##otle
hab
libra
##opard
wears
prox
mahara
shoulders
##osa
notation
alger
##unct
anytime
phases
##akin
imped
appet
joh
acca
accred
upwork
grat
taurus
##uea
##lectric
peroxide
prescribed
brass
smash
buyers
herpes
everytime
infr
profound
affirm
avoc
formats
waterproof
webcam
popul
populated
animes
majoring
entang
##ocks
##biosis
openc
resting
worthless
macbeth
fallacy
speeding
##ibrium
multiv
copies
packers
fewer
brave
operated
billing
olympi
excuses
israelis
mails
architects
integrity
sexuality
floating
respective
locker
sensation
collector
naming
sensex
##breaking
representation
introverted
ranbir
walkers
ultimately
polynom
targeting
abolish
naval
hungary
judgement
biodi
bioinformatics
diagnosis
stalking
sacram
secularism
romeo
jawahar
forbes
surfing
vibration
ellen
tissue
multiply
execute
##itarianism
dalits
folks
evapor
borrowed
mysterious
pyramids
spoilers
unprotect
grapes
symbiosis
neighbors
referend
landscape
dictatorship
brooklyn
targaryen
caribbean
dessert
biblical
kilauea
phantom
reticulum
bahadur
fahrenheit
76
78
750
92
bent
bain
bounce
borders
bamb
cone
cul
dp
fame
h4
iod
iift
kel
kend
khar
npt
pale
rises
sessions
wig
zer
##rh
##rates
##forced
##hus
##hous
##zu
##zzy
##inates
##enol
##arbon
##ilst
##ilation
##rod
##amins
##irable
reapp
##sei
##antly
unre
##wei
heated
##arding
marital
##ivated
##ptic
mukesh
##dev
guides
cargo
mona
monot
median
proficiency
transparent
incredible
regulation
propel
technic
finals
messed
##aze
hoff
haram
harsh
nonpro
projection
##othermic
freight
safari
mixes
##ostat
urinate
18th
bloggers
immoral
verge
likeli
promising
hitch
deeper
customized
hosts
radar
collar
collision
millionaires
archae
displaced
philosopher
burst
burger
madison
titanic
chromebook
angelo
##ecuted
gandalf
##esterol
tournam
contractions
transforms
beside
procure
suspect
possessive
samples
heavier
hospitality
criticisms
cdma
occupation
sucked
chlorine
norms
lucy
familiar
membranes
pandora
explorer
anchor
ayurveda
1971
sprint
clarification
warriors
skateboard
cortex
vivo
surprising
armenian
contradict
inertia
encrypted
pistol
humidity
semiconductor
proprietorship
mafia
valentine
meerut
cholesterol
alumni
likelihood
1gb
61
91
a1
bis
bod
ese
fd
gk
gwal
hz
hary
hank
hann
jpe
jnu
kfc
ned
osh
pd
rti
tf
vess
xy
##school
##non
##tec
##tree
##yrs
##cin
##cupid
##mal
##mill
##mans
##equ
##gence
##dog
##dles
##dream
##zymes
##bia
##hell
whilst
##reed
inqu
##itt
##edkar
andy
##acs
stip
stiff
##aman
##olt
##verages
shaking
orbits
fractions
asbest
atac
alter
unp
##akar
heath
intjs
coc
newer
##arya
grill
##iverr
brom
accountancy
underground
understood
evolving
numb
informal
genres
secede
corgi
priest
##screen
##ropract
surat
hotmail
advocate
webpage
##ribe
##ricular
civic
privat
edm
demer
demographic
raf
antis
##ushka
iitian
exploration
connecticut
debug
reacts
avoiding
creator
portion
consideration
analyse
##odegrad
missions
activa
approve
##india
describes
narrative
elsewhere
selecting
bhu
ethi
necessarily
treas
observation
rockets
definitive
translated
scripted
lateral
includes
queue
pulses
sapiens
contractors
transformers
sdk
replying
##ghz
forwarding
manipulative
ssn
ambedkar
lesbians
scotch
accelerate
promotional
bullets
restrict
giants
composer
extracted
sansa
suspended
chiropract
sediment
pixar
panties
pirate
stylish
coughing
fleas
rodrig
royale
pentium
inherited
abandon
hashtag
stainless
gopro
refrigerated
convection
unstable
circumcised
viscosity
troublesh
reincarnation
envelope
wardro
opponent
pepsi
bulgaria
telecommunication
abruptly
sampling
lannister
kazakhstan
elaborate
jurisd
dopamine
biodiversity
unprotected
referendum
gwalior
67
911
bak
bcc
dread
fp
fiverr
iowa
j2
ld
nift
rai
sne
vy
woke
##ebr
##hang
##dn
##13
##26
##heon
theist
##anna
inmate
##eda
beij
##ading
comcast
##ifiable
enzymes
neft
alloy
unav
compile
gov
manif
##ipher
hered
clark
covert
allot
allergy
expon
exposed
intercept
##upac
butts
discl
elective
electors
commute
actuary
##owns
500k
solic
opine
empir
goverment
biodegrad
viewer
viewers
legion
interviewing
riddle
postp
assert
assurance
enthal
capric
applicants
##iki
losses
ids
cease
gains
eyed
logging
slam
slope
cycling
trials
courier
touched
recruited
tracker
promised
embar
personalities
dieting
towers
squir
tableau
##shot
illegally
prints
revise
ruined
drawings
##hamed
feeds
pitt
gymn
smells
titan
titanium
tarant
dressing
closely
represented
utility
loads
transformation
impressions
dominate
dominated
casino
octa
unsolved
tabs
vlc
jerry
₹15
##boro
advisory
fellow
satisfying
dilute
disneyland
bsf
dumped
##mohan
prayer
attempted
mocking
tonight
##written
cersei
absorbed
ancestors
refugee
royce
1947
amplitude
patriotism
reinforced
arya
aryan
saturday
coordinate
h2o
accelerators
ddr3
depressing
nlp
equilibrium
bacon
pierced
proportions
descendants
dolphins
biochemistry
microcontroller
etsy
lethal
grandparents
hibernate
hague
bamboo
hoffman
haryana
jpeg
asbestos
atacama
beijing
enthalpy
1s
6000
7k
bry
bpm
dac
edu
jong
jason
lb
ling
nre
owe
pace
picks
sins
tect
tues
tyl
vand
vip
zee
##oking
##faces
##gie
##vak
##2o
##wadi
##bury
##anus
##orrent
dob
anus
howard
##least
arena
##isal
##amus
reversible
shang
shob
##utable
weig
produces
trinity
aso
conan
atleast
alia
alib
unaware
abu
abund
##aint
##andrum
pharma
intent
imper
##idepress
evernote
##ishi
leh
leagues
accum
grants
blister
##irect
findout
pose
prone
chew
wrap
comma
incon
incogn
calcut
##iances
##ensely
helmet
thrust
nowhere
redemption
##loader
camel
catering
affection
costa
fats
greet
assad
1200
lasting
projectile
stays
headlight
##oids
ukule
barrier
baluch
baleno
uranium
receiver
16gb
okcupid
turtle
verse
deepika
viagra
capitalist
silence
cgi
globe
cleaner
continents
gifted
occasion
karate
cryst
240
misc
perfection
contributed
declined
flooring
frequencies
possibilities
freshmen
odisha
cpm
displayed
bootcamp
bombing
prisoners
witty
flashing
discoveries
crores
bullies
amps
unsafe
counterfe
etg
arrival
chandler
derived
##trade
fifth
cupcake
##pcion
pads
##oscience
athlete
tunnel
digestive
psychiatry
raven
udacity
kannad
trivandrum
verbally
telescopes
sketching
permissions
abdomen
implants
tangible
concepcion
ceremonies
saint
insights
nouns
ammonia
elasticity
xlri
loops
ozone
isotopes
nurse
unrealistic
immunity
pisces
expenditure
organisations
mecca
fourier
medioc
isaac
trilogy
huawei
##husi
demerits
alibaba
calcutta
baluchistan
aest
aakash
bart
cite
cyp
dorm
foster
farts
l1
lor
lind
pel
rd
rin
ron
rade
roc
sith
sag
tert
vape
vga
vault
voy
xx
##can
##uct
##85
##38
##org
##aron
##ilion
##asive
##isa
stating
sticks
mynt
hav
lime
##iri
rehe
shud
##adata
##agpur
chuck
unless
sores
seag
goi
spa
scare
scrape
marily
grain
teresa
prism
relay
relating
desired
cau
curable
##ocy
##ledged
transsexual
suppliers
incredib
redirect
forming
indigen
deton
technologically
homeopathy
processed
harbor
humanities
entit
enthusi
futur
openly
reduces
modulation
punished
antidepress
freem
demonetise
lotion
massac
sharehold
touches
armies
walter
westeros
contacted
satire
turtles
ports
mathematically
##asonic
capitalists
hosted
144
csir
##osphere
plato
birthdays
halal
miscar
independently
picking
arrays
requesting
italians
harvest
risky
sweets
airports
gauge
witt
decreases
rivers
bullied
churches
dishon
chloropl
##ulsion
clustering
sikkim
sweetest
rebell
arbitr
searh
stretching
siber
attachment
cylind
cavity
declaring
outsource
implant
jainism
allergic
pancakes
looph
accelerator
hermione
tornado
catalytic
wizard
commodity
stranded
insanity
eyebrows
aroused
euthanasia
720p
disciplined
clouds
ckwl
ecuador
russell
osho
rafale
tylenol
shobhit
ukulele
myntra
marilyn
370
59
ald
bore
bale
grip
hk
hass
hint
jsp
kite
kai
kaf
kpop
lub
m2
niss
nurt
pala
rick
rcc
ramp
tcp
##the
##pay
##iating
##cet
##mah
##hun
##gic
##vest
##bat
##bound
ism
anderson
thong
beating
stink
stool
##oting
##ayam
##adder
##diep
##riku
indiffe
frm
maz
makers
tran
dehyd
conque
suite
anyhow
##wealth
##akan
didnt
##astra
allied
reside
bucket
##athi
bran
brace
brings
noisy
guwah
cave
emir
curd
##lication
internally
higgs
##fulness
blackberry
genie
affinity
supplier
formulas
biologically
depict
interviewers
##lla
catcher
autonom
elbow
12k
12000
##ikhet
sells
breaker
scientology
supervis
patagon
liters
barrel
correctness
practise
mentality
uberx
vacations
##haw
screenplay
ranks
selective
squared
##comp
sanriku
enjoying
layover
displays
curbed
sadness
rolled
palms
jungle
teleport
collections
benj
scammer
ladakh
ranikhet
##iabad
walked
claiming
dentists
threatening
tyrion
cuban
augmented
wipe
##rifying
restraining
northeast
spreads
discriminate
merchants
panty
motorcycles
upgraded
tensile
irritated
reproduction
peanuts
distractions
nicknames
mushrooms
grave
conclusion
cyanogen
bizarre
dbms
correspondence
disappointed
vizio
caucasian
settled
hurricane
downsides
vulnerable
pewdiep
apparently
friendzoned
libya
unnecess
whistle
overpric
trigonometry
transfers
lanyards
portrait
orphan
ascendant
reinforcement
xavier
microbiology
appetite
infrared
entanglement
jawaharlal
##arbonate
fpga
biodegradable
radeon
cauvery
conquered
guwahati
pewdiepie
aol
ajay
bout
bice
bail
eps
fdi
gin
gyn
kos
kerat
kabad
m1
yug
##nan
##tal
##po
##rise
##rison
##cod
##mother
##des
##88
##bh
##bone
##bell
##bows
##atio
whirl
##iche
shat
##adh
##agger
chill
chub
exempt
ashamed
##antically
notion
uni
unified
##apolis
peppers
##heric
amit
amino
logs
phuk
appare
##aller
##ellular
margo
leban
afterwards
blast
blamed
daydream
serbia
noah
agreed
monolog
goose
mediate
roi
courage
charming
advising
swap
extensive
extrac
capability
morph
morals
modulus
publications
iitjee
pathetic
turnover
2000s
barat
ipu
urgent
smoker
functionality
185
coldest
iqs
commitment
1300
##advisor
deadline
ballon
destruction
karl
listener
layout
kashmiri
influences
attendants
kisses
senator
mutant
hiking
odys
routes
schemes
dimples
documentation
catching
validity
contained
complexion
liberalism
experimental
autobi
butterfly
bulletproof
mahabharat
infections
diabetic
mortality
srinagar
exclusive
dmt
crashing
fermentation
rectangular
authentication
chromat
boundaries
chronological
fertile
##bbles
mixtures
solely
welcomed
1984
sealed
modify
physiology
zeus
phenomena
downvote
vendors
saturated
mncs
hsu
sophom
bronze
herbalife
1960s
persuade
tensorflow
rudest
acknowledge
prophecies
pavilion
metallurgy
docker
bicarbonate
ghaziabad
unfortunately
sleeve
nipples
coworker
inverter
bridges
pessim
johnn
avocado
kharagpur
hannibal
unavail
capricorn
tuesday
inconven
kannadig
mediocre
indigenous
nissan
phuket
4kg
5g
bog
cbi
dasa
folk
fmc
hay
hence
ike
jak
mud
nif
nim
o2
oun
ranch
sult
turing
ure
vig
vald
wu
##nit
##lif
##yani
##pace
##pable
##hat
##away
##gical
##dh
##doms
##zac
##zema
##wick
##jah
##inational
##anu
##onics
##onacc
##aler
##asis
beverage
##eck
reagan
shak
movers
##umble
quart
trav
##inees
alan
##arta
suv
sued
##angel
spit
##andy
plaster
scul
scrum
timing
cohen
leaked
##quin
##ques
accom
upwards
interval
tejas
blues
##ouncing
coloured
sake
saus
brag
##icking
##fta
##def
desc
deserves
buys
##owned
traum
helm
topcoder
roor
infp
empower
ims
imac
ministry
indira
homepage
##hesia
psat
assam
distinction
entries
##ankar
12v
lighten
painters
sleepover
capabilities
parach
psycho
calculation
latitude
publication
steven
terrestrial
##osta
##ships
traders
originated
awful
packet
coloring
##ophy
operational
transferring
##comes
karakum
listened
ec2
eczema
dublin
resolved
craving
chickens
collective
dimin
martian
capacitors
rainfall
bayes
agreements
sorting
nicmar
##radamus
shutter
ringt
bluest
rhode
pranks
rahu
versailles
literacy
affiliated
falcon
davis
dissert
shifted
kalah
lamar
suspicious
rumor
buttons
phenol
tuna
attempting
atlantic
circulatory
deduction
gigolo
hubble
turbocharger
comedk
censor
drilling
templates
obligations
climbing
sophistic
supermarket
twenties
gyro
researchers
downt
fibonacc
veterans
shifting
wallpapers
d5200
reversed
fluctuations
dhanbad
dwarf
hypocrite
spontaneous
surrender
emigrate
scheduling
shanghai
incognito
overpriced
kabaddi
mediatek
baratheon
sophomore
nifty
valdosta
fibonacci
2a
320
41
83
940
aka
aerobic
bt
fx
fores
kut
kpm
loot
nos
til
tread
vo
vmc
vtu
##ride
##cr
##cal
##card
##commerce
##fm
##front
##masters
##ebb
##gars
##dings
##kell
##vm
##via
##watch
##atile
##rels
##inas
##erning
inh
ingr
toes
##arith
##alog
##stick
stu
##addy
##lysis
mohammed
##urricular
prozac
##imed
asap
deem
##usible
compose
compute
##iev
##apar
suffered
sein
goebb
spears
acron
phobia
##lose
heels
hepat
intr
jokers
##gered
haskell
resid
happier
##umps
blender
perimeter
##uba
contr
bras
brack
disrupt
wrink
noble
carl
carp
mono
##lette
weightage
skirt
importing
laug
matri
reps
opens
marketers
kevin
strat
deliber
deport
##psy
traveler
obese
talents
equipped
lighting
extinction
metam
190
1950
taxed
logos
barium
barcode
candle
##holes
186
accessible
creature
precise
diving
convicted
cooker
stripe
singaporeans
discard
seemingly
surviv
yorkie
arguing
gadget
philosop
assistants
association
handset
skydi
thermostat
##continent
##ukone
executed
hawk
tagged
##ometers
aadmi
therapists
clocks
minorities
amendments
inspires
fifty
##ulsive
pillow
geniuses
rankings
padukone
poisoning
discounts
psychiatric
beggars
constructed
1962
syntax
drake
mesh
piercings
hypnotism
modified
granite
licking
mobility
aaa
slaughter
theaters
sharks
idiom
orbiting
psychiatrists
spacecraft
allocated
mormons
sarcasm
researcher
repetition
1980s
datasets
crucial
inheritance
nadar
alkali
rye
appropriation
himalayan
nostradamus
supplies
embarrassed
dynasty
hydraulic
moisturizer
exhibition
procurement
counterfeit
tertiary
incredibly
patagonian
extracurricular
roorkee
kalahari
kpmg
goebbels
820
bapt
cass
dt
doug
gums
hl
jol
lending
loosing
piv
pens
rams
slog
tilt
tzu
##nr
##nis
##lists
##iro
##mation
##mand
##eb
##hou
##hov
##kk
##vada
##whe
##ativity
##heiser
theses
inactive
##oro
##orus
##orial
anarch
##omin
onions
##isers
##rots
styl
haiti
##irk
##verb
rebuild
##uty
somewhat
##rients
##feld
ch3
exceed
tragic
asyl
deval
conn
uncl
compact
abor
acer
phon
intuit
##actic
bytes
clips
donor
##avas
upes
##berries
thinker
##emia
outfit
outcomes
##ogy
pran
smiles
improv
visits
warner
buses
curl
curios
##licit
sheep
##ocation
winner
simulator
humour
##forest
imt
mines
formally
depicted
bankers
obes
centri
centered
##hesh
popping
termin
godaddy
mechanisms
currents
155
##culus
privately
attracts
militar
logarith
raipur
header
virgo
iitb
demonetising
puts
credential
volks
189
britney
verses
recept
multim
##ographies
accessing
copying
precious
footage
misses
inventor
describing
maya
sonic
qualifying
destruct
denying
2100
stationary
kingdoms
teachings
purchases
##awning
translator
mutually
anonymity
castor
rejects
##ringe
collected
routing
crossing
weddings
duo
distribute
paraly
charts
vocals
professorial
grande
ivanka
garbage
masks
croat
crooked
furious
broadway
chairperson
etl
scotia
submitting
derive
bottled
venom
migraine
criticize
kickst
circumference
stickers
mortal
simplified
shocks
cartoons
ufos
lightsab
exclus
settlements
atmospheric
ohm
gallon
tunis
hopeless
otp
pipeline
screenshots
1965
marshall
juliet
privileges
jrf
caval
tolerate
hookah
roommates
spells
surprised
laplace
sulphate
wattpad
chromosome
vimy
surrounding
vampires
tirup
embrace
roger
plausible
##wagen
recurring
sublime
veto
saree
dividend
maiden
superstition
neurological
prohibited
microprocessor
sunset
robbins
counterparts
hindustan
brutal
samajwadi
dilemma
maharaj
nonprofit
stipend
rodrigo
troubleshoot
jurisdiction
autonomous
gynec
matrimon
philosophers
asylum
volkswagen
390
cbr
dancer
ein
fred
g2
gill
gim
gul
gord
kas
lol
lank
lava
m7
nol
ota
pors
rapt
uter
yoda
yawning
##yam
##yanka
##cled
##fo
##mouth
##uance
##ucc
##gged
##ws
##°c
whipped
theor
##inced
##onal
ist
anest
anakin
##omo
##ications
##icherry
##storm
began
##enter
lig
##urit
##agu
chant
chak
chau
##ulators
nevada
alkal
uned
peel
##unning
abn
abort
lod
impract
cling
workflow
feather
##raj
newbie
archer
arteries
##emen
prescribe
disabling
offence
overcoming
overflow
descent
desires
lovely
guided
monso
trapped
solvent
rover
decry
repel
repaired
systematic
creed
priyanka
classify
surpass
interviewed
designation
hotstar
brew
hover
proves
somalia
harley
fatty
sentiment
mechanic
builders
##brush
deflect
##ernal
commonwealth
paras
cereal
latent
latter
slide
maggi
ordering
masses
cycles
barry
##iban
informed
2500
bitch
explains
convinc
financing
bulbs
squat
##tawa
cooler
identification
frontend
sudan
entrepreneurial
envy
burns
jackie
reciproc
damaging
castro
conductors
detectable
jailbreaking
kitche
honeywell
browsers
opposition
factorial
casc
mascul
editors
nominated
nafta
chocolates
venmo
kicked
renewal
scandals
640
substant
adapted
diverse
lambor
cinematic
compatibility
toilets
discriminated
ottawa
diagrams
bahamas
pirates
laboratory
baldness
boson
swallowed
recycling
fuels
demonitizing
meditating
deployed
metaphors
downvotes
benchmark
inferiority
pencils
shelter
legendary
neighborhoods
shrimp
fracture
overthinking
pondicherry
prolong
balloon
counseling
oakland
stubborn
rhetorical
primarily
uncertainty
seventh
jbims
hemisphere
##manship
chiropractic
miscarriage
emirates
whirlpool
chubby
johnny
dissertation
seinfeld
unclos
curiosity
obesity
impractical
520
86
a6
bri
bount
binding
cached
dor
dns
ect
edible
gp
gil
gome
gast
graham
ive
ibs
i20
j5
lite
mim
niet
nasty
sits
tess
ue
umb
vail
wy
z3
zap
##oir
##run
##dale
##vance
##worm
##inr
##inum
inacc
##ardi
##leck
thapar
##asse
##isen
beers
##olas
##ignt
reaching
rebel
shout
shaved
##opot
mohammad
##urate
##aghet
coma
ifb
quar
chili
asph
deja
##usal
##ths
##iston
##aren
unl
unread
usain
##ieved
##ective
seper
spaghet
scram
heap
appliance
interrac
tah
##iza
##izational
##emorate
outlets
earlo
dayton
pores
brides
disasters
cheater
overpop
commemorate
evidences
differentiation
attire
salty
reminder
videocon
affleck
hackath
corning
registan
rsus
avenger
highschool
##arkar
depri
drums
endors
posters
apne
taklam
smartly
reviewed
milan
demons
demographics
snaps
headed
jehov
wrongly
slr
sharepoint
candles
bali
refusing
contacting
organizing
organizational
##habi
trades
traded
epub
neglect
farmer
customize
sounding
convinced
gamer
paperback
csv
firebase
##tmeter
maxim
coolant
holdings
preventing
domic
concerning
ecology
eventual
supers
boxers
defining
ratna
##offs
##afin
routines
measurements
wednes
representatives
wisely
journalists
substitution
##ghini
shutdown
naive
indefin
nios
cubes
venice
predictive
scales
oliver
honestly
quadc
rumour
evaluation
folders
louder
assassin
zoho
merchand
mlb
compliments
synthes
pandas
eradication
briefly
parliamentary
surfaces
nerd
sloven
emerge
legislative
rappers
involvement
danish
hundreds
##orphic
loyalty
chihuahuan
isolated
hijab
screwed
hormones
gathering
thirsty
caucasians
wallpaper
intolerant
nirma
##yroidism
distributor
licensed
chandrakar
confeder
turbulence
abbreviation
nostalgic
iodine
definitively
sedimentary
j2ee
headlights
entitled
dishonest
rebellion
palawan
apparel
sculpt
slogans
aborig
gordon
convincing
lamborghini
gomez
asphalt
taklamakan
5c
79
73
baked
cst
erosion
fury
gbo
ganes
hive
jug
jinn
k5
lav
mour
mla
oats
owl
pec
sier
tp
tm
vou
##nheiser
##tim
##oven
##olete
##lation
##eled
##uates
##jal
##bank
inception
##encer
aniston
##alu
##omics
##ican
##store
##etted
ongoing
beeth
beverages
##entin
stake
shine
oranges
##urfing
prokaryotes
chim
exemp
dex
deer
notify
##artney
compelling
##hta
seiz
goat
spine
spart
spank
afmc
impot
adren
2030
##qual
accus
upi
arun
grows
##ods
blaz
##ubali
poe
pock
poets
banner
evangel
boon
flows
monte
curv
traff
googleable
skirts
belts
effectiveness
solids
lawn
crust
crashed
inflam
deciding
simon
##ductors
aven
classy
##cover
biotech
airsoft
endurance
province
obey
hairstyle
posture
generators
##rolled
retro
retwe
apology
restored
##version
brogl
quicker
iris
calculations
antonyms
moms
superv
constrain
stew
ipv
##criber
saturation
mistress
meetings
13th
hyped
jewell
alternator
platinum
obsolete
tamilians
enjoys
academia
##boxing
wishing
ratios
palo
fours
violations
subscriber
sometime
sennheiser
stressful
guitarist
targets
revenues
airliner
virtually
constitu
displayport
acquiring
analysts
wiki
validation
rainforest
tutoring
arijit
sorted
appliances
bowling
hawala
crops
aeropl
##ranti
threatened
arrived
villains
gearbox
repeating
commands
restriction
cdac
##iciary
proposals
clicked
##ersonal
ashoka
cosmetic
assassination
lipids
investigator
ravana
witnesses
champion
guardi
entertaining
whisky
protestant
joints
achieving
selena
fascinating
contests
nanotechnology
smoothly
cavities
superheroes
sandwiches
mermaid
hormone
decomposition
compassion
soppy
annoyed
codecademy
gazetted
intolerance
ankle
gemini
rlwl
sovereign
sovereignt
drowning
vowels
carbohydr
mccartney
vmware
arjun
rescue
finnish
hesit
orchestra
soundtrack
mulayam
impeachment
1970s
timetable
sacramento
manifest
supervisor
##computer
kannadigas
fmcg
sultan
sophisticated
porsche
apnea
jehovah
wednesday
beethoven
broglie
sovereignty
carbohydrates
81
a5
cis
cto
deng
dsp
dizz
gis
ginger
iam
iiser
kath
pon
pony
qoura
r5
rar
rie
rica
sine
tac
tul
wool
wii
##nick
##ois
##oever
##pf
##rous
##rices
##rank
##rane
##erer
##uke
##400
##zi
##wari
##bas
##bee
##atur
##atures
##iners
injust
inhal
##oria
anore
##arse
cana
thru
thief
onwards
##amation
rewards
##ople
queries
fran
traged
merely
unans
peeling
plc
scent
##loqu
##ountain
intensive
intensity
##astically
appra
jogging
##quare
##aby
##abh
arise
blown
##ogens
peripher
##ignment
reliab
waters
desirable
noises
agg
agra
longitude
##yson
caes
curing
winters
cran
infotech
matrices
1024
##issa
salon
suppress
##onders
avid
imax
deplet
surger
hoarding
handic
handled
catches
answerable
hairsty
harris
rider
postpaid
taliban
ceos
norse
statue
accepts
##marking
multinational
filming
automate
variation
mayan
1700
continuing
discour
archive
graphs
switches
coolpad
westerners
merits
easter
medicare
protective
robotic
dyst
##atica
##gae
attendance
unused
smelling
apartments
crossed
symptom
sinus
bootcam
dispat
stanley
vitamins
despise
brahm
authorized
aztec
mandela
darje
scarcity
visualize
revolutionary
freelancers
dentistry
indicates
homosexuals
retailer
kochi
sponsored
scanning
fellatio
auditing
illnesses
accomplishment
quadratic
thinner
cockt
mamata
mamta
spreading
suspense
spyware
ejaculates
peeing
crowds
surgeons
sibm
##petal
intellectually
adoption
365
munich
protests
rosetta
1963
##guard
cursive
yoj
bidding
misconception
vaj
multiplication
fateh
tangent
billy
chamber
https
wilson
geneva
armenia
tubes
deducted
trolls
reconc
sikhism
prefix
adventures
zoology
racket
tossed
armpits
provisional
kabali
recursion
dharma
prostate
deodorant
millennials
fluorine
disposal
mcgill
disrespectful
convenient
kanye
aristotle
polynomial
cyprus
ikea
helmets
treadmill
deemed
laughing
pivot
centripetal
spaghetti
domicile
sierra
dizziness
hairstyles
bootcamps
darjeeling
06
1kg
5m
6k
9g
bj
bust
bhel
ci
cher
cmi
dild
ez
fancy
gat
nord
nause
oculus
pour
piss
rto
sie
sak
tant
tint
vic
yard
##tens
##oft
##las
##rich
##mond
##eep
##aquin
##due
##95
##´s
##rers
##anad
ish
##itus
##static
##esters
forrest
thurs
##ask
##isk
##isely
##rose
stern
##ido
##otion
##iran
shiny
##uri
##chin
##ppel
maurit
chops
trous
worms
ats
##anto
##anti
compart
##unds
abh
ambit
wayanad
##ureka
impulsive
learners
preview
preced
coep
workday
mario
joaquin
accord
##berta
interference
instruction
theirs
percy
persians
sax
agar
gupta
monog
readily
reputable
saliva
regulator
mins
##getic
depending
##pshire
drastically
travelers
energetic
harness
subsequ
subcontinent
comeback
generates
##ahu
123
mainframe
methane
benefited
projected
macs
pengu
parl
##versely
chanak
optics
modafin
irres
logout
slav
patron
litter
cyst
barbad
killers
##ienna
debts
##lessly
fixing
masturbated
reactivate
16th
##engage
25th
verd
romantically
emoticon
summar
##rawl
##ksh
##flies
gluten
performances
soundcloud
screening
hostile
lynd
##jobs
sincerely
sonam
updating
squats
##ritical
bhog
ballot
##shop
merger
critics
essence
magnus
ecological
combinator
##ucated
planetary
judgment
damages
floors
environments
virginia
hampshire
senses
sensory
schema
surely
chromecast
exchanged
duos
paralle
alongside
firmware
polytech
polyester
indicators
obtaining
indeed
dishwas
thinning
necklace
orbitals
settlement
atlas
circulating
marginal
homeschool
poorer
mesopot
jayalalithaa
awakening
paraguay
inspection
jellyfish
coordinates
challenged
lokpal
pyramid
alerts
miserable
vinyl
747
observer
unicorn
pwc
dissociative
algeria
multivit
evaporated
antisocial
wittiest
kafka
benjamin
boutique
bluestacks
foreskin
kickstarter
uneducated
interracial
earlobe
daytona
curvature
jewellery
##ranean
modafinil
barbados
mesopotam
480
aims
aaron
brawl
c2
cng
dab
dms
fries
groom
holog
ih
jig
kle
kail
lak
nain
nile
pom
pagan
rall
rash
rug
sic
saga
t1
txt
tyson
vall
vienna
wd
wah
wonders
zeros
##nik
##oi
##odi
##yon
##rings
##iac
##fx
##fect
##foot
##mys
##haps
##uv
##wire
##hef
whales
##anor
topp
toppers
##aland
##itives
##leading
candies
##isetts
##amines
reass
reiss
revert
reef
shih
##adan
##adia
##illas
##agi
mait
chsl
##ulse
mere
##thal
enact
##ante
amy
goodby
plum
##loid
##iph
##uded
##astri
marg
##ource
lever
explicit
arsen
grind
interfe
resent
bubbles
bookmarking
earliest
pervert
perhaps
##ruck
serves
brits
braking
bridal
dismiss
counts
needy
undert
trauma
##veloped
backlog
105
salv
creams
genotype
increment
coral
regulated
classmate
ideally
governs
##arkable
depends
deputy
##eneres
dried
economies
provisions
obi
harsha
fatal
##auth
godfather
sniff
hearts
hearted
showroom
metrop
begins
brocc
degeneres
psychologically
biryani
pointless
freecharge
jeep
starch
walks
officials
microeconomics
##lessness
practiced
prevents
##locks
torch
verilog
summit
competing
precisely
peta
136
135
twitch
celebration
sects
singaporean
illiter
hypoth
qualitative
squirt
clogged
disclose
homogeneous
identifying
ramen
denial
401
individually
halo
##valued
conceptual
protecting
focal
hackerrank
definite
regretted
telecast
subset
sensible
locks
accidents
sweater
ulcer
##ussion
escap
rapes
commenting
grandfather
baggage
murde
lennon
jaime
1992
nutrients
35k
bulls
buddy
lacking
ccnp
naoh
nepalese
shyness
lucas
flavours
simpler
adaptation
succeeded
essentially
tricky
filtering
participating
pillows
clinics
vertically
indexed
##ascar
weighs
niger
stereo
pleasurable
athletic
brokerage
authenticity
##charging
##writers
kylo
shells
upgrades
behaviors
riy
penetrate
numerology
ruler
whitening
idiot
jefferson
saints
110v
exceptional
desperately
yeast
conveyancing
marxism
fibre
highlights
overwatch
astrophys
persuasive
massachisetts
circumcision
##rahim
pseudoscience
instructions
foolish
pushed
a380
bourne
##keeper
toastmasters
anticipated
rendering
unconditional
revelation
truec
stairs
resemble
xamarin
overwhelming
kilograms
accredited
olympiad
technician
allotted
₹15000
tectonic
weighing
chloroplasts
lebanon
daydreaming
inconvenience
940m
hepatitis
nolan
masculine
bounty
deprivation
pockets
riemann
chanakya
bhogle
kailash
nainital
goodbye
broccoli
a4
a10
bribe
cn
cph
cib
cerv
fint
fountain
gan
hg
hans
hrm
iupac
jams
kms
kelly
l2
lend
lice
lpg
nro
oath
oman
pud
roose
sill
vps
vital
yolk
zed
##lbs
##post
##ridge
##cro
##mble
##mite
##hot
##uren
##urop
##gware
##48
##18
##bag
##blow
##athetic
##remy
inductor
##orrh
##aling
##itting
##icate
##estone
##ilot
##acious
bez
strep
storing
stove
##igr
reich
reuse
sham
shir
##opters
moss
##urd
proving
##ifr
##ateful
quentin
mahesh
chow
mehta
degrad
alf
alham
sep
semit
aman
spices
engaging
phill
intest
##udge
prey
washer
clint
##ellations
donated
leverage
leaking
##avan
##avir
newest
##abil
##umpy
blisters
recorder
##upal
relocate
perspect
counting
##redd
companion
polity
themed
passbook
curry
weighted
##uala
programmes
crashes
credib
transcription
earthing
immature
greatly
finale
handles
subtle
grew
snack
futures
digger
lasts
methyl
showers
defender
defensive
metadata
joins
parse
parade
edgware
euros
panch
freck
jeremy
slots
stepping
volvo
introduct
1877
reacting
115
reception
receives
multic
landmark
epile
accessed
bloody
coldplay
promo
vacancies
bitdef
spends
##hae
featuring
strips
collage
departure
ibrahim
staffy
relevance
revive
40s
resetting
bothered
palant
icai
judging
limiting
telek
sociological
castles
collecting
federer
devast
angelina
ledger
initiated
kittens
80s
narcissism
70s
pgp
decreased
garments
bowler
shutters
interactions
miniature
wirelessly
instrumental
rarest
dialects
buddhists
fundamentals
crowded
ashram
cosmetics
srk
eliminated
lipid
stereotype
surnames
rigid
sabot
paulo
trophy
pipes
bahrain
shaping
aggreg
fucked
hypnot
sasuke
unfollowed
ocw
ayurvedically
tastiest
vascular
mammal
censored
thunderbird
transistors
evaporation
stamped
horoscopes
ventures
submarines
dipole
hanuman
infantry
pseudo
buzzfeed
dataset
fertilization
chopra
d3300
praise
mantra
sindhu
polygamy
dermatologist
dunkirk
inherently
hitchhi
exponential
embarassing
mockingbird
massacre
cylindrical
jolie
ramsay
destructive
croatia
monsoon
decrypt
kitchener
unlucky
overpopulation
slovenia
foursquare
injustice
unanswered
9gag
ambitious
verdict
perspectives
credibility
bitdefender
0x
450
82
cw
cil
dth
distan
ead
eager
eternal
eigen
fy
footing
fermat
gren
grief
hond
ict
jd
kangana
lame
linger
nes
rj
rains
rnc
sb
tides
wart
wounds
xf
##len
##lift
##yy
##pow
##iot
##iards
##mr
##mod
##hc
##gien
##dc
##km
##6x
##zar
##wat
##bles
##heres
inhab
##ington
anemia
##aru
##icient
##stack
forcing
tha
thrive
##isan
beep
behead
##rock
stigma
##otroph
haul
shankar
##uras
frat
chad
worshi
asht
deleg
alright
alberta
undo
sof
##aper
##ooked
sebi
spat
spice
acre
manmohan
phleg
##akr
clause
cliff
covet
##elles
donating
muay
interfaces
blond
blades
thane
##ubility
rely
serge
overly
jobless
guards
caf
calvin
##yped
backing
tops
twil
solubility
##itsu
playlists
crank
crunch
maternity
sayings
simulate
genome
remake
securities
schooling
cori
purdue
payche
imaging
minne
classics
typed
motto
##arka
##hik
drupal
travellers
messiah
##ropic
advised
costumes
socialtrade
sworn
psn
##inesis
retention
gotham
lasted
confusing
artistic
##places
projections
parab
taxable
professions
irn
logically
lathe
antig
jeen
litre
litres
barb
statistic
voltmeter
estonia
geeta
nukes
nuked
##2016
forgiveness
excerc
presented
ibiza
daw
##shank
absurd
necessity
labels
merging
spaniel
illegalization
printf
mailbox
ecst
booster
launcher
puppet
crave
palpat
declining
forgetting
judged
judiciary
predators
fairness
seniors
kva
consumes
occurring
pathological
cpc
charting
bombings
catchy
contracts
murphy
velvet
masala
azure
1995
polyam
etf
interacts
pulls
cathode
boruto
khaki
coward
bearded
refunded
cocker
disappears
prayers
shipped
pairs
reforms
reformation
superiority
utilitarianism
cerebr
mdma
saddam
mongols
lisbon
doubts
libertarians
ellipt
tasting
tortured
printers
deployment
gyms
shawshank
cryptography
glowing
malls
underest
almonds
dunge
woah
publishers
grizz
armpit
resurrection
jinping
exterior
boycott
habitable
tournament
ethiopia
hereditary
solicitor
seagate
siberian
lubric
mazda
jakarta
skydiving
##uccino
clingy
nietz
polytechnic
dishwasher
riyadh
astrophysic
cibil
alhambra
clintons
introductory
palantir
telekinesis
minneapolis
palpatine
elliptical
eul
eject
eiff
fist
fission
fdr
faked
ged
gour
gab
gaut
kor
kay
kuala
lm
mk
mht
nich
npa
oy
pqwl
ral
ras
seth
sarkar
tux
tsh
tipping
uda
vern
vista
wes
wich
yemen
zur
##tz
##oa
##lpa
##pers
##rint
##cans
##math
##mov
##eering
##aver
##gular
##46
##75
##vc
##wald
##xia
##reg
inbound
##arium
##alpur
##icons
##etown
canned
##ented
stit
##otivated
liga
shi
shin
##opy
##opian
mosc
moses
##agua
quarks
trin
dean
deeds
atms
##arte
compressed
segre
amrit
spi
##lob
impulse
adverbs
washed
clitor
feud
leeds
aftermath
accuse
grub
tao
bliss
##ogne
##ruption
serum
brink
disabilities
chees
offending
polling
emf
monica
monarch
500rs
##yps
infert
infringe
freezes
repay
salts
adds
regim
regener
avast
bash
motive
grading
insur
##script
lego
economist
economists
provoking
advances
hardy
valency
catia
lawrence
postage
##grounds
##aphr
snails
snacks
succes
openings
paints
trainers
##plished
parental
projector
macau
morse
brock
demo
anton
starve
superstar
slut
slap
patil
terra
issuance
christie
greenland
masturbations
168
negatives
punt
packets
erics
approaching
celebrating
##pring
175
17th
squee
weaker
occas
##shit
identified
alternating
obsc
cashback
wallace
releases
academically
sandeep
managerial
undergraduates
palind
junction
burner
doubled
knives
attendant
scriptures
fairs
crimea
madurai
madhya
legitim
hambur
conducting
conductivity
cpi
scammed
ulcers
initi
sinx
bootloader
dispro
230
recognise
rainbows
cmu
cmd
albany
albania
expertise
coders
painlessly
conspiracies
ebiz
targeted
explanations
accelerating
navel
kobe
butterflies
clockwise
scanned
wooden
bathing
sucks
ethnicities
complaints
vertebr
spectacles
ntu
paradigm
hoping
rebels
munnar
panther
triggered
insecurities
alloys
celest
gangs
verma
1989
phosphorus
nerves
nerdy
bosses
unconscious
aao
controversy
recycled
appealing
gambler
mvp
cruelty
tsun
kurds
adjustments
thunderb
hugging
confessed
allocate
capsule
##rophy
coincidences
kiit
hazard
lgbtq
reconst
irregular
##torrent
acetate
enrollment
lactose
rtgs
nurses
blurry
balloons
flickr
uncondition
##broken
involunt
expiration
cucumbers
nihilism
kidnapped
plastering
consolidated
affirmative
opencv
nptel
monothe
tarantino
futuristic
rampant
ranchi
accomplished
sausage
credentials
multimedia
anesthesia
alkaline
abnormal
uefa
quadcopter
jinnah
impotence
truecaller
cph4
phlegm
jeenkart
ecstasy
eiffel
09
2s
bind
bled
bmc
bunch
cct
csc
cinc
cengage
dach
derm
djs
dushka
f2
fencing
gland
josa
kuru
mend
nj
nth
nash
nbc
oop
osi
p1
psc
r3
rival
s2
sard
ucs
xps
##table
##rin
##fits
##meric
##hore
##aji
##dress
##zhou
##wala
##xo
##atonin
whine
whiny
##inces
inse
##oup
##ouch
##orters
##ingrad
anand
##arc
##alis
##itz
##omatic
canyon
thaw
thyroid
##isite
##isure
##issible
beards
stir
struck
##ooled
##oppable
##search
prod
##agne
combo
##imony
quint
chai
exotic
trape
deed
conced
atp
##antine
neko
##istence
algae
unions
computation
abap
##anging
##angal
##weather
scabs
heisen
apprent
byju
clara
clowns
feyn
leasing
##ffin
upenn
expats
grasp
muk
tease
blinking
cologne
perl
perc
recess
##achal
trumps
persia
chefs
progression
needle
agrees
flam
flowing
warp
carls
carrot
passcode
##eee
programmed
skys
shen
lahore
mediter
infidel
salsa
empath
transp
transact
##ondo
purified
planck
redesign
imf
##neys
propane
bashar
biases
depot
depreciation
menop
##meal
hotter
signatures
##mania
psor
whatsoever
winding
##bodies
elf
##alai
15th
retake
apac
edgar
hymen
idf
psychologists
puns
logistic
pointed
patches
constellations
cyc
connectivity
oppressed
coul
allowance
micros
directv
refurb
reflex
informatica
mustard
angsty
pawn
organelles
1600
landed
blooded
emoticons
newslet
competent
nationalities
infinitely
pursuit
##ophobia
operative
lyf
narrow
sonia
condem
illusions
electrician
rachel
hometown
prevention
surviving
##miit
##adeshi
acidity
misch
misleading
robber
##beans
limestone
audible
translations
##akhand
melatonin
benif
sweep
dropper
##uminous
bleached
##installed
validate
containers
grandmother
##ylene
parker
bernard
witches
tendency
nicar
nicely
romanian
azad
belonging
frog
breastfeed
procrastinate
nominal
conscience
subtract
niit
supposedly
converts
lucifer
64gb
##bourg
##builder
sickness
mortar
subscribed
##ynchron
luxurious
discussions
buttocks
patented
formerly
diagnost
sulfide
linksys
municip
champagne
bpd
##glass
synthesis
invading
moody
nursery
aquarius
injuries
pesit
patriotic
outdoors
sneezing
diplomat
lumpur
mcdonalds
threads
skateboarding
capsules
relaxing
vivid
lnmiit
isolation
descriptions
skelet
hazel
unstoppable
intimid
intimacy
intimidated
transmitted
replication
acetone
disconnected
intervene
fragr
geek
hurricanes
ferrous
sarees
strawberries
prosperity
pendrive
transcripts
dashboard
cucumber
swipe
hatchback
misunderstood
joshua
pineapp
lizards
homophobic
observable
demonstrate
woocommerce
wardrobes
squirrels
aesthet
voyager
ringtone
wrinkles
deliberately
##wheel
cavalier
inaccurate
dengue
anorexia
surgeries
compartment
irrespective
interfere
freckles
epilepsy
coveted
irnss
grizzly
nietzsche
ericsson
cctv
dachsh
josaa
trapez
heisenberg
feynman
carlsen
mediterranean
##ynchronous
05
2n
a7
cbs
dart
damp
diana
dhabi
gyps
kp
kw
komb
kelp
mills
mason
nix
nmat
nib
nfc
pt
pb
pomer
rhe
t7
uchi
vik
wra
wages
xen
ximb
zind
##try
##fu
##mel
##hill
##hyped
##uard
##gree
##das
##ders
##kill
##800
##bud
##hee
inel
doomed
anthon
##aled
##itations
##itars
##edict
cans
##illy
##ilers
##iligo
thres
##acl
##roding
##iderman
##amo
itching
##ecimal
hairl
liable
lima
rept
reign
shastri
##adecimal
##opedia
##utra
##sein
##illing
##illation
proverbs
##change
##chimp
##ichrist
##imi
chasing
##uli
##ulin
asynchronous
enrolled
nep
neander
neuron
##oshi
unac
unbel
unwritten
##apest
##unj
##unks
amish
amway
spinal
spiderman
acl
ache
engin
scs
scares
##ipel
##orah
adjac
prequ
coy
coorg
joel
joey
leia
##gee
##velt
##avi
##ffrey
##abha
expires
artery
grinding
resell
blat
perisc
symph
servant
bricks
offense
overc
overhyped
visually
guitars
warangal
monum
buss
traject
fungi
crate
roaming
thrice
infjs
infamous
humble
emphas
charco
indigo
grader
deprec
insulation
travelled
endings
provinces
advoc
webin
deletion
swag
psd
animations
supportive
specify
specks
##lings
sleeper
showrooms
macos
prosec
selfless
recovering
communal
miche
edges
hourly
antichrist
supercomputer
ukrain
expectancy
msg
massages
ipc
refin
suggests
landline
epics
astral
negativity
replied
err
ergon
erdog
ilp
performs
variant
budapest
mali
hussein
radial
mayweather
##joy
##prises
gloves
enterprises
presentations
archipel
resultant
##law
ethn
dawood
daisy
labeled
critically
mailchimp
laying
nitie
antibodies
historic
damon
straighten
senators
squares
lowering
espress
ladder
represents
rapist
bootable
commentary
scratches
tours
loaded
dispers
vitiligo
routers
colonization
liquidity
kgp
authoritarian
##ghis
pushing
1993
punjabis
jumped
ambul
luckiest
threaten
arnold
pumpkin
dramatically
boron
##door
priorit
confidently
rahman
territorial
sirius
woods
navi
olig
aiming
honesty
kilometers
10kg
nsg
participants
cinemas
rooster
cooled
discounted
hopkins
parametric
##burgh
injected
eradicating
assignments
jihad
1990s
ketch
##metal
bosch
apocaly
negotiation
vibrate
establishment
yuv
benzene
liverpool
nestle
nested
dropshi
hypocritical
obligation
arrangement
##iasis
cortana
follic
adjective
warehous
hexadecimal
prestige
incompet
corresponding
crafts
embrassing
eyelashes
lactic
condensed
incubator
bachchan
bookmarks
glycol
gesture
sterling
arjuna
involves
expiry
punctuation
hvac
burea
sulphuric
unrelated
mistakenly
impedance
bcci
occasionally
reheat
loopholes
indifferent
spreadsheet
unnecessary
autobiography
gyroscope
nosql
ingrown
acronym
matrimonial
gillian
uterus
vajiram
reconcile
thursday
atsume
mesopotamia
reissue
hypothyroidism
fintech
roosevelt
zedong
honduras
paycheck
parabola
excercise
udaipur
zurich
initiatives
unconditionally
nicaragua
dachshund
kelpie
pomeranian
uchiha
anthony
threshold
charcoal
330
410
8k
8000
adi
aque
baz
cmat
dre
dough
dave
eid
fz
fits
gump
hend
ieee
kine
m4
mdi
mpsc
oj
poul
rift
rtr
rhae
sank
tifr
uw
vba
wides
yc
##nas
##nip
##oz
##lastic
##coms
##eys
##hg
##hash
##hrs
##dem
##vita
##atin
##hendra
##inals
##erting
##erving
isomers
anom
##aram
##aria
##stroke
##lean
##ether
##etah
##estro
##asant
##acet
##ental
sto
stole
staged
stoch
##ecurity
##ophen
moj
##urous
##illow
##agen
##chart
##ifa
##umann
gett
iftt
quizz
mahendra
choo
tract
trance
deut
neumann
##osit
abrams
seg
##anga
amo
sph
mans
manali
intrest
adrian
prett
2024
coded
workshop
lebr
leisure
allan
expressed
blair
bladder
##embourg
recieved
##epam
##ouses
cheetah
##photo
markov
needles
underg
agi
agoura
carter
emilia
caliber
skins
backgrounds
belize
attest
schroding
crap
crows
101
socrates
systematically
genghis
schooler
transcend
prizes
badge
indiran
propulsion
##cock
##arkhand
gradually
netbeans
##scher
finishes
messaged
provident
hardships
riddles
subredd
problematic
meaningless
postscript
greedy
favorites
kindest
succession
confuse
confuc
prosecuted
fallacies
eukaryotes
availability
dreamed
##matism
demonic
punching
pointing
raees
supern
locally
expectation
housew
##ippers
shareit
similarity
shortly
ballet
refractive
participle
multicult
lands
mentions
epit
256
fluores
keyboards
precision
footprint
##kshet
packaged
viii
democrac
##mbps
170
continues
bhk
sanct
observations
fibr
ruining
concise
concious
fitting
torrentz
nitk
enjoyed
statuses
pronoun
burden
captions
semesters
subsistence
hamlet
namib
constitutes
nylon
miracles
spiral
booty
80k
obsessing
##zerian
unlocking
possable
algorithmic
mountaine
ariana
70k
mythical
royalty
manipulation
1997
halluc
comparisons
stuffs
airbender
cognition
ccie
imagery
puller
##ilingual
unexpl
repeater
spoj
spoiled
rhymes
confidential
breeders
akbar
fantasize
tanning
##rified
##built
dialect
mouthwash
renowned
hungarian
29th
interpersonal
saras
luxembourg
##40s
inputs
bacterial
wwiii
frustrations
bruise
stalk
reboot
soros
parameter
bihari
analogy
cadet
plugs
acquisitions
nanode
lagging
tactic
encouraged
polymers
slabs
torto
swords
abrahamic
propagate
allegations
electrostatic
saini
hemorrh
bdsm
allocation
strictly
778
##hydrate
asteroids
dowry
replica
tollywood
repetitive
vizag
wizards
lexus
jaguar
adventurous
equilateral
bansal
gnwl
incubators
proportional
thumbn
dividends
subsidy
windsor
symmetry
incentive
saiyan
kakashi
mozart
spaceships
ammeter
hanks
stiffness
gymnast
shudras
arbitrary
hassle
cyanogenmod
gooseb
1300d
douglas
stylus
lightsaber
chauhan
caesar
yojana
reassignment
silliest
lingerie
cerebral
moscow
punta
thunderbolt
kurukshet
bussiness
erdogan
archipelago
espresso
apocalyptic
poultry
stochastic
ifttt
lebron
indiranagar
multicultural
democracies
kurukshetra
9000
aus
ayn
bast
bism
bms
cherry
c21
dz
dir
dia
dign
ea
eleg
eau
fuse
hq
het
hid
hud
hopes
jk
jess
jadav
jvm
kol
kub
lent
lts
mf
mits
m50
oat
pk
pian
pestic
rx
rim
rend
r15
rpg
sway
tdr
ua
wore
zak
zyn
zillow
##nical
##oj
##pread
##rough
##crap
##candy
##found
##uz
##uer
##gio
##doc
##69
##atan
##hene
##inho
inference
inhibit
anarchy
##arak
##aline
##itra
##step
##edo
andaman
fork
thug
##asi
##acon
##rox
##root
itr
##oty
##olith
##igate
reop
refe
shib
##oped
##opus
##seys
##urred
##rift
##rials
probi
comet
##ifics
##imation
##imeters
quib
maury
chit
exemption
exothermic
degr
##usa
##ussian
unpaid
##ectomy
so2
##aparte
pea
##angles
adequ
coined
marble
jock
joffrey
leone
leopard
##iven
##ileo
##ilever
upa
expedia
##berman
interrupt
resumes
##echar
outbur
earrings
##ogyn
perry
poses
prith
##ultimate
saul
sauna
disgu
disqual
overre
##developed
incons
bohem
flax
flops
calgary
107
downfall
crem
remix
proficient
transverse
straps
regiment
rs500
biographies
sings
batter
valpar
centuries
somed
runway
godel
digging
lightweight
opener
removable
cape
penins
penultimate
dealers
opting
1920
natal
calculators
raid
freak
characteristic
supercharger
100m
slides
stealth
barg
storyline
##insic
uranus
1835
geo
geometric
mentors
linkin
midwest
leftover
200ah
waiver
fluids
diaries
##ighth
explainer
motivating
operates
13000
radha
masterb
towel
pressing
excise
firearm
fireworks
continuum
continued
materialistic
##likes
##criptions
404
osm
salesman
hallel
draws
misogyn
rented
##exist
icu
##agonist
captcha
historians
hydrocar
gifs
damn
squarespace
peacefully
madly
jesse
##daq
titration
rejecting
rotten
halfway
detectors
mentalist
closure
nyquil
utorrent
vaginas
ranji
destroyer
gravitons
suffix
brahma
widow
substituted
bangladeshi
bowls
adopting
casio
executives
dining
1991
pretending
administrative
jumps
amphet
furnace
kau
ambition
miller
##araj
habitat
bottlen
tanz
auditor
monetization
ahmad
nsf
cockpit
##iatric
vertices
physician
picnic
diagnose
taiwanese
smiley
paradise
unblocked
bonaparte
praying
injections
pige
pokeco
margins
trailers
voluntary
scandinavia
shadows
abstraction
complications
contestants
##risy
trekking
kuan
ftp
physique
physiotherapy
paradoxes
oci
defendant
vaccines
fuzzy
patriot
attorneys
idioms
bilzerian
lobby
hypocrisy
##orphism
genesis
refrigeration
horizontally
lunar
conjunction
carnatic
surrounded
scrolls
nightmare
distinctive
cyclones
nasdaq
alleles
fulfilling
geeky
neighbouring
climax
overturn
counselor
publisher
anticipate
jharkhand
obstacles
jabalpur
aurora
prosperous
licensing
shooter
shoots
ajax
museum
persistent
demolished
molestation
unreliable
comparatively
tenth
dwarka
culinary
kelvin
vessels
sneakers
disclosure
empirical
##vakia
greeting
crystals
rinse
antidepressants
biceps
odyssey
urea
##lifting
traumatic
##ievous
bracket
survivor
wyoming
zapata
endorsed
seizure
inflammation
tragedy
crowdsour
nordic
lynda
laksh
rallies
arsenal
illiterate
bezos
alfred
ashton
sergey
astrophysicist
gourmet
segregation
infringement
celestial
recessive
infidelity
refurbished
mischievous
skeletal
nixon
zindagi
adjacent
periscope
aqueous
rhaegar
widespread
mojave
schrodinger
goosebumps
jadavpur
zynga
hallelu
1d
5kg
aries
bim
bumble
cma
cnc
dit
dull
dai
dressed
fs
ferm
feces
gcc
gaw
hw
hb
hubs
ix
j1
jac
kon
kot
kang
kra
kama
lily
lapse
mama
noot
p2
pst
rut
rage
rowing
rechar
s0
sly
sorts
t2
tpp
tors
tiff
ues
vce
wow
wished
yose
£1
##saw
##liness
##yas
##year
##pri
##iq
##cence
##cuff
##fan
##fiction
##mith
##mia
##hound
##hose
##aul
##gel
##gap
##gun
##dish
##kien
##64
##2d
##wo
##wad
##31
##reet
theresa
##anne
induced
doe
##aro
##icii
canker
threw
##acht
##isi
##rost
##elle
##idi
##otonin
myri
mycro
bestfriend
##verified
shade
##opers
##lying
##dio
quinn
maestro
choke
traced
dement
congest
ender
##istent
##osomes
une
unjust
soak
abusing
sew
amc
amg
##renees
##endra
appreciation
##alla
timer
##anshan
coax
cochin
##iaf
marl
marin
marcus
##ptive
grape
taarak
##odara
blend
blink
##igniter
prague
##epad
serotonin
sapp
brune
consens
underwood
undercover
underdeveloped
flirts
carne
carries
cardiac
capp
monk
calab
##leteness
passage
realised
seeker
##restrials
humil
addictions
regina
cardboard
avicii
planner
##mont
##monary
ideo
ideologies
basil
handcuff
##iolet
hardness
submission
postg
downloader
pops
swach
mindfulness
distortion
restful
macar
educate
codefor
codeigniter
stockhol
ceasing
optic
mods
1922
1938
punk
##max
latino
jeopard
pyrenees
cybers
barc
bariatric
similarly
##ymor
volley
mixer
##rators
refraction
##reading
satanic
checkmate
snapchats
receip
organically
##locker
165
##engine
50mm
larg
leftist
200k
differs
admob
divine
dividing
puk
puff
packed
illog
glas
horrifying
sita
buds
malta
##opathic
##namon
collateral
pressed
bulge
lawsuit
tampa
sanctions
##shire
flywheel
tallest
mercy
slowing
ministerial
##undice
mailing
perfumes
##ombus
boolean
sandberg
misdem
tenant
chatbot
##iji
dyed
dropout
undergraduation
palace
contribut
caption
jacks
jackets
violating
pitched
madara
melody
melted
demands
truthful
hires
rotor
conduction
encaps
francis
exchanges
miracle
8085
lengthy
shallow
utens
bombed
unfit
pgpm
jaundice
dominion
dominating
aircrafts
pizzas
oxymor
bullshit
sheryl
polygon
sporting
neutrino
jerseys
villages
dramatic
derog
toothbrush
crispr
exceptions
rhombus
venue
breeding
converters
criticized
solidworks
b2c
federalism
felony
pinscher
cott
vadodara
diabetics
pleasures
investigate
algebraic
sedan
bahubali
vapour
overdraft
reformed
overlap
hornet
compensate
ketogenic
uttarakhand
cousins
attachments
ribs
modification
ragging
magnetism
numerous
vaio
counsell
injured
rulers
helicopters
pearson
tasty
tissues
galileo
kanhang
##ranos
exceptionally
pancake
carnivores
incompleteness
multiplied
exhausted
agnostics
mughals
offset
tolkien
catalyst
shortcuts
allev
expatri
sketchup
1957
1952
nhl
intervention
codechef
rvce
commodities
semiconductors
alkanes
collaboration
dolphin
bourbon
##keeping
superstitions
##ggles
skullcandy
maltese
hypertension
ingesting
bureau
mensa
cinnamon
inverted
proxim
asoiaf
abundant
detonated
dehydration
morphine
cravings
kutcher
##fmich
stuffy
metamorphic
scrambled
dexter
peripheral
dispatched
mauritius
trousers
agarwal
##blowing
distances
spatial
ralph
clitoris
skyscrap
menopause
psoriasis
pineapple
inelastic
bureauc
deutsche
gymnastics
degrasse
someday
kaufmich
hallelujah
yosemite
mycroft
brunei
codeforces
stockholm
jeopardy
illogical
misdeme
kanhangad
3a
4d
550
6p
bata
bps
c1
c3
cus
dg
dicks
ditch
e3
eug
epl
ealing
eighth
flesh
grie
iqu
iiest
jp
jung
jains
jira
kod
kavir
luth
lcm
mates
m20
nath
nata
nps
nsh
rw
ruth
tt
tones
tinn
v5
viva
wl
wavy
yen
yud
yards
zeta
##tent
##oard
##lav
##panic
##payer
##rowing
##cart
##fir
##food
##hant
##uy
##uania
##gear
##kad
##zene
##zilla
##wondo
##jack
##34
##atus
##hei
whipping
theology
##inence
inmates
##enstein
dod
doberman
toh
##aring
##arus
##alites
##itas
##leen
##leys
androm
##estruct
##isse
##entious
stunning
##oots
##idad
##amel
iter
##otation
##otte
##ayed
myspace
hap
##irub
rejo
shing
shay
##oprop
moh
##urbs
proadvisor
##chair
##imals
mak
exor
##ulations
asha
defer
concess
congo
conception
##oodle
athens
##aret
##essential
undi
unrest
unverified
compliance
##ievable
##apat
seam
seoul
ambi
##itya
spong
pluck
placing
##aku
intrus
##acts
imprison
##asso
##assic
byz
byte
timings
coco
cobal
##ravel
jodh
leop
lemons
##ivan
##iley
##pto
expel
grains
taek
residing
bookings
outie
reck
poet
prc
reluct
sau
saver
##phil
##dew
##deep
##dexo
commuting
underage
flask
carson
monoc
monaco
##alds
heroku
partially
muss
musically
##ocracy
##ocrine
laure
laughter
hispanic
cringe
mats
decimals
reporter
##orne
salar
questioned
cared
regulate
ima
img
minim
ours
##neous
airways
insol
deterior
drank
drip
##roportion
surreal
surplus
hardcore
cams
catnip
deletes
costing
childish
runners
specification
tales
distros
entities
callao
gotra
apj
bodyweight
##brow
pains
macy
macrom
macros
edc
psyched
darkest
degener
mildew
modest
taxpayer
panasonic
rais
exploring
determining
credited
##ipper
texture
barrist
shortage
30th
##ienced
legalizing
debating
debited
gateways
microsc
sundays
paas
percentages
50s
midi
turmeric
coping
marksheet
negan
colds
summers
specialized
divis
vacu
babu
automob
hostess
mayans
hurry
cs6
presenting
fundra
conversational
criter
innoc
expanded
##beat
trustable
banda
glassboro
feeding
commercially
locking
demanded
honorable
separates
airliners
cloudy
franca
kidneys
##entionally
##asmine
##uffle
delivering
commentator
raja
expressing
22nd
prisoner
premise
snowboard
snowboarding
##zzle
recognised
ultron
parked
equivalents
mrp
widget
audiobooks
##topl
1999
1994
frogs
axi
formatting
jamia
nepali
juan
maratha
cvs
45000
promotions
##anyahu
commando
nodejs
##buy
sticky
adaptive
renov
domesticated
chloro
shocked
approximation
ordin
polarized
kalyan
evaluated
bhagv
fabrics
lipstick
usernames
beyon
relativism
foxes
chaplin
hawaiian
panthers
sparkling
catholicism
trojan
triggers
oscars
interstate
chromium
##rogram
urbanization
pandey
hyperl
victorious
horsepower
##guards
electromagnet
mmr
pedal
germs
retaining
retained
zombies
blanket
cooperative
unconstit
physiological
lisp
sharpen
aspergers
zeppel
##account
adjusted
servo
macroeconomics
trashy
graff
##innati
conclude
dosage
humorous
antibiotic
700d
fossils
fulfilled
lithuania
diodes
farthest
igneous
bradley
lsat
curricular
insults
insulting
yew
isolate
scooters
navigate
skew
conjuring
bunny
blessing
segmentation
disappointment
cyclone
pharmacist
instructor
miserably
collabor
ripe
chaos
cheeks
metallurgical
khalifa
distributors
aurang
robinhood
kbps
recursive
unintentionally
sympathy
overwhelmed
bravia
golang
museums
frizzy
toddler
jenkins
##pppppppp
inquir
##ocytes
harvesting
nurture
northeastern
kosher
monologues
1857
empowerment
voip
residual
terminology
1896
tirupati
a6000
tahoe
trafficking
aeroplane
reliability
aztecs
monogamous
toppings
enacted
401k
cervical
semitic
sabotage
coriolis
euler
succesful
legitimacy
cincinnati
quintessential
unbelievable
chooses
fluorescent
mountaineering
cremated
tanzania
pokecoins
postgres
receipts
largely
derogatory
proximity
luthor
tinnitus
andromeda
cobalt
jodhpur
taekwondo
macromole
psychedel
2y
5d
aph
bould
bins
bunk
cx
cudd
dank
dams
fba
faking
fledged
glock
gats
icc
k4
kicks
kaw
lone
lama
mish
msi
mdr
nak
nons
naw
nax
ooty
pion
pall
pals
rb
ror
rally
rital
raks
ssh
sigm
tand
tally
tied
tina
uid
vt
v8
vang
vint
vines
vhd
wps
zs
z5
₹25
##nx
##nut
##nie
##oque
##odies
##lb
##plic
##rack
##cub
##cats
##maker
##aar
##aways
##aiso
##gil
##gram
##girl
##gles
##kows
##67
##zhen
##wale
##heets
##reck
##anof
inhib
inbuilt
##enar
##enne
##enced
tog
token
##itter
##itated
##eterm
cance
##acus
##ott
liars
##olves
shill
##river
##agascar
##ppy
ifsc
indias
chashm
exting
exert
##thi
##thood
converse
atkins
nebr
##istat
notices
unequ
sohei
peach
##unn
spying
spleen
##ainable
plots
afro
aftr
mane
manning
##loved
intrad
intrig
intensely
aden
2025
clue
clicks
coexist
##ishable
allig
##abolic
arct
thinkpad
earbud
##oglob
percept
##igned
daycare
##acharya
##sians
pras
relates
brute
discs
overst
noon
sme
smog
underweight
bohr
flix
guer
hernia
phonegap
##cessful
1000₹
##eeee
realism
helix
differentiates
skit
solute
hispan
mediation
opc
##ledging
intex
genital
genitals
remakes
strap
corrid
correction
purge
redund
minus
classifier
indestruct
##utional
netaji
netanyahu
advil
homecoming
catal
cattle
centaur
himachal
##ribly
harming
termed
eaters
mindblowing
listings
##ahan
runny
specified
snoop
distillation
gmo
elie
##anche
##bias
##brain
sleeps
para
parib
eucl
hygi
hygien
chemist
##mitive
modular
purported
irc
latte
antonym
jeb
superpow
lotus
patrol
heights
pornhub
triangles
305
303
ipm
balk
balancing
baltim
standpoint
sunrise
reactors
organised
immers
communicating
##akesh
epf
creatine
sums
nationals
farsi
specialisation
diat
bitten
##elson
doctrine
##ophysics
sitcoms
convent
mayer
gamers
conditional
sectional
1787
1746
excite
qualifies
bhp
discern
ballistic
homic
ramdev
##rapati
tamils
concur
stationed
osx
gasket
misuse
trusting
botany
powdered
predicting
predomin
psychopathy
subsur
mutations
##caa
madagascar
##zyme
eleven
melan
virgins
rotates
cpus
encod
droppers
pulp
pulmonary
bleaching
utopia
rajiv
rajnik
disproportion
capacit
transformed
arihant
parkinson
##obar
leningrad
possessed
casinos
##oelectric
pretentious
oxal
airbags
angular2
lacks
severus
instantaneous
boosting
jimi
tyler
bangladeshis
polluted
mirroring
##logram
##people
faithless
dynamically
dilig
flavored
999
advancement
interpre
eslands
55mm
lamps
suspend
sperms
continuity
vertex
folding
eliminating
##akshi
classifieds
poisoned
mlm
bpcl
farmville
pandits
hoaxes
lumosity
messe
biden
##iraj
intellectuals
kettle
schizophrenic
correlate
irritate
alphabets
gigs
slovakia
fleet
flawed
1945
torture
benzo
phobias
censorship
mushroom
intersection
sprite
metabolic
incorporated
insightful
##ranet
cortis
relaxed
evaporate
lecturer
hsbc
tubal
hexane
watermark
emitted
isotope
shifts
tampons
ddos
closeted
confronted
colonialism
rlgn
complementary
ferrari
instincts
roasted
skiing
jhunj
compromise
symmet
rhetoric
revelations
ductile
pedophile
anaerobic
bravest
molested
escalate
andreanof
wigs
vessel
imperative
shareholder
bracelet
##codone
unavailability
parachutes
exclusively
lankan
deflection
cascadia
bridesma
confederate
exempl
avenue
depletion
bjt
patronus
jigsaw
rugby
##myshow
margaret
1361
underestim
tuxedo
verna
concede
shenzhen
municipal
trapezoid
trajectory
ambulance
dropshipping
incompetent
hendrix
##acetam
outbursts
prithv
bohemian
valparaiso
peninsula
myriad
dementia
carnegie
cybersecurity
volleyball
iquique
automobiles
beyonce
zeppelin
gatsby
ritalin
canceled
shillong
extingu
nebraska
intraday
corridor
indestructible
hygiene
baltimore
jhunjhun
3t
71
aux
aksh
bora
bha
bisc
bouncing
c4
cind
coug
cern
ctr
d2
dens
ef
eq
eric
fand
gib
goss
ghee
jing
jpg
kyle
lec
mj
mell
nr
nv
nz
nb
nacl
nanshan
ncaa
oust
pum
papp
pik
pka
sant
sene
vite
vans
vlog
ws
wag
wim
x2
xb
zy
zener
zolo
##trip
##oam
##oad
##yer
##yrian
##pile
##pee
##rage
##chet
##fight
##mens
##magic
##eres
##aic
##gm
##gom
##data
##kr
##kit
##72
##89
##zone
##wi
##wap
##bab
##bath
##3x
##370
##365
##heart
whiter
##rex
inductive
##oufl
##oric
isil
isca
dood
##alini
##itime
##icl
##iculate
##sticks
##levant
##ett
##ethe
thirty
##acom
beads
sts
##oof
##eles
ligation
sho
orgy
##illery
procla
##agment
##ichi
##umat
quants
framed
exes
exile
exits
exhibit
worries
dept
enzyme
neurop
##istem
nott
notch
alky
unnatural
uninstalled
sodas
##apad
aboard
##indle
amber
spss
spelled
spouses
##ands
##web
manages
##love
intps
intentional
appsc
##aceous
adore
##alli
timber
##inkle
coel
marries
maritime
##avn
newt
arre
mug
intermit
interchange
reserv
temer
teaches
##irer
outline
##uph
##ubishi
prag
relational
persecuted
conting
brin
markers
noc
acted
smoo
invitations
policing
undervalued
agatha
visibility
facepal
cali
passout
skim
solom
laziest
rohit
thrash
infographics
repell
reprogram
10m
102
1060
1099
##cycl
salvation
creme
vein
securing
primitive
earths
aval
payed
redis
##months
rupay
delusion
insu
drows
##appa
dribb
singles
placebo
finances
designated
homeost
homeopathic
camoufl
##iously
riders
postings
swelling
requisites
distort
##bok
apathy
extending
defect
metre
prosecut
penang
edited
##matics
writings
antit
pyth
superstit
##ports
talkative
oppo
armour
##cloth
microorgan
directs
practising
smokes
##chatca
lowe
informative
1611
copa
bloods
diffrence
creators
##balls
islamabad
farid
richmond
erased
glor
glut
pursued
automata
nucleic
nucleot
##cson
bhak
ethically
casey
concor
hpcl
rocky
medications
babylon
consultancies
advertisers
burgl
sharia
hikes
waiter
tariff
benedict
odour
localized
espn
devops
tickle
noticeable
drying
duet
campaigning
sinha
rapists
pdfs
tradeoffs
representing
touring
mi4
blogspot
ranaut
fingern
##odesk
rainy
raining
##apsody
grounding
##obil
authorities
samurai
factorization
pushover
remained
1998
scarlet
indonesians
advantageous
axial
mangal
tagalog
repairing
ambig
neutrinos
nominations
nominate
nominees
sqlite
jerusal
arriving
accelerated
outputs
##helial
priorities
rhapsody
consciously
migrating
convergence
fantasies
45th
inspite
##rochem
cdot
exporting
declares
fetishes
composers
assumed
wheelchair
tumor
backups
laminate
chiang
ntpc
phenotype
tucson
dmrc
##nesia
montgom
tedx
reflected
reflective
rigorous
sacred
beggin
insecurity
aspen
mosquitos
##white
protesting
protestants
analogous
tackling
volunteering
fucking
vedanta
henna
tactical
drafted
##ocentric
pentagon
galactic
comedians
mh370
tangential
intuitively
bilateral
kuril
sneezes
protocols
obligated
chambers
libertarianism
igc
fiancee
prerequisite
bronx
tibetan
highlighted
kamchatca
nasal
tornad
irrelevant
harmony
harmonic
reunite
svm
intervals
pharmacology
##erella
graphene
quotient
sgd
wormhole
twisted
collaborate
##akumari
couchs
neurologist
gestures
crawler
incentives
primaries
adulthood
##uddin
kilogram
overheating
lizard
extermin
boycotting
desserts
kendrick
heathrow
priests
vipass
pantyhose
amitabh
chromatography
pessimistic
ounces
quartz
downtown
contrace
logarithms
tunisia
theorized
aboriginals
blazer
evangelical
aggression
dystrophy
cocktail
dildo
vallenar
hgtv
hitchhiker
cafes
trinidad
amrita
regimen
antonio
reconstruction
robbery
ukrainian
epithelial
nanodegree
elegant
mitsubishi
oatmeal
shibpur
osmosis
##apatnam
byzantine
salaried
unconstitutional
postgresql
pioneer
vintage
vhdl
hispanics
prithviraj
cinderella
senegal
zoloft
intermittent
temerity
facepalm
superstitious
jerusalem
montgomery
4i
4chan
aes
cain
cud
dji
fda
grop
gosp
ht
iem
jnt
kink
ksh
kurt
lca
lanes
mx
mace
mik
mds
mund
mtv
ncl
noses
otc
ought
oops
ouster
ppp
pact
ptr
qq
qtp
rasht
sane
sagar
tc
tus
vich
vatic
vfx
wist
wiring
yureka
zim
का
##late
##rub
##cia
##cash
##fet
##fell
##fuck
##metic
##hard
##design
##66
##vale
##zo
##wes
##but
##bug
##qa
##33
##inx
##esk
##eract
ingress
##orcing
##owered
isnt
doses
##omla
##omorph
##sten
##etrics
##ilitary
##ilitation
onc
##acchar
##enty
stood
stap
stead
stds
stitch
##elt
##idate
itis
hare
livest
##irth
##olitan
shunt
moan
##seed
##dial
prohibit
proverb
##aggle
##ifi
##fee
chou
chia
chik
exagger
enlist
enrich
##osely
notepad
sodexo
##apses
willpower
sparse
plenty
mana
phds
##loc
heeler
intra
impre
adversely
cloning
cob
coating
##raz
##iavel
marley
joomla
donuts
leaks
##ivorous
##abi
##abe
##abatic
grinder
grateful
interfer
resale
buis
##izable
bookmyshow
outbreak
##ogat
##ogram
perse
posses
presents
butler
prat
##athkal
trumpet
sae
dislik
personification
wats
overpro
overtime
commits
markup
incap
incarnation
smiling
underlying
evac
floss
warhol
carcin
carrots
emc
500₹
sexism
trainees
fung
universally
attitudes
reposit
108
oprah
socio
remarkable
##uters
transpl
carefully
reggio
payday
imitation
mathrm
ideapad
biom
inserting
neteller
detached
bathe
surathkal
hoist
handsh
handmade
cater
somatra
histrion
ridic
subw
subhash
suburbs
comebacks
terminator
swast
requiring
generals
cultivate
specter
autodesk
##lington
retal
opengl
artillery
defects
capf
capill
capitan
mica
edits
civilisation
dealt
idm
irrig
logan
machiavel
freud
pyg
locality
sloth
legalization
statues
nightlife
corrected
urls
##ibly
refill
1822
reactants
anglo
driveway
brittle
brainwash
deserted
epigen
##hani
cancelling
addressing
precip
pastry
farms
specialize
analyzing
forgiven
convolution
conviction
malia
silic
moderator
sincere
paperwork
14days
condo
1755
1751
##genic
hypo
archived
##laim
##laimed
ramayan
denim
labia
spaniards
doctorate
fires
revamp
revolving
concussion
hp0
ecr
suprem
##walk
antique
##express
##ucher
burgers
campuses
telep
pitchers
mutton
titans
detecting
##yalgia
benefitted
hanged
adsl
ipads
sixteen
flipboard
kitty
delivers
conditioners
unfor
mci
mcq
mcgre
bagel
baar
resistors
scrapped
shuttles
manipulated
1996
mandate
35000
sequential
kaaba
mentioning
##market
janet
tywin
resigning
rhin
oriental
optimized
28th
advancements
renault
##dynam
stammer
divergent
discussing
sharingan
bearings
rumors
cantilever
complaining
shivaay
cosmos
##write
assassinate
arraylist
315
toughness
stalker
alexand
schizoid
investigating
addicts
rectify
bbm
tomorrowland
sustainability
paramilitary
piracy
owls
durg
hyperb
ganguly
victorian
utilized
derivations
mesra
preliminary
cadbury
compensated
knights
regulatory
nerf
aquarium
shriram
bosnia
metallica
tolerant
rods
reproductive
1948
gorge
hobbes
districts
uncommon
supplementary
concealed
alphabetical
servants
downvoted
diplomacy
simpsons
tibco
qaeda
rustom
tobago
charlotte
knocking
777
palestinians
imovie
shelf
conjunct
bundle
jurassic
recreation
incomplete
highlighting
klout
stimulating
##rocessors
rewarding
fools
wanders
offspring
bucks
ernst
crushes
reunion
inertial
fractional
8969
settlers
deceased
acknowledged
indirectly
subliminal
##piece
witchcraft
neighboring
rfid
aligned
screaming
marcos
sterile
pendulum
chandragu
tlc
corpus
chalk
adulter
soundtracks
pedophilia
demolition
filmmaker
toddlers
categorize
breeze
rangers
energies
portrayal
typhoons
m604
gratitude
unreason
treasury
shareholders
teleportation
keratosis
unavailable
ounce
inhale
1868
discarded
##mandu
receptors
paralymp
tesseract
ganesh
accusations
supervised
ipv6
appraisal
parallelogram
multivitamin
nigerian
jamshed
shameless
twilight
dungeons
terraform
transactional
newsletter
breastfeeding
rheumat
reptiles
enginner
coyote
ethnically
yuvraj
adiabatic
gettys
sanctuary
disguise
overreact
bottleneck
fermi
uneven
marlboro
calabria
encapsulation
misdemeanor
bataan
tohoku
rejoin
exorc
ambien
insoluble
edcuation
barrister
chloroform
boulder
nawaz
vanguard
##oglobin
flixcart
superpowers
capacitance
reservoir
tornadoes
vatican
disliked
histrionic
irrigation
##expressions
mcgregor
rheumatoid
1l
3k
530
5200
786
920
950
960
aik
bund
celer
dich
droid
duel
dalai
eun
eloqu
fuss
foul
fico
ggs
gaur
hm
hone
hats
jm
jem
jasmine
kios
kaggle
loun
mally
m55
nand
ngin
nug
nris
nelson
ppt
pilar
pnb
qw
rak
rath
runt
rutter
rakesh
ses
sage
sass
slic
sash
sque
ubi
v6
voot
vicks
wels
wcd
wyn
waze
wreck
yol
zoned
zoro
₹3
₹10
##su
##sky
##nish
##nagar
##tos
##lux
##yard
##ympt
##pods
##rust
##rons
##free
##fined
##finder
##finger
##fivia
##mable
##hp
##human
##hoots
##gart
##gger
##gings
##gov
##driver
##kas
##78
##vals
##29
##block
##xc
##atism
##atists
##atrix
##hex
##heid
##hend
whining
##inness
##erated
isl
##ench
doo
dome
dooms
doyle
anushka
##itic
##icent
##icol
##icism
##learn
##eding
andri
##esty
##asers
##idav
itc
lien
limer
##olph
##olla
##ige
##add
mocha
orwell
weas
##chooled
ch2
chir
chhat
thats
##ulu
asympt
debr
##through
conor
conway
encycl
##oslav
alp
alarms
unse
unear
univ
unden
uniqu
betta
usable
##arti
##herjee
seism
amr
amid
amie
goggles
loch
aca
manic
manus
scans
scoop
scuba
phi
phogat
##ipot
##ipus
##activity
impressed
adhes
adverb
preferences
2050
2040s
##ansham
clues
cliche
cole
joanna
##quar
##avage
##avansham
uphold
exped
arcs
arica
resin
tefl
##odel
##odha
colin
##ogo
##oga
##ogether
perme
pertain
positives
recount
pox
##0001
##ulture
saff
sahib
saavn
brics
dislikes
##ermind
wrang
commuter
improper
agraw
boast
boats
mons
monomers
friendliest
calf
##nings
backpage
##ocs
lookup
twel
schwar
infront
1070
ops
opium
similes
kebab
remade
prim
primer
registry
highbrow
testicle
indesign
propeller
delink
bib
deported
leguminous
##ietal
##ropics
surrog
mastermind
subhas
subatomic
postdoc
terminated
humane
ps2
##aphrod
animator
speculation
snoring
windsh
##so4
entp
127
retract
apert
bodyguards
methanol
kinda
deficiency
defrost
germanic
parano
parcel
parrots
paraphr
codeine
codevita
potent
##matrix
hourglass
modes
todays
demotivated
1940
starters
slapped
lotr
msm
literal
litmus
pornographic
cytopl
barber
barcl
barron
statute
statistically
##ymotion
storyt
##class
papaya
sunil
sunflow
births
angi
philips
##ovas
1100
versatile
##erva
communicative
1687
avoidant
geese
##idson
brainw
epide
southwest
citrus
hinder
gays
glac
##atted
explaining
objectively
approached
##ophile
northwest
varies
variations
macbooks
maldi
striking
dolls
occured
identifier
meru
trem
210
innie
##unders
yorker
revit
revived
concave
globalisation
##oxid
piles
rockstar
touchscreen
boob
misp
mightier
remembering
##inoor
undergrads
definitions
symbolic
kashmiris
##zeb
predest
telev
uganda
sharif
stupidity
accidental
rubbing
brotherhood
devi
dhirub
displaying
drove
brownies
strategist
8086
cutoffs
uti
utter
obsessive
virtualization
dispens
lieuten
suspected
thermometer
emotionless
garment
bowie
annoys
shutting
gbp
spiritually
octave
mango
tagline
grammarly
chairmanship
syllable
venues
##trans
uiuc
digitally
khmer
mosque
friendships
canonical
deactivating
unbl
diluted
dilwale
sticking
pleasing
cdn
exported
pools
chlorophy
divergence
davidson
sarah
##opsy
thankful
norman
nicki
##ersonic
fundamentally
bacterium
argumentative
struggles
chipset
tongues
inserted
volcanic
biharis
ovens
eradicated
shootings
homeschooled
iaas
amdocs
equipments
jawline
cadre
fascinated
hunts
jiit
veda
nervousness
kohinoor
absorbs
molarity
modifying
modifications
stereotyped
exploding
nerds
aqua
palmistry
anchors
polymorphism
flew
vibrant
permissible
imessages
fuj
waxing
##panz
bomber
booths
revolver
clarity
vendetta
disturbed
refrigerate
knocked
storms
traditionally
incorrectly
bungee
##forum
scrolling
hermaphrod
cellulose
877
veterinary
prefers
crusher
cfd
eyelid
aeronautics
##ourable
fertilized
geeks
quotations
crucified
prolifer
unliked
umass
overtake
pewter
bookmarked
friendzone
sindh
reincarn
envelopes
alignment
jabong
stubhub
insanely
compromised
rothschilds
hypocrites
confederation
counterpart
gcse
xampp
laxatives
turbulent
filmmaking
fidelity
breezes
ammun
typhoon
kundli
herbivores
paleo
zerodha
bodnick
xyz
##ittarius
wardrobe
bryant
sagittarius
xxx
prisma
antidepressant
freemason
hints
nurturing
thongs
yugoslav
monologue
1950s
phonetic
gimm
raptor
chanting
archery
vailfivia
##worms
hackathon
merchandise
mourinho
chimpanz
2030s
retweet
kathmandu
discourage
nausea
pissed
homeschooling
metropolitan
overwhelmingly
##igraphy
panchay
dawkins
hamburger
tsunami
monotheism
insead
mukherjee
warehousing
conciousness
pesticides
##olithic
quibble
adequate
crowdsourcing
nootropics
p2p
sapphire
bhagvad
inquiry
palsy
arctic
earbuds
symmetrical
akshay
gossip
viteee
coelho
insufficient
homeostasis
camouflage
couchsurfing
buisness
unforget
gorgeous
jamshedpur
gettysburg
mallya
nginx
pilaris
rutterdam
sashimi
wcdma
yolks
andriod
encyclopedia
undeniable
agrawal
windshield
paranoia
dhirubhai
lieutenant
chlorophyll
07
03
6100
730
816
aac
aish
bd
bfs
c5
cem
cors
cried
dll
dane
ducks
drew
etern
fen
flock
gbs
gull
graft
glands
gaps
hect
hort
i10
iphoto
jat
kits
krav
kkk
lace
lys
loos
m8
ming
mating
mcl
mids
m40
nhs
naik
oet
oauth
pity
pile
phel
poodle
rg
rms
soo
sling
sinking
toned
uz
uch
upp
vj
wav
xt
xero
yan
yalu
z1
zaw
पर
##notes
##rar
##flo
##mhz
##eous
##hic
##hist
##hog
##hares
##uating
##uaries
##gency
##dl
##dp
##kel
##will
##wik
##bid
##bek
##atri
##held
##rej
##reas
##info
ing
induct
isosc
doj
anil
##arrow
##itian
##omyalgia
##stop
##stra
##ilai
##asan
##acart
beck
##idian
##aments
itachi
##ayas
##eca
##kere
##verbal
reit
reimb
reuters
shore
shik
orator
##urized
weeb
##rians
##rique
withstand
##agus
meats
asi
asic
##ersky
conform
encl
##inex
neistat
unman
unpl
##unches
abduct
abduction
suf
seated
goel
##rend
sprain
##ained
##ande
##andme
plac
acnes
acura
manly
phishing
heir
##actus
impose
adduce
wasp
wasps
##ideos
cliches
##ishnan
margar
marissa
jog
johan
donkey
##ivable
expelled
arith
args
aricent
interm
insta
resche
teaser
##odino
blizz
recieve
presum
preserved
##uperv
pranic
syed
syner
relie
saarc
bruns
##phobic
watery
bancs
consists
consoles
override
desal
incite
smug
invis
undergoing
preprocessor
flac
flames
flipped
##reatable
monsters
caltr
skunk
backbone
shek
lauren
meds
crr
rost
helpless
infer
infants
matte
reporters
salem
marketplaces
regress
purity
rsa
rs1
rswl
avi
chargers
testicles
minaj
minerva
minoxid
songwriter
softener
##coon
biometric
insulators
insulin
netgear
techno
legolas
leggings
endow
endless
endothermic
teller
hairy
terminate
swan
swaraj
psk
godrej
snoo
snort
##boys
calligraphy
elves
##ancers
151
153
gothic
##lander
beneath
confusion
artif
cleavage
##othermal
communists
##retion
ides
##ontail
demobil
1900
sitemap
logit
typeface
austen
latvia
raft
headmaster
purposefully
massless
##uckle
barn
baron
barking
coupe
terrifying
debut
volatile
standardi
greenhouse
##ibu
refers
1812
sats
fullmetal
sideways
prevail
meetups
epistem
diffraction
pokemons
brandy
romney
summon
vacant
performer
##balanced
##atta
forged
crips
##ophiles
babys
sitcom
malle
silica
silencer
holi
149
collars
funnel
saves
savage
shotgun
##ritious
deadliest
racists
tablecloth
resulted
##osperm
ramanu
deniers
merry
littlefinger
revised
revoke
fitted
supersonic
hydrate
nitro
integrals
bandhan
untreatable
burj
burma
coasters
knox
regretting
respectful
johns
assisted
hiit
titled
pathology
##afa
basement
llm
federation
astrological
cpap
crossover
crossfit
crossdress
malaysians
##olecular
knowingly
acquaint
dubs
miranda
responds
iima
vocational
enfp
mi5
astronomers
23andme
radiohead
aiats
capacitive
ultr
cmos
suffers
unknowingly
##annel
baghd
consequence
bailey
tendencies
garmin
bowed
dominance
dominican
executing
nutritious
embeded
sequences
octane
repairs
unsuperv
blindly
blindness
etfs
lesnar
jerks
magicians
stacks
congressional
sightings
koi
borodino
26th
akkad
45k
kickboxing
microwaves
##anyu
##aminophen
commandant
flavour
sticker
infectious
transported
implicit
monetized
rename
aimed
quadrup
norton
headsets
participated
lamo
rummy
peeves
indexing
turbines
picasso
enhancement
initialize
inefficient
iiitd
reflecting
sabbath
rebirth
bonuses
altucher
permitted
pixels
##rasound
##odynamic
collapsing
fortress
baha
ovarian
functionalities
julius
##falls
30000rs
pooja
binom
derivation
gelatin
orthog
fascist
jiu
mongolian
##ventional
1988
transplantation
privileged
absorption
severely
distrust
sweaty
draining
drained
emerald
negotiating
assaulted
vaccination
vaseline
1974
aleve
binge
encounters
propagation
jeffrey
kurdish
downvoting
aryans
shaver
lumps
##attering
girly
brisket
hugs
sailor
sailbo
rhyth
wavelengths
heterogeneous
replicate
emitter
midnightexpressions
acetaminophen
disconnecting
trillionaire
nh3
tetanus
fragile
piston
ankles
icelandic
sunnyvale
undefined
schedules
charisma
vulnerability
chaotic
climbed
ascii
glycer
observers
lambda
opponents
forecasting
dlp
janeiro
compromising
eyebrow
hypertonic
supplied
unfortunate
microprocessors
chalde
reelect
militants
deodorants
stadiums
stabilizer
kundalini
sangh
gratuity
reapply
reappear
tournaments
bromide
treasure
bakery
postponed
lingua
vandalism
linden
arbitrage
descended
bayesian
rapture
quarters
hackathons
indefinitely
voucher
vouchers
adrenaline
ponzi
penguins
judgmental
ihm
murderer
multicellular
stitches
squeeze
diagnostic
nephew
advocates
webinars
michelin
dispersion
segments
supernova
fibromyalgia
thumbnails
multiculturalism
c2180
zakir
amphetamines
daikin
slyther
tiffany
##2dw
coaxial
cappuccino
swachh
utensils
cottontail
alleviate
expatriates
yudkows
concession
leopards
reluctant
sauces
innocence
hyperloop
tandon
chashmah
intriguing
eliezer
predominantly
diligence
pappu
solomon
microorganisms
faridabad
igcse
vipassana
jntu
impregn
interfering
overprotect
incapable
fungus
convolutional
telepathy
durgapur
chandragupta
unreasonable
eunuch
ggsip
kiosk
₹30000
doomsday
debris
pertaining
twelve
maldives
proliferation
yugoslavia
unforgettable
uchicago
weebly
synergy
brunswick
bancshares
caltrain
minoxidil
unsupervised
yudkowsky
3m
440
5l
5am
5500
510
5mm
6x
bn
bou
bals
cic
cag
cess
cries
cush
cumin
cena
d1
das
dive
dory
dix
e2
fug
fishes
gon
gds
gnu
hac
hides
hanes
jitsu
kj
kate
kasp
lana
mop
nun
numpy
oval
oolt
pn
pag
pong
pinc
qnet
rans
sig
sif
sack
sought
sails
tart
tach
tft
tung
towing
u2
vince
vox
wp
wc
w3
wpm
zig
##nels
##tics
##tok
##oder
##lass
##polar
##rill
##fy
##fund
##eat
##host
##aux
##got
##disc
##kha
##var
##vol
##250
##warya
##xi
##´t
##atis
##atories
##esai
##analy
##onomy
docom
dozen
tok
toen
tofu
anter
anabolic
##around
##alities
##itti
##omast
forwards
##ilage
thy
thrift
##asst
##aca
befriend
beloved
##enta
##idu
##amoto
##ecd
bests
##iru
##olta
##igmatism
reag
shaz
##utations
##seus
weir
##oneer
##riel
##rimin
proactive
##chip
##umn
##umbs
makar
chil
trun
traces
trunk
##ulent
##ulam
deuter
##tha
enrique
atal
##arer
noticing
alice
alley
unim
uncut
##ection
indiape
sober
soory
##apuram
pey
##unity
abhi
suction
seb
seize
amnesia
goats
spurt
##andra
##andha
loco
afgh
aces
acup
##ortable
manch
managment
heil
appar
applock
##arded
makemy
aditya
preach
2048
##assive
timely
cores
marie
maria
maroon
joc
lem
leased
allbest
##abl
##berts
grilled
teasing
blaming
##emon
colitis
recapt
moreover
serbs
contempt
disks
disreg
##phies
##phase
##redict
commutes
deserving
pollock
##orden
agil
takeoff
flats
guinness
longev
carbs
cahoots
emission
emissions
caliph
hern
hertz
##ianism
##ologous
werew
##ensored
businessmen
realizing
belfort
belarus
sheer
collegium
solv
##itsar
medically
blackmail
rohing
helpline
matched
downhill
##isson
salam
salons
hummus
keyp
empt
transitions
struts
purr
puri
payable
payoneer
charm
testimony
##nex
songwriting
##eryl
soften
depl
depiction
depicting
##hier
insured
inscribed
electrone
fins
factories
##llium
endocrine
advices
subc
subnet
greed
greene
##grid
specifics
##ceptible
assim
##perienced
##tening
##ullah
elix
elvis
apex
tempt
##aiya
painkill
confession
confortable
fallon
##ikala
##ikanth
eurof
dreamt
dream11
chemically
optimum
purposely
breakthrough
rao
raises
anthe
jean
explored
starring
superc
100000
maga
litig
constants
deathly
connects
connector
textures
baroda
killings
shortness
shortlisted
legalised
debilit
##ymmet
balkan
microbes
fixer
practised
reactjs
checker
checkpoint
goldfish
multimeter
midlife
astigmatism
understands
200mm
copilot
likers
newsfeed
prototyp
promisc
keynes
##pirit
awd
footwear
pubs
diasp
bittorrent
gravitation
packing
missp
cripp
soundmagic
spotted
capitalized
malcol
mayor
gamech
olympians
towels
paperwhite
striker
celebrations
quantico
rehabilitation
csr
cs50
firered
cleaned
cleanest
continuation
racially
discretion
lawsuits
graphite
inclusive
##affes
seemed
ramadan
slows
concil
magnum
osmania
medicinal
sandler
hydrated
##ickshaw
uploads
palih
sqft
hurtful
60s
predator
pitches
totalitarian
florence
##akhapatnam
positioning
creatively
##presso
subscriptions
madh
melodies
waitlisted
llp
sensing
handsets
detectives
sweats
devote
deviant
leds
jailbroken
dui
admins
nyse
802
scratched
depositing
rajdeep
wisest
stannis
vita
gaana
mcb
wealthiest
susceptible
murray
ivf
industrialization
forwarded
casimir
knead
cloths
airborne
unsuc
ebola
taboos
ethere
nomen
neurotrans
niece
2600
dumbbell
fantasizing
unexpectedly
believer
##aminated
flavoured
sickle
splitting
gibr
literate
affiliates
photoshopped
150cc
cartilage
commissioned
enhancing
polarity
participation
mamc
cinemat
renewed
controllers
missionary
physicians
##chemy
smilevo
luis
luffy
reflectors
digested
altru
munjal
constructor
trophies
interpreted
naprox
roses
##glasses
owes
pandavas
cello
celery
bounded
leaning
##ogenes
##guide
mmorp
pedest
kyc
cerber
ketu
coalition
transitioning
1985
laboratories
riot
deductions
drafts
hybris
forests
aquatic
shroud
shrinking
uncensored
bumper
sketches
vaish
ocr
ocjp
conquest
controversies
wbut
tastes
5kgs
hooked
ninet
multiples
cumulative
colombian
horizons
springs
institutional
hypotheses
apologized
metaphysics
tsa
tsar
sockets
attribute
broadcasting
ribosomes
nutritionally
conclusions
dosha
stabbed
chamath
emperors
insulted
scooby
supermassive
skept
skeleton
carnot
deductible
trolling
tracfone
gentlemen
dsm
##otherapist
hierarch
enlar
crushed
decompose
tetra
splits
splinter
bodybuilders
quotation
tonsil
floppy
recurrence
trimmer
neighbours
fading
hci
synonymous
ascension
vidyal
troubles
carboxy
pvc
dwarves
unicellular
falsifiable
groin
dravidian
frightening
probationary
embarrassment
128gb
adultery
repealed
m330
hindustani
kidnap
plastics
energized
determinism
zoosk
proxima
impediment
archaeology
unpredict
ceasefire
imperfect
crystall
implantation
loophole
bicep
odysseus
parachute
lamarck
intrinsic
devaluation
m750
substantial
brij
seperate
indefinite
spartan
retweets
constraints
stewart
guardian
##abyte
summarize
hologram
salvador
ulcerative
shirdi
phillips
nespresso
xfinity
beheading
##otrophs
worshipped
polyamorous
lubricant
occasions
obscure
involuntary
sardesai
apprentice
intimidating
prequels
monuments
ketchup
anomaly
housewife
jessica
maurya
hydrocarbon
hubspot
kangar
raisins
ordinance
graffitti
macromolecules
nonsense
raksha
alligator
redundant
centauri
conventions
excitement
homicide
melanin
underestimated
biscuits
concorde
begginers
vichitra
enginnering
celeron
runtime
ubiquit
wynk
seismic
amritsar
lochte
##ipotent
saffron
monsanto
aperture
cytoplasm
mispron
aishwarya
isosceles
arithmetic
intermolecular
reschedule
invisibility
rostov
artifacts
logitech
##osperms
ultrasonic
overprotective
ggsipu
kaspersky
ooltah
ransom
docomo
##omastia
shazam
sooryavansham
afghans
makemytrip
allbestlist
longevity
diaspora
malcolm
palihap
neurotransmit
naproxen
graffittibooks
08
2am
280
6500
9mm
ain
birl
boun
brian
bnp
cay
cout
cures
cpl
cfl
dse
dus
dances
eag
ecc
fis
gust
gimp
hf
hos
ich
jai
kale
kung
kha
lms
mw
mts
moust
m45
nab
nod
naut
rsi
sse
t4
t3
tres
tide
trench
tango
tgc
torah
uef
ves
wt
wer
wink
xr
zion
##name
##tains
##oxy
##oby
##llo
##ych
##ystem
##yms
##pages
##rgy
##cb
##fel
##fru
##fps
##mbled
##hare
##hwar
##hwag
##ajo
##gam
##vens
##28
##zip
##want
##bons
##bility
##aton
##atric
##heard
##hening
##herence
##rek
##inis
##inburgh
##anal
##anine
inm
inu
innings
##orth
##orie
isoprop
doom
doha
##arning
##itism
##icable
##lem
##etes
canola
tho
##roopers
sta
stinson
##idium
haired
##iger
##opin
mohen
##dile
##diest
##riac
proav
##agiri
##imanyu
##umen
indies
quik
quasi
maver
chy
##ctor
##user
enorm
enigma
##antics
notor
alken
alchemy
unarm
usability
compt
soaps
##apix
pepto
suede
sean
amt
amma
gore
spook
spies
spencer
##ainted
plumb
##week
afs
acro
scat
scab
sciss
scoot
intranet
ade
adware
adoles
clrs
clarin
cof
coherent
##ellist
workforce
marrow
donors
##ivore
##veland
allusion
arund
armature
muff
##odo
blaster
colloqu
perth
##upadi
prud
##inte
syl
reloc
relocation
serp
serie
brus
disruption
##fts
##phr
considers
overb
desi
deserved
incidence
inviting
numeric
guang
warmer
carat
monks
monocytes
calicut
sexes
##ypical
programmatically
fungal
belive
##ocus
wines
playback
crane
matapan
maternal
decoration
downey
humming
questioner
hadith
remorse
bigot
addicting
transm
affidav
prepares
cardinal
payer
charities
planing
##bait
minicl
classmates
formatted
indul
governed
motog
moths
biopic
airforce
meng
##mson
detri
drought
righteous
technica
watercol
greatness
econometrics
batting
surya
handbag
hardwood
centimeters
subord
submiss
mindfuck
snl
snip
autop
autopl
hearth
entail
122
retreat
apu
apost
openstack
memo
cleans
cleveland
defec
blockers
causality
parody
paracetam
edinburgh
attractiveness
idp
ceg
psychics
psychometric
gaines
irma
austrian
machina
wearable
publicity
wrongfully
locke
slice
patrick
msn
cysts
cynical
shortlist
terr
terrified
terribly
debunk
debbie
norris
nightcl
balm
gateforum
normalized
##ibank
directories
1887
reacted
mustache
angellist
linus
saty
checklist
sidebar
112
immense
intelligible
##ographically
linking
turin
peters
divisions
diast
##flation
eragon
convertible
facilit
pricey
inprove
screenwriter
personalized
convict
malf
cracks
narayana
145
pressures
cleaners
##riti
bhat
graphical
fearing
destined
maxwell
ethic
sanitary
eyeglasses
identities
abscon
influx
namespace
ramakr
athena
##keye
denies
merkel
spanking
liberia
magnification
pilg
ghosh
touristy
circus
halogens
##olds
seafood
harassing
ignition
recordings
contributes
60hz
knit
hydrolysis
violated
manufactures
semicol
streaks
mutation
madonna
apartheid
waiters
castration
hamas
##after
sensual
cabbage
virtue
carbonated
drogo
syncing
rajput
extraord
cruising
entrances
sdl
mythological
flashlight
samuel
resistivity
royalties
dominos
tommen
tomboy
masc
hallows
##102
administered
visionary
unsung
eb2
nazism
chairs
##liner
countertop
##ometrics
indication
shipment
winterfell
boosters
shepherds
sponsoring
converge
criticizing
##logist
unborn
commandments
fetus
haters
ahai
navajo
scaling
scalable
bathrooms
assembled
proudest
discussed
kinect
pillar
ejaculating
gtbit
formalities
pitbulls
ashok
phenyl
breathaly
bruised
319
vanished
pleasant
gunshot
3600
bolton
##mobi
investigated
hipster
paramed
begun
##niak
##oplasty
sears
nexium
influencer
influencers
homesick
pooping
moore
toner
derivatives
bml
pedig
comprehend
keto
fraudulent
brightness
lagna
sasikala
forbid
shampoos
drafting
exploded
granth
correlated
intercaste
ftre
blankets
gigantic
casualties
spamming
120k
yammer
excellence
1972
160r
galvan
auctions
census
uptu
distinguishes
behavioural
varys
mindedness
conservativespirit
saturdays
orthodont
cardiovas
pancreas
antennas
attained
armenians
porridge
hashmap
sailing
carbure
nusrat
conveyor
##itiya
tropic
roadside
inevit
stimul
stimulate
recipients
awaited
allele
jarvis
condenser
condensation
##vanse
overthrow
decorations
##altar
sgpt
wormholes
blurred
omnisc
floods
vowel
woz
subsidies
enlargement
telecommunications
resurrect
reminds
megapix
himalayas
azerbaijanis
nostril
oscillation
oscillator
trigonometric
coworkers
spontaneously
mozilla
militia
hydraulics
filmmakers
categorical
disposable
jenner
convenience
overheard
kanyakumari
invertebr
populist
multivar
olympiads
vyvanse
heredity
vandal
1200d
hkust
indifference
dehydrated
unnecessarily
##talk
carlos
devalue
gynecomastia
ligament
chakra
vaild
neglected
hesitant
a53
tulips
handicapped
siemens
abhimanyu
subsequently
penguin
slavic
reefs
resentment
ganja
degrading
inhabited
crunchy
barbara
nichol
palindrome
prodig
empathize
cyclic
fragrance
aesthetically
dartmouth
neanderthal
follicle
cheetahs
undergone
transcendental
subreddits
unexplainable
tortoise
hemorrhoids
bismol
hudson
##engineering
paribas
concurrent
subsurface
cortisol
jhunjhunwala
lecter
ousted
rashtriya
zimmer
##accharides
steady
swastika
overreacting
920m
welsh
permeability
wrangler
barclays
brainwashed
predestined
eternity
phelps
uzbek
zawar
unmanned
relieving
standardized
malleable
slytherin
tungsten
reagent
abhiyan
apparatus
electroneg
elixir
copilotsearch
gamechanger
conciliation
nomencl
gibraltar
unpredictable
ubiquitous
palihapitiya
uefi
proavisor
alkenes
plumbing
clarinet
miniclip
submissive
paracetamol
cardiovascular
uzbekistan
02
2l
2h
3days
512
5cm
625
aired
auss
brib
bury
baker
cation
cres
crest
caching
caves
cunn
dou
dug
dares
eis
fern
ftm
gw
gion
g20
gape
hin
hound
hbase
iin
iced
jn
kear
kish
kep
kah
kollywood
kib
kaur
kriya
lp
lance
lars
mika
meryl
n2
nal
nure
nall
phe
pause
prab
puma
pnr
qi
r7
rishi
s1
sorrow
ting
tic
tec
tik
tying
tuck
tensions
tupac
u0001
v1
v2
vets
vuit
wix
wpa
wakes
warts
wilder
yee
yacht
zara
√2
##sw
##sner
##nox
##tch
##ture
##o4
##obi
##lie
##yc
##ye
##yu
##pox
##rans
##iard
##cg
##mid
##mine
##mberg
##e0
##electric
##hati
##hua
##uil
##aunt
##gd
##gery
##gians
##don
##kov
##vine
##vian
##vana
##valds
##zal
##zhik
##wani
##butter
##x7
##atars
##onopin
##owulf
##enet
##encers
doth
toaster
anon
anas
anecd
##arcer
##alers
##omical
##icus
##eston
##estion
##ilical
thirt
##asal
##academy
##isand
beast
beaver
beowulf
##rosc
##entive
stro
##oofer
itil
##ayette
haj
##oliber
##igent
rex
rearr
reyn
shred
shrug
##adm
##adors
##adero
##opa
##oper
##oping
##opsis
mog
mobi
mohan
##uta
##sevak
##dix
##illin
withhold
##agm
##umala
ques
quir
frying
fringe
maul
maze
thatcher
truman
##ulous
asana
dee
dew
##usd
##thy
enum
enhan
enables
enabling
atif
atasc
neoliber
##outed
##osene
##blet
alcat
altered
unsp
usmc
##arten
compli
compiled
peac
whore
##herst
abt
abuses
abomin
##acker
sehwag
amer
amel
amherst
goodwill
##rency
##endale
spill
spiel
anyways
plur
##ighty
acs
ack
acety
scm
scrib
scik
phara
##ipat
heel
intact
imposed
impost
##uder
appe
preempt
##alling
bye
timor
timed
##idean
clot
coz
workstation
##ivitis
##quer
upan
upfront
uplift
arora
arche
interiors
instacart
resize
resnick
teases
teasp
##odus
##izen
blouse
bluff
blaine
blunders
outback
earl
##ogly
perj
daytime
##uper
finder
##ubes
##achu
##siology
examiner
conson
overhead
incarcer
invisal
polyp
underne
flaunt
guant
carre
themself
emailed
monit
monop
500gb
herze
##erty
##ensitive
musso
websock
realization
skating
sheila
##ocet
justices
justifiable
twists
seekers
blacklist
crs
crpf
crunches
roberts
infest
decid
decoder
reprint
questioning
corrosion
primates
puranas
purifiers
redness
##monaut
mathbb
##nered
##codile
motives
biome
biosc
viewpoint
airpods
insure
deter
drains
watergate
favourable
facto
##azard
surah
breach
provoke
camero
valar
catan
socializing
filtered
healthily
evenly
postmates
fattening
comey
popped
generous
##grain
##graph
mindtree
sentenced
nonpolar
cultiv
autumn
assured
asshole
##perform
156
##avement
##bike
##bibo
retiring
apa
bodyguard
bodybuilder
##brand
painter
behalf
##uga
##hedral
##hedrine
##center
##iko
losers
eden
editions
amaze
opted
demography
foundations
raids
machin
freaking
headline
headquar
sourav
starred
supercon
massaging
stepped
##uxe
barney
legalize
completes
dogg
cirrh
microst
normalization
pca
alcoholism
urinary
intros
lowered
pax
satya
brita
britishers
researching
117
##raviolet
organise
communicator
multitas
161
geass
landings
linkis
waits
accessibility
copen
torvalds
faq
cancun
addressed
precure
hitachi
generalized
nationalized
##piration
puffy
diagon
citi
gravy
considerable
considerations
erl
skincare
gloss
glenn
pageant
typescript
##ophone
spotting
horrif
situ
malad
malibu
husk
##merge
silencers
gamification
lyanna
cookware
mastering
condesc
collider
##prom
hypere
csat
electricians
bhilai
thoughtworks
homologous
ethane
kerosene
sanity
conversions
candidacy
kargil
trello
heartless
innate
tamilian
osell
oswald
hpv
pilsner
rockwell
booting
tenor
argon
sudoku
cbd
copywriting
copywriter
rentals
##aws
icing
contrasting
burrit
capturing
burners
historian
knot
translating
hydrocodone
driverless
gifting
psychopathic
kisser
arranging
sportsman
madam
philosophies
melisand
almighty
heaters
##oticed
hamper
certainty
scenic
benin
fedora
##jiang
initiation
exchanger
fundsindia
fishy
##oosa
ironman
lengths
commented
synopsis
conditioned
cosmonaut
gaussian
cruises
mcat
mccon
##agnosed
wealthier
ultrasound
ultraviolet
##annah
sdhc
mrf
mrna
fashionable
artificially
applies
baj
##ceries
bowel
niches
nicobar
factorize
dominatrix
weathering
pushups
masons
theorems
300grain
hawkeye
azor
daro
daring
crotch
crocodile
halliday
35mm
ringing
alienware
cuomo
soulmates
fanatic
furry
sequels
administrators
yellowstone
lifts
chipotle
ampere
polythe
imagin
keepsafe
extremists
neurot
berry
berks
seeding
##ilingus
kodi
kozhik
borrowing
adviser
powershell
migrain
cowboy
creek
kickasst
healed
mosques
accompany
wiping
mortg
suitcase
renounce
assumption
buffering
olx
olac
divert
interpol
dissolved
krish
rumours
ejaculated
spinach
jonathan
consistency
##12dn
cosmology
cosmopol
srin
##kho
gallbl
31st
paddle
dmv
stalked
##oscope
lyricist
cabinets
relativ
memorise
memorizing
reflects
bicycles
miley
wholesalers
calendars
whisper
guarded
bharati
##downloader
durability
toilette
analogic
analogies
fabrication
draupadi
cereals
coachings
00am
hunted
wolfram
contestant
brightest
linguists
1987
barefoot
bothers
bothering
explodes
hunters
irritates
slightest
negotiations
awaken
awakened
doubly
aggressively
synchronization
flexibility
tights
faults
elliot
tasted
theatres
outsourced
demonitisation
concerts
elevated
implies
explosions
cruelest
dysfunctional
servlet
revolutions
clarke
bootstra
arrogance
arrangements
undes
lithuan
wrists
nudes
vulgar
h2so4
brady
drummer
extraterrestrials
estimation
onset
hazards
coefficients
bunker
sidhu
439
hijacked
inexperienced
klonopin
regrowth
fiscally
rewarded
veterin
monopolistic
tirumala
crusades
cfo
reunited
thirteen
moroccans
stripes
fulfillment
splash
refreshing
d3200
confrontation
gnome
##economic
incubation
prophets
neighbourhood
inexplic
nirvana
battleship
reversing
recalling
carbohydrate
obstacle
observing
swearing
crawl
groceries
##shaft
microcontrollers
euthanize
duckworth
uninterest
dirtiest
lilith
tearing
radiologist
forthcoming
reeves
unoffic
militant
misunderstand
pwd
##ecoin
fluoride
timetravel
nostalgia
dissociation
oste
m605
m606x
pupils
polynomials
contradictory
pistols
##orrents
accumulate
enthusiasts
##hawk
epsom
keratin
vigil
travis
brackets
baptism
anarchism
logarithm
paralyzed
gynecologist
lolipop
m712dn
parasites
gpus
umbilical
##runner
maximise
sculpture
adreno
retrograde
franco
##abytes
cranial
pivotal
slavs
480p
murderers
pudding
hypnotize
fraternity
##movable
infertile
infertility
derma
rivalry
ucsd
flammable
kpis
kombat
nibiru
blatant
symphony
overclock
emphasis
prosecution
prioritize
sankranti
##lasticity
dzire
swayam
disqualified
bargain
jacob
rutgers
handcuffs
macaroni
contributors
oxymoron
skyscrapers
m20x
##zenegger
shayari
seamless
sigmund
₹25000
skittles
euclidean
rajnikanth
disproportionate
messeges
bridesmaid
mellon
pikachu
doodle
proclaim
neuroplasticity
arrears
smoother
calibr
pythag
cuddle
wistful
repository
subwoofer
retaliate
machiavelli
stammering
alexandria
jmeter
nugget
##govina
schwarzenegger
bibli
surrogacy
unblurred
ammunition
gimmick
##kerearth
margarine
desalination
rs1000
demobilise
epistemology
ramanujan
quadruple
orthogonal
chaldeans
dixit
hackerearth
peyton
agilent
solvents
rohingya
ethereum
mmorpg
enlarged
m750n
brijmohan
birla
nautical
mavericks
unarmed
##integr
affidavit
autoplay
hearthstone
extraordinary
breathalyzer
pedigree
carburetor
wozniak
nicholson
crescent
cunnilingus
nuremberg
u0001f
vuitton
thirties
reynolds
atascadero
compliant
scikit
impostor
invisalign
underneath
herzegovina
mussoorie
biosciences
headquarters
cirrhosis
multitasking
melisandre
kozhikode
migraines
kickasstorrents
cosmopolitan
260
535
6d
aed
ais
aee
aps
arav
bpt
bpl
bmi
cid
cited
c20
cima
d7
dbs
dante
ful
fender
fares
gout
ghar
gaga
h3
hent
hik
hmm
jind
jared
jaland
kow
kant
kart
kud
kem
krist
kipp
kgb
koran
ksa
lh
lid
lass
lata
lender
lda
mould
mia
mms
mash
moose
mnn
nk
nx
ncs
ntt
ober
oled
pate
ppl
ptc
png
r2
ration
rour
riv
rote
rave
romm
ruther
rivals
sj
sath
sush
sledging
tg
tid
tame
tss
tijuana
tmc
tidal
ump
vil
vime
vnit
wm
wic
wass
wider
xm
x3
xolo
zimb
##saf
##nig
##tale
##tosis
##lies
##rang
##rals
##range
##rano
##ci
##fic
##file
##fied
##fold
##most
##making
##hort
##hans
##hala
##hagen
##upp
##aan
##aam
##gow
##gogo
##kab
##kela
##96
##42
##43
##76
##62
##vs
##vik
##82
##zan
##zai
##jour
##bore
##bish
##bling
##bots
##bags
##xx
##qen
##hey
##heed
##reduce
##anyp
##anix
##anese
##ervices
##onass
inart
inline
inversely
inactivity
##orra
isles
##enoid
dosh
##inga
toad
topt
togo
anode
##arized
##alk
##alap
##itone
##omat
##icum
##stock
##leans
andorra
cane
canoe
##verest
##ilm
##ilite
##ilian
##asco
##ishe
##isive
beet
##roject
stag
stree
##ello
##amai
##ecia
limp
liabilities
##irat
##oly
##olini
##igiri
reinst
shashi
shorth
##adro
##sex
orm
orleans
##urse
wei
##ripp
prose
procl
proactiv
como
##earable
##iman
fris
frictional
chun
chass
chimp
exiting
exodus
asymmet
enqu
ende
ensl
atatur
nemo
##osium
noted
notary
alma
unm
unil
unmat
unrem
unchart
unbalanced
bet365
compost
compelled
compilers
sofa
##apes
peas
##unia
abstain
##mental
seater
likeable
amen
goodnight
gohan
spins
spoon
acute
mann
manned
scof
heur
hemat
impending
impaired
appstore
##inks
coated
coherence
##ellate
##rawn
##ramar
##ivoc
accusing
##abel
##abwe
upright
aruba
taip
reselling
buoy
##odin
blasp
meanwhile
##emic
##emate
colbert
outfits
outrage
perceptions
posit
daylight
poetic
poisons
poisson
##lesias
##achment
pric
##ousse
sait
contaminated
brun
dispar
disobe
disintegr
cheney
chegg
##orylation
electra
overr
incans
nof
invades
prepos
preposition
visakhapatnam
flipping
flappy
warrants
carrer
ems
emble
emacs
monjee
changer
##erton
realities
hels
skates
bells
justification
soles
solips
solenoid
playoff
blackout
109
10x
10mg
nowzar
downward
salute
marketo
easing
addanyp
beforehand
corby
corolla
purify
rsu
aviv
imam
##co3
deluxe
##arkets
insulator
insensitive
productively
##appan
##enex
legged
fines
##azepam
employable
brewing
handy
handgun
hardworking
catalog
webmaster
centos
ridd
submers
subaru
posterior
swamy
sentiments
nonfiction
godzilla
lessen
distress
callback
elance
154
157
126
lightly
goto
##bras
sleepiness
##othy
showc
deflation
moria
##rett
##rette
psyc
demonization
psychosis
1930
gainers
##haran
typewriter
freestyle
locom
determination
putty
putlocker
patcher
msd
msrit
magna
steakh
stevens
barbar
oppress
oppression
sourcing
volat
cutter
fielder
microb
pci
papa
refract
reflux
18000
paw
solarcity
satoshi
suggesting
origami
immensely
multilingual
cheaply
filepile
503
childrens
midget
understandable
trackpad
dailymotion
likable
admir
admits
islamist
islamia
##aurus
nationalistic
speciality
specializations
puc
diatomic
citric
citibank
gaya
glonass
##hawa
##atti
pageview
customary
situated
billboard
varieties
malala
malik
nuclei
radiant
olympus
cooks
shoppers
celebs
holl
holland
narsee
narayan
147
148
hurdles
stripper
hyperm
squirting
bharti
discom
##comb
kerry
sanit
sanction
holden
subjected
flyer
ramifications
platonic
treason
##speed
staffing
214
2178
doctoral
fibers
##undy
yorkers
403
youngsters
misused
nitride
mornings
argued
sudaf
##bei
##wallet
sadhg
crabs
clauses
cannon
untr
untax
burp
harmed
arrows
stressing
occurrence
pathogens
rotational
collectors
swept
constitute
ticklish
dhl
dhaka
angela
closes
hdtv
##slide
sinful
strategically
virtualbox
expresses
aiib
snowfl
roulette
mcu
retrieved
hospice
##apsed
grandma
colonizing
purest
grounded
albanian
samoa
dutt
pascal
jaqen
ubc
audiobook
cas9
mashed
mandir
nutanix
##101
pronunc
octal
heaviest
filler
aerodynamics
conservatism
directional
unsure
indicated
jamie
tribal
threatens
##rometer
congressmen
extremist
nauk
pumping
oceania
oceanography
gosling
cuboid
abolition
akira
copyrights
convergent
khas
faithful
fifteen
appointing
appointments
dependency
mediums
cdse
audacity
silverback
refrigerators
proposes
150k
299
tumors
##ochrom
showering
mapreduce
jaypee
ashwin
ashwag
bioengineering
##chewan
syndicate
tufts
taped
ineff
simultaneous
tuned
tunnels
memorial
investigators
rigor
nutrilite
bbb
bbq
wholesaler
cameron
boner
ravish
tailor
paramount
constructing
sparks
troy
1967
1966
electromotive
marshal
rowan
gangtok
omaha
bobby
kimchi
briefs
unfairly
orthoped
starks
dummy
ketosis
ketamine
mgm
saskat
ancestor
magneto
exploit
retainer
licked
##rontal
smoothie
neuroscient
uncir
drainage
unconventional
emerged
inkjet
peoplesoft
doubles
synchronized
compulsive
permits
reproducing
vaccinated
ninety
amplify
mhz
uncomplic
spraying
conceive
explosives
servicing
serviced
revolves
attributed
stained
thunderstorm
threading
dedication
farting
farther
mnit
iglesias
npv
hexagon
supermarkets
conjug
disappointing
napoleonic
ioi
moisture
vaporizer
arcade
ddr4
prefrontal
contradicting
decompos
harmonica
eyelids
##iliating
disgusted
indiegogo
condensate
decorating
inequalities
deception
miserables
hoover
prophecy
omnipotent
pushes
threesomes
flooding
polymerase
ripen
##utsu
strands
disagreement
proprietary
fluctuate
gerry
glyc
flicker
unnoticed
kirk
shameful
crawling
newborns
rescind
vesting
endorsement
tharoor
equatorial
erupts
nipple
radiator
symposium
laxative
hippo
##evolution
prematurely
deterministic
populations
zeroes
technicians
dreadlocks
sneak
assertive
squirrel
abundance
accumulation
aesthetic
transexual
bracelets
orphanages
##desk
##bhk
mudra
tilted
inhuman
contrary
carpent
baptized
venomous
abortions
lodha
prolonged
synthesized
lavender
stakehold
monterey
constraint
constituent
cisf
inhaling
franz
cranberry
cocktails
prefixes
nauseous
sakura
vicodin
parlour
multivitamins
explicitly
escaped
mossad
aggregator
0x800
gabriel
gautama
kayak
oysters
regenerate
palindrom
percocet
coulter
microsd
benifits
hairline
glycolysis
bazaar
kinematics
sphinx
pronouns
m506x
pigeons
gawker
krazy
congestion
humiliated
glasgow
counsellor
bureaucracy
dodge
sponge
imprisonment
mussolini
##etermined
maneu
oxalic
repellent
nucleotides
##rochemical
watsapp
evacuate
biomass
silicone
m604dn
chhatrapati
unseen
manuscript
hermaphrodite
reincarnated
gullible
vjti
reimburse
sufism
##discipl
painkillers
prototyping
unsuccessful
altruism
eagles
mohenjo
comptia
scattered
scooty
arundhati
autopilot
malfoy
omniscient
gionee
wilderness
abominable
guantan
cameroon
copenhagen
condescending
neurotypical
berkshire
gallbladder
swayamsevak
hentai
jindal
jalandhar
rourkela
rutherford
vimeo
zimbabwe
inarticulate
endeav
ataturk
uncharted
nowzaradan
addanyproject
corbyn
submersible
sudafed
sadhguru
untaxed
ashwagandha
saskatchewan
uncomplicated
1x
2kg
3c
310
460
430
425
560
617
7s
7x
787
8g
9k
bg
bif
bts
c6
ces
cuss
cvt
cunning
dul
dres
dass
dah
dude
dha
duc
dfa
dancers
fuk
faint
gow
gry
gently
gund
hull
hatha
iict
jec
kd
kram
kline
kij
kya
kyl
lr
lse
lup
luna
lenders
mbs
moll
m16
nuns
niser
n2o
oo
oed
owing
oasis
pog
pledge
poured
reth
rames
ratt
rgb
sz
sis
sut
sata
sula
sorce
sjs
slander
td
tans
tash
uro
uav
ucl
ucc
uceed
vw
vss
vib
vlogs
w2
wpi
wacom
xe
xd
yak
yod
ygr
yarn
yatra
zay
zhi
zhang
zipper
£100
ƫҿ
ɐŧ
ɖ∀
ɽφ
एक
##tl
##tri
##tail
##tzer
##oqu
##lap
##you
##yons
##pin
##pec
##pill
##path
##pock
##rown
##rically
##iba
##iitis
##cup
##cised
##fr
##fram
##ficial
##mq
##mies
##mind
##mash
##home
##hale
##uld
##ugs
##aus
##aita
##gec
##del
##kb
##4g
##vp
##vile
##voice
##vara
##zas
##zel
##zepam
##wich
##wana
##wati
##wara
##jot
##bog
##buck
##qus
##ʉʛ
##ز∂
##ϟɮ
##ཡز∂
##aters
##heb
whip
whipl
##reya
theological
##inel
##anned
##onation
##onian
##ouched
##orces
##endix
dodo
anion
anac
anur
anova
##arity
##arica
howl
howrah
##alone
##itre
##itud
##omal
##icion
##steen
##lead
##edonia
youve
##veer
##esting
##estically
thier
thumbs
##asons
##askar
beacon
##rops
##rosis
stig
stems
##amble
##amala
##ambi
itte
##otax
##ayi
##ayee
##ecs
hak
hast
limb
libel
##olin
##igil
##igms
##ceph
reused
shant
shining
##adol
##adasha
##opecia
mozz
prolog
##chitis
comets
##earing
fring
frapp
mae
mapped
cho
chise
churn
##00k
tram
trill
tramp
deme
dekho
conject
##antro
##antra
##antaged
neb
nept
##arella
##esson
##essional
notarized
aloud
alamed
alopecia
unin
ungr
unple
unitary
unmovable
comply
##apy
##apam
pere
peels
##hering
suing
##inders
seren
amade
amuse
amended
sprayed
loom
plun
##weet
aches
scout
scada
scouts
##loin
##loids
##lohex
hep
hemp
heaving
hebei
##actor
imps
imperson
implements
append
appendix
adt
adblock
preamble
204
202
##inki
clon
clare
clones
cox
coven
cohort
##elli
##ellers
evergre
##dera
leash
leeco
##ilearn
##quet
##quity
##pty
acclaimed
##abdi
exposing
arom
muc
muhammed
muffin
intership
instability
reseller
teg
thinkers
##odhya
happends
##ogadro
posing
dayan
poc
persue
sa2
sairat
disin
disqus
wraps
betterment
persona
##ftop
electing
noct
invoices
accountable
evasion
flakes
flume
carpal
carriage
emmy
emulators
womens
calist
curvy
travers
differentiated
shem
sheen
sheik
##ocur
##ocular
##ocative
##ethy
twinkle
solitary
schmid
cric
infilt
decrimin
repar
1050
opiates
simul
simile
societal
humiliating
geneal
remar
bigdata
movable
profiling
transduc
careless
corona
bloated
avogadro
[...]
